#version: 0.2
Ġ Ġ
ĠĠ ĠĠ
ĠĠ Ġ
Ċ ĠĠĠĠ
i n
s e
ĠĠĠĠ ĠĠĠĠ
r e
ĊĠĠĠĠ ĠĠĠ
o n
a t
Ġ t
o r
e r
s t
Ġ =
ĠĠĠĠ ĠĠĠ
e n
Ġ i
Ġ a
Ċ ĠĠĠ
d e
a r
a l
" "
ĊĠĠĠĠ ĠĠĠĠĠĠĠ
l e
m e
h e
Ġ f
Ġ c
ĊĠĠĠĠ ĠĠĠĠĠĠĠĠ
l f
se lf
Ġ re
i on
u r
Ġ n
Ġ p
i t
Ġ in
a n
c t
c e
Ġi f
Ġ s
Ġ o
g e
Ġt he
r o
Ġ self
Ġ e
a me
Ġ '
u e
u t
l o
"" "
in g
) :
Ġ d
p e
ur n
Ġ b
t urn
en t
l i
o t
Ġ """
at e
f i
ĊĠĠĠĠĠĠĠĠĠĠĠĠ ĠĠĠ
Ġ w
Ġ m
u n
s s
r a
Ġ #
i d
Ġf or
c o
Ġi s
Ġre turn
- -
Ġt o
de f
m p
v al
on e
a d
e d
l a
Ġa n
Ċ ĊĠĠĠĠĠĠĠ
u l
Ġ (
( )
ge t
at a
c h
p t
y pe
n ame
Ġ st
r i
k e
N one
u m
Ġo f
i s
Ċ ĊĠĠĠ
. _
i l
Ġn ot
Ġ :
t er
e s
c k
ĊĠĠĠĠĠĠĠĠĠĠĠĠ ĠĠĠĠĠĠĠĠ
d i
e x
g s
Ġ "
e l
' ,
m a
at h
o l
u p
Ġan d
Ġ T
) )
at ion
a m
( '
t h
val ue
Ġ l
v er
Ġ se
a s
p ar
o de
[ '
Ġc on
' ]
ul t
ct ion
c on
Ġ None
r or
Ġe x
ke y
t ype
v e
Ġ h
Ġt h
se r
li st
ĊĠĠĠĠĠĠĠĠĠĠĠĠ ĠĠĠĠĠĠĠ
Ġ 1
Ġ or
Ġ +
en d
b le
or m
i me
' )
t a
Ġb e
Ġ= =
Ġf i
Ġ [
s p
Ġ g
in t
Ġ _
ar gs
p p
it h
p ath
ex t
i z
b j
e ct
o d
Ġ 0
i g
an d
Ġ *
t o
Ġc o
' :
-- --
Ġ u
Ġe l
an ce
m ent
Ġ -
or t
Ġel se
q u
( "
pt ion
se t
Ġ {
Ġ lo
t e
Ġ de
i se
f orm
R e
a ge
Ġ r
Ġd i
fi le
p o
st r
Ġ A
d ata
par am
r ror
E rror
Ġ I
Ġ %
t r
v i
ro m
ĠĠĠĠĠĠĠĠ ĠĠĠĠĠĠĠĠ
Ġd ata
Ġst r
Ġa s
re n
st ance
Ġ me
Ġ value
al l
p ut
e t
Ġ S
Ġ ra
re s
in e
ar t
Ġ C
Ġn ame
u b
or d
Ġa r
q ue
a se
r ue
Ġ `
it e
iz e
Ġp ro
Ġw ith
Ġ F
c he
Ġa l
a ble
p er
) ,
e w
Ġre s
k w
i c
" ,
Ġ v
i st
Ġm a
r y
u s
Ġra ise
Ġl en
o ut
f o
fi g
l y
a ck
o w
al se
Ġ >
Ġfi le
p ro
bj ect
Ġ P
t ime
er s
Ġ list
Ġp ar
el d
m s
kw args
" )
c i
form at
a pp
re d
] )
Ġf rom
h a
Ġ def
de x
o ur
que st
Ġ x
mp le
Ġ key
h t
Ġ y
a ult
in stance
u re
f f
ren t
s ion
an ge
l en
d ate
] ,
in d
Ġ on
la ss
co de
Ġ 2
Ġ Re
' '
Ġ get
Ġ D
Ġ E
ra y
ĊĠĠĠĠĠĠĠĠĠĠĠĠĠĠĠĠĠĠĠĠ ĠĠĠ
un t
our ce
0 0
Ġc h
t ext
t ri
at ch
ur l
ĠT he
Ġw h
s c
Ġo ut
un d
u st
ĊĠĠĠĠ Ġ
Ġlo g
p re
. .
_ _
j o
o s
Ġn p
ad d
co l
m m
Ġse t
i p
ce ss
i le
er ror
o p
Ġis instance
Ġ <
ode l
Ġth at
Ġth is
o c
li f
g er
se d
Ġ at
app end
ce pt
b u
it y
i v
Ġt ry
th od
p a
i m
Ġp a
= '
Ġ en
ĠĠĠĠ Ġ
ct or
Ġ N
Ġi t
) .
Ġres ult
Ġe lif
Ġ V
it ion
lo w
h o
p y
Ġb y
c l
ĠT rue
m b
re ad
i ve
il l
m o
Ġ* *
ĊĠĠĠĠĠĠĠĠĠĠĠĠĠĠĠĠĠĠĠĠ ĠĠĠĠĠĠĠĠ
p i
di ct
d d
ro up
ce s
Ġ{ }
re ate
Ġ he
in fo
Ċ ĊĠĠĠĠĠĠĠĠĠĠĠ
Ġt ime
Ġc ol
ut e
Ġt ype
un ction
on se
Ġ ro
um ent
ame ter
Ġ la
val id
d er
Ġ M
lo g
Ċ Ġ
u le
di r
Ġw e
o m
ss age
um b
Ġn ew
Ġ' ''
ar y
re turn
Ġa re
Ġp ath
b o
s ize
ver sion
ha pe
an s
ig n
Ġo bject
l it
Ġp re
Ġex cept
` `
ĊĠĠĠĠĠĠĠĠĠĠĠĠĠĠĠĠĠĠĠĠ ĠĠĠĠĠĠĠĠĠĠĠĠĠĠĠĠ
p s
= =
ĠF alse
ss ion
at or
Ġo s
p ort
v ent
a mple
r int
il d
Ġin t
al ue
Ġ un
de d
c a
sp onse
ar i
Ġ L
ĠRe turn
Ġstr ing
Ġ` `
or k
y s
Ġ[ ]
Ġ R
at tr
b el
I n
c lass
Ġal l
con fig
Ċ ĉ
umb er
k en
Ġ k
m in
' .
le ment
c al
T rue
er y
ĠI f
ce ption
" :
lo ad
in dex
pe ci
[ "
( ):
an t
Ġ )
. """
p la
Ġ O
st art
# #
f e
f a
Ġcon t
p h
a ve
lo ck
str ing
o re
Ġh as
ma ge
._ _
Ġ G
! =
up date
jo in
Ġc ur
he ck
ĠĠĠĠ ĠĠ
l ine
c ur
un c
Ġw ill
s on
Ġre quest
Ġ !=
c ation
n s
n e
---- ----
ate d
Ġ U
lo at
Ġl ine
ta in
] .
E R
ar ray
m at
Ġ j
Ġdef ault
Ġi d
vi ce
qu ery
g ument
Ġd o
ar get
Ġp o
i al
F alse
n ode
Ġ W
t ra
co unt
sp lit
Ġdi ct
g th
a g
Ġf il
Ġ+ =
en er
st e
mm and
Ġf unction
Ġ B
Ġme thod
ĠV alue
i f
l in
at us
Ġn ode
Ġb o
tri b
ma x
se n
li ent
Ġu ser
ĠReturn s
Ġ /
s h
i es
" ]
O N
o k
Ġa dd
r ite
mp ort
an n
Ġcon fig
as k
ser t
Ġ le
Ġ> >
ĠValue Error
t ing
b ase
Ġs ub
lo t
Ġo ption
o bj
ig ht
i r
ul d
t y
ameter s
od ule
w ord
ar d
ut h
th er
Ġp rint
sc ri
b ack
fi x
Ġt e
d a
Ġs peci
l l
Ġ kwargs
C on
y n
Ġma x
Ġout put
Ġfi eld
re ss
Ġ>> >
Ġco mp
s hape
Ġn e
b y
Ġu se
bu g
Ġ \
: `
fi eld
Ġar gs
I N
" .
po s
u ser
i fi
st ate
g roup
ad er
Ġ 3
ĠĠĠĠĠĠĠĠ ĠĠĠ
iv en
Ġst art
( [
a b
up le
mp l
Ġi te
* *
r ame
m l
g ra
re e
Ġ error
po int
ma p
= "
m it
h is
ow n
ver t
qu i
e c
Ġre sponse
c ord
u mp
Ġvalue s
{ }
A T
v el
ar ch
ĊĠĠĠĠĠĠĠĠĠĠĠĠĠĠĠĠĠĠĠĠ ĠĠĠĠĠĠĠ
s ub
Ġ H
Ġr ange
r st
a c
li c
m d
Ġn o
Ġa pp
value s
R E
Ġc an
w a
ke t
Ġ z
re quest
m odel
Ġin dex
Ġin put
[ :
Ġc heck
Ġs o
l s
res ult
() )
n ing
an g
S T
u g
Ġ li
E x
ĠE x
param s
w ork
Ġg iven
Ġpar am
co mp
t en
it er
f rom
Ġre t
a ct
Ġm odel
ite ms
Ġc all
or y
ĠT his
w ith
it s
e p
def ault
st ri
ul l
pla ce
ter n
ĠI n
w e
u de
u ct
Ġ end
de bug
o und
Ġcur rent
Ġt r
Ġi mport
ate s
l at
c s
Ġm ust
Ġa x
Ġme ssage
ation s
ari able
sp a
Ġn umber
Ġo p
il s
d s
i ch
a x
Ġa c
Ġin stance
pe ct
a ch
se s
ro w
o bject
n p
Ġb ase
' ):
f or
d ing
Ġ ..
t ent
Ġ url
r on
ĊĠĠĠĠ ĠĠĠĠĠ
la bel
Ġ one
j ect
Ġ |
n um
Ġspeci fi
mo ve
o ption
t s
t p
Ġf a
Ġcon tain
f unc
Ġse r
ctor y
' s
Ġp er
in ter
qu en
Ġar ray
Ġf loat
ar g
ot e
b s
ho uld
re am
Ġc reate
key s
t es
Ġc a
w rite
Ġt ext
c all
T ype
Ġm in
s ing
Ġb u
re g
' t
co m
um n
Ġpa ss
at ure
Ġwh ich
and le
Ġs up
b e
j son
la y
Ġfor mat
Ġu sed
fi len
Ġ version
Ġdi re
Ġon ly
spa ce
Ġh ave
Ġite m
] [
i eld
Ġ valid
Ġ ent
i x
0 1
L E
s or
id th
a k
( (
Ġm atch
Ġc al
o st
Ġd is
name s
fi l
r un
ction s
re f
o g
d f
filen ame
en ame
Ġr un
Ġlog ger
Ġar gument
Ġc ode
Ġl in
Ġst ate
Ġre g
Ġs u
Ġs hould
al t
Ċĉ ĉ
Ġro w
Ġs h
g n
I D
ad ers
Ġas sert
o u
par se
all y
O R
Ġe vent
out put
Ġparam s
to ken
in put
N ame
Ġex ist
st atus
== ==
n ot
f t
Ġp y
Ġt arget
M E
K e
Ġm at
Ġ query
Ġ }
and l
trib ute
lo b
mpl ate
n ew
n d
'] ,
Ġin ter
s um
Ġn um
me ssage
Ġi mage
Ġd ate
Ġp os
Ġo ther
() .
th on
ment s
/ /
Ġp art
## ##
che ck
type s
ite m
me thod
ad ata
Ġan y
le d
Ġs ource
e f
le ct
Ġfi rst
r id
in s
Ġre ad
pt s
Ġ 4
Ġt uple
Ġs ize
ta ble
fe ren
S t
Ġ @
ut ion
r c
s k
Ġg roup
li b
la ble
Ġ up
Ġe ach
it le
ann el
s g
vi ew
'] )
ne ction
cl ude
D E
fil ter
v ar
che d
Ġfil ename
Ġc lass
s o
b lock
s ource
he re
Ke y
Ġto ken
Ġtr ans
Ġe lement
ar ning
u al
Ġcont in
C o
g ht
a pi
Ġop en
ma in
Ġco mmand
len gth
s y
un k
pe c
i de
Ġs p
Ġwh ile
tr y
ĠP ar
Ġt ra
Ġo bj
n et
Ġ{ '
ol d
ĠA r
: //
a v
() ,
)) )
ri x
u se
in al
] :
Ġla bel
po p
t adata
d oc
Ġo ver
Ġbo ol
ic al
m atch
o ff
m odule
h as
Ġ --------
Ġcont ent
od y
ur ation
Ġwh en
n o
Ġspecifi ed
Ġ_ _
e vent
con tent
id s
Ġ X
Ġf ound
Ċ ĊĠĠĠĠĠĠĠĠĠĠĠĠĠĠĠ
Ġcontin ue
ting s
D ata
ĠC on
ho st
ot h
Ġin to
c lient
pro cess
A R
[ -
ump y
m i
ut es
S E
on g
a mp
scri ption
A L
Ġ update
or re
( *
jo b
c reate
re sponse
ms g
ra w
i mage
er r
it ial
P ar
r type
Ġp l
p lot
t ed
d o
Ġpo int
um ns
le te
ack age
Ġfile s
ample s
id x
Ġ- >
a ction
fa ce
ar k
f ind
u res
a st
file s
t arget
Ġd oc
m t
g ing
A N
Ġt able
pe d
ste m
andl er
Ġm sg
Re turn
ri es
n ect
c re
ction ary
č ĊĠĠĠĠĠĠĠ
or s
s with
on ent
) ):
u me
a y
d is
P ro
c ent
d b
P I
orm al
Ġ val
a i
and om
tr ans
c lo
mb da
f loat
c y
le an
Ġg ener
Ġc ls
ut ils
I d
Ġlen gth
Ġh t
Ġi ter
Ġs y
feren ce
mp ty
co re
p r
m en
Ġdo es
o us
ta g
Ġcon text
Ġfil ter
di re
at s
: :
iz ed
con text
Ġb ut
1 0
re place
Ġm odule
) ]
a uth
stri p
Ġv ariable
ind ow
le ction
Ġpa rent
ot al
r ange
che ma
quen ce
Ġ ['
Ġs ort
t x
che s
cl s
p ri
Ġw ork
le vel
Ġs ign
l p
c ket
co mmand
l d
Ġre qui
T E
Ġj son
pp ing
ri al
o f
Ġg ra
Ġt a
Ġs ys
lin k
S e
i ble
Ġar g
Ġt f
lin es
a p
Ġth en
Ġu sing
ro ot
R es
Ġco unt
Ġ J
low er
Ġm o
Ġ ver
i o
Ġresult s
Ġ .
ĊĠĠĠĠĠĠĠĠĠĠĠĠĠĠĠĠĠĠĠĠĠĠĠĠĠĠĠĠ ĠĠĠ
Ġa ss
Ġb lock
p l
Ġf e
Ġof f
Ġy ield
Ġ> =
Ġla st
sen t
option s
s ign
re ak
c ul
i ck
G et
Ġoption s
Ġhas attr
ri ght
T I
se ssion
Ġ< =
s u
Ġc lient
res h
co ding
Ġ q
Ġdef in
Ġ( '
Ġ Q
Ġma ke
par t
' ))
F ile
ĠEx ception
-- -
con d
co py
Ġoption al
E lement
ile d
P E
w idth
fo re
lo c
read y
n umber
cur rent
Ġdi ctionary
if y
m ode
v ed
Ġf unc
Ġs c
ig h
que ue
Ġw as
Ġre cord
vi ron
r t
6 4
3 2
ĠS e
Ġp ri
Ġres ource
pla y
Ġreturn s
ĠT ype
Ġ ----
Ġpar ameters
Ġ qu
at tern
c cess
Ġch ar
ff er
Ġpro cess
` .
p end
i ss
Ġm ode
Ġh ost
Ġun i
Ġ 5
ca che
f unction
Ġa ct
u d
yn c
r an
pre fix
Ġne ed
pa rent
Ġor der
Ġex tra
Ġ --
Ġa v
Ġst atus
te mp
f rame
Ġax is
at ing
Ġ Y
g en
m an
Ġc ase
ĠAr gs
ifi er
Ġb ack
Ġargument s
col or
c md
ĠPar ameters
S et
Ġ.. .
field s
re q
Ġa uth
st amp
Ġpar ameter
Ġname s
Ġen um
ord er
ax is
Ġo per
Ġc orre
Ġn ext
Ġch ange
ate g
ĊĠĠĠĠ ĠĠĠĠĠĠ
Ġs ame
Ġcol umn
ex ist
Ġpro vi
Ġpar ser
Ġt ask
f ter
ann ot
Ġd type
A C
ur i
Ġt ag
Ġs hape
Ġhe ader
la st
ch ild
Ġ' .
Ġget attr
Ġch ild
L ist
x y
A r
res ource
z er
se arch
Ġe d
a re
r it
Ġa d
lob al
E N
im um
ol s
Ġdire ctory
er t
st ore
Ġy ou
Ġm ult
Ġn et
c or
Ġn umpy
li mit
co mm
Ġin di
he ader
ĠC o
form ation
ch ange
Ġpro per
D e
'] :
'] .
Ġlo cal
i b
ition s
Ġa ction
o me
v id
} )
( _
a in
at ive
. ')
Ġser ver
S I
Ġkey s
trib utes
Ġ-------- --
pp er
pt h
O D
e lement
Ġb reak
add ress
ol der
F I
op en
ra p
er ate
le s
Ġtime out
Ġd f
Ġf ind
l ta
Ġcol or
U n
Ex ception
. ")
Ġp ort
Ġp lot
') ,
R L
lo cal
Ġdi ff
ĠĠĠĠĠĠĠĠ ĠĠĠĠĠĠĠ
Ġat tr
ht tp
u id
T o
n er
w ise
Ġal ready
off set
Ġpar se
L O
Ġc md
1 2
v is
p rint
start swith
Ġro ot
D i
Ċ ĊĠ
t ask
M e
gra ph
ĠG et
ĊĠĠĠĠĠĠĠĠĠĠĠĠĠĠĠĠĠĠĠĠĠĠĠĠĠĠĠĠĠĠĠĠĠĠĠĠ ĠĠĠĠĠĠĠĠĠĠĠĠĠĠĠĠ
ra ise
Ġlo ad
iz ation
el l
Ġse ssion
Ġin fo
st ream
Ġth an
ser ver
Ġp age
Ġ ""
ai lable
ĊĠĠĠĠĠĠĠĠĠĠĠĠ Ġ
: ]
Ġor ig
G E
Ġf la
Ġal low
to p
st er
f n
ex ec
ut o
en v
pect ed
ist er
ing le
ar gument
ĠType Error
Ġw here
n a
T P
ve ctor
y load
di m
V alue
Ġhe aders
R O
le ase
str uct
sc al
Ġoff set
Ġ' %
wa it
men sion
Ġreturn ed
E n
Ġre f
t ies
Ġw ord
ust om
] ]
d u
ex p
Ġla y
li cation
ch ar
Ġin te
d en
t itle
scri pt
co pe
ma sk
Ġsup port
con ds
Ġenum erate
Ġs alt
a ger
pa ss
Ġthe re
re cord
ut il
p ha
oc ket
c li
Ġfield s
p age
Ġid ent
at ures
Ġex ception
return s
un i
Ġby tes
in it
Ġlin es
Ġent ry
ust er
'] ['
Ġte st
by tes
Ġre pre
Ġm ore
) [
ĠI D
t ree
} ,
mple ment
Ġle vel
Ġ---- ---
d type
Ġa g
m ary
Ġlog ging
ĠA n
ma il
tern al
" ):
Ġde st
Ġn on
Ġ &
h andle
t ps
y le
Ġser vice
has h
Ġs ingle
m ote
Ġdate time
Ġte mp
en code
la s
exist s
Ġpre fix
ef ault
[: ,
Ġca che
o se
S S
Ġ Key
Ġs cal
point s
ma g
Ġ job
Ġte mplate
Ġli mit
te st
Ġt w
er ge
ex ception
pro ject
mi ssion
ĊĠĠĠĠĠĠĠĠĠĠĠĠĠĠĠĠĠĠĠĠĠĠĠĠĠĠĠĠĠĠĠĠĠĠĠĠ ĠĠĠĠĠĠĠĠ
Ġm an
con tain
Ġse arch
Ġs um
he aders
Ġst ream
m on
gra m
ĊĠĠĠĠĠĠĠĠĠĠĠĠ ĠĠĠĠ
Ġex ec
f low
st d
Ġcon vert
li ke
] ))
ro und
Ġex p
g ment
Ġfor m
Ġp as
S ub
c at
s ort
C O
ĠW e
Ġc l
Ġ' '
Ġbe t
re move
F rame
S er
i ce
Ġobject s
me tadata
e ar
Ġma y
b in
date time
g ener
Ġhe lp
sen d
bo x
on t
U L
node s
Ġprovi ded
ra pper
Ġpro ject
ĠE T
ter m
( {
st ack
s q
Ġh andle
b ro
#### ####
par ser
id ent
it ies
bo se
Ġat tribute
lo cation
ch annel
Ġso me
Ġite ms
00 0
M A
Ġco py
bu ild
.. .
Ġco ord
t he
st ant
Ġcall back
n own
qu al
M L
ht ml
Ġa b
ĠP y
f la
Ġv ar
ight s
ĠF or
we en
Ċĉĉ ĉ
Ġp h
Ġo ld
==== ====
ser vice
f y
L I
v ariable
A D
Ġse n
log ger
9 9
Ġ vi
a ss
s pec
time out
} '.
Ġi gn
t uple
g r
Ġ 6
la mbda
Ġre move
con nect
ĠS et
Ġin formation
te mplate
Ġin clude
ut f
tri c
Ġma p
U T
ĊĠĠĠĠ ĠĠ
ar n
clo se
id get
po st
S tr
ver se
Ġerror s
Ġ1 0
ent ial
m od
or age
ĠD e
Ġsort ed
Ġpas sed
Ġe mpty
ug h
at ic
Ġs ample
w er
Ġstr uct
i od
Ġf rame
st ra
Ġrequi red
Ġto p
il ity
IN G
Ġin itial
l ation
Ġw rite
ĊĠĠĠĠ ĠĠĠĠ
T Y
b it
Ġmat rix
č ĊĠĠĠĠĠĠĠĠĠĠĠ
call back
ĊĠĠĠĠĠĠĠĠĠĠĠĠ ĠĠĠĠĠ
set tings
col umn
Ġ err
u x
Ġlin k
2 5
ĠD ata
r s
pre ssion
p ol
he ther
Ġlo cation
Ġadd ress
Ġit s
Ġb ody
R I
Ġt er
x ml
Ġp ackage
ĊĠĠĠĠĠĠĠĠĠĠĠĠĠĠĠĠĠĠĠĠ Ġ
Ġf ull
o pts
it or
de code
p k
ĊĠĠĠĠĠĠĠĠĠĠĠĠĠĠĠĠĠĠĠĠ ĠĠĠĠ
val s
iz er
Ġme tadata
ĠC heck
d own
c f
= {
-------- --------
Ġa fter
ge s
Ġg en
g o
p ack
Ġco mm
ol ume
Ġch unk
b ody
Ġsup er
'' '
Ġc lo
Ġ K
Ġd b
N A
Ġra w
se rial
T he
Ġbe fore
on ly
] ['
l per
ch o
Ġgra ph
n ext
me ta
ĠA dd
ol low
col umns
Ġch annel
Ġs k
T ime
n ow
lic y
g rid
ĊĠĠĠĠĠĠĠĠĠĠĠĠĠĠĠĠĠĠĠĠĠĠĠĠĠĠĠĠ ĠĠĠĠĠĠĠ
c ry
Ġ 8
w ard
` ,
ĠC reate
Ġpos ition
se q
Ġt otal
m ory
Ġid x
le t
de lete
pro per
Ġn ormal
co ord
result s
o ver
Ġdata set
ifi cation
s i
s ide
able d
Ġname space
Ġa li
T TP
mb ol
et ch
Ġcontain ing
b ar
Ġav ailable
Ġco mple
p ub
ion s
oth er
en sor
Ġm ask
Ġin st
Ġbet ween
m g
Ġcon nection
s ample
f er
ste p
an k
w arning
Ġa pi
ent ry
ĠP ro
re t
ari ant
Ġlo ok
S ON
li ce
Ġex t
Ġex ten
e st
f ull
Ġnode s
Ġt ri
b atch
Ġ' /
1 6
Ġcol umns
Ġbu ild
par ameters
ul ar
c le
OD O
in ation
ĠL ist
ith er
ro p
las ses
Ġco m
lay er
ĊĠĠĠĠĠĠĠĠĠĠĠĠ ĠĠĠĠĠĠ
Ġde vice
con f
Ġ ]
A dd
label s
me an
f ul
mat rix
Ġnet work
o b
Ġth read
o per
Ġb in
di fi
con t
Ġse quence
') .
Ġtw o
Ġw idth
ge x
Ġsp lit
m y
N ot
ext ra
ĠD efault
( **
ĠU n
ge st
ic s
c p
mb er
net work
Ġset tings
Ġt itle
er n
ĊĠĠĠĠĠĠĠĠĠĠĠĠĠĠĠĠĠĠĠĠ ĠĠĠĠĠ
a ke
Ġexist s
Ġbo und
C E
C h
Ġl at
U N
ĠA PI
bo ol
contain er
P O
u age
en s
as h
C H
ro ll
ang uage
Ġst ep
t tribute
Ġdoc ument
le ft
Ġpass word
a it
s up
se ction
in di
. ,
ver y
Ġconfig uration
ĊĠĠĠĠĠĠĠĠĠĠĠĠ ĠĠ
00 00
r iter
iss ing
Ġcal led
Ġbe en
= [
. "
C ol
o red
con nection
ir s
Ġr andom
vi ces
ug in
i str
der r
Ġhas h
de red
ro l
ĠS t
ip le
Ġz ip
sp on
or g
`` .
zer os
tri e
com ment
m ark
viron ment
Ġin d
m ult
de scription
ca de
Ġpoint s
path s
or ig
un ter
di ff
he d
Ġd own
'] [
Ġ' -
sy stem
di st
1 1
pa ce
co mple
r andom
bo und
s a
Ġen coding
p onse
g in
object s
s ave
me di
ĊĠĠĠĠĠĠĠĠĠĠĠĠĠĠĠĠĠĠĠĠ ĠĠ
s peci
Ġcomp onent
ĠT ODO
s rc
Ġf ollow
ri pt
it ude
Ġde scription
add r
Ġp i
Ġse e
p ackage
\ \
to col
Ġst op
vi ous
Ġg o
f fix
N o
st op
ta ils
F A
Ġcal cul
Ġc li
bu ffer
ĠR a
D I
In valid
Ġtype s
Ġs ix
Ġ" %
P ath
c ate
fi rst
Ġli b
Ġen v
F F
M P
ol ution
Ġs ave
Di ct
Ġdiff e
)) ,
Ġt ree
ĠN ot
Ġb atch
] ):
Ġla mbda
ri de
AT E
Ġli ke
al og
ext end
ĠL O
us h
d ump
Ġre ference
ĠR un
Ġo pt
re qui
s chema
Ġcreate d
ĊĠĠĠĠĠĠĠĠĠĠĠĠĠĠĠĠĠĠĠĠ ĠĠĠĠĠĠ
Ġexten sion
Ġrequest s
resh old
Ġsu ccess
v ate
Ġ' {
F a
z ip
Ġpl t
ab s
Ġst d
al id
Sub Element
Ġ right
Ġde l
Ġse lect
de lta
w h
__ ['
ĠO ption
group s
o lean
in ed
n g
h andler
Ġal so
pos ition
Ġsh ow
de vice
ĠKey Error
ke ep
L A
ĊĠĠĠĠĠĠĠĠĠĠĠĠĠĠĠĠĠĠĠĠĠĠĠĠĠĠĠĠ Ġ
ci es
row s
Ġht tp
Ġchar act
Ġj ust
C lass
al ys
Ġdi mension
L o
Ġs a
Ġ view
scal e
C T
Ġlay er
pro file
st ats
Ġ' _
Ġkey word
g ress
bro cade
Con fig
ol ve
= (
pass word
in st
Ġlabel s
s ys
ig ma
o pt
Ġthe m
ateg ory
Ġs chema
Ġw ant
Ġdata base
act ive
Ġfor ce
p c
th ing
ĠU RL
Ġinte ger
Ġn ow
Ġpa yload
Ġp ub
TY PE
Ġdi r
Ġs rc
ator s
C ON
O bject
ĠRa ise
z one
Ġat tributes
Ġt mp
ac cess
Ġm ark
Ġr ule
t f
Ġother wise
p date
Ġre place
ran ch
ta gs
r ule
ĠSe e
in ce
Ġ' ,
Ġex c
Ġfe ature
f l
v es
en ce
Ġpy thon
ent s
} ".
dire ctory
Ġdefin ed
s amples
Ġme ta
Ġg lobal
r ans
Ġo b
he lper
ste ad
data set
Ġde pend
cl u
ing s
Re quest
a ded
0 4
da y
ss ible
e k
val u
Ġexist ing
Ġbase d
d uct
ent ic
Ġh andler
Ġ vector
Ġhe re
re c
ition al
ex c
ce ll
cry pt
stri b
re l
Ġpo st
O T
se lect
', '
Ġle ft
C reate
w d
p en
ca use
Ġp attern
Ġac cess
ĠLO G
ra ph
ĊĠĠĠĠĠĠĠĠĠĠĠĠĠĠĠĠĠĠĠĠĠĠĠĠĠĠĠĠ ĠĠĠĠ
Ġo pts
er o
s v
me d
Ġstring s
ma ke
Ġelement s
pos it
un it
n ormal
Ġp k
r m
p attern
Ġp d
dire ct
s alt
E L
NA ME
i as
r ate
sh ow
I T
TI ON
Ġe ither
Ġfi g
N ode
de v
Ġse nd
name space
st yle
Ġpro file
Ġorig inal
Ġw hether
Ġby te
Ġd on
g or
at ter
UL T
e ded
tx t
ro ugh
ĠPy thon
Ġde cor
t otal
f s
as on
i ces
alys is
Ġw indow
de pth
Ġuni code
ĠJ SON
0 2
ch unk
ĠD i
gor ith
Ġign ore
he ight
h ist
Ġi p
o ci
ex it
Ġrow s
d ot
Ġf in
P o
Ġde lete
E T
Ġa bs
Ġac count
iv ed
nd array
de st
Return s
tr ue
Ġse ction
v en
il y
Ġ' \
red ential
Ġpar sed
user name
w w
t on
indi ces
Ġsk ip
q l
m al
Ġf n
Ġcon d
time stamp
Ġex ample
[: -
Ġ queue
Ġlo op
Str ing
t mp
Ġcontain er
In dex
r ary
Ġw arning
Ġ( "
ern el
Ġin stead
Ġ" .
mplement ed
v o
Ġs i
h er
re quen
L og
ĠR es
Ġcon nect
comp onent
C heck
Ġre sp
I te
w indow
in k
he ll
h ot
ff ect
t ect
up per
Ġcon n
Ġcorre spon
Ġdire ct
Ġ[ "
ĠI t
F orm
Ġ{} ".
Ġrepre sen
do main
model s
s ha
ĠN ote
Ġw ait
con n
ĠM e
it es
Ġm issing
lat ive
ver age
f ra
f it
Ġp la
Ġdi stance
Ġsign al
Ġsy stem
] ),
Ġa wait
A S
i e
Ġun it
Ġvariable s
Ġta gs
Ġm od
N T
Ġreg ion
St ate
Ġthe y
exec ute
Ġc tx
str u
igh b
Ġch o
i mport
le m
it ch
Ġal pha
ĊĠĠĠĠĠĠĠĠĠĠĠĠĠĠĠĠĠĠĠĠĠĠĠĠĠĠĠĠ ĠĠ
Ġi ss
Ġc ustom
ĠRaise s
en o
Ġht tps
e red
vid er
Ġfa iled
Ġcoord in
std out
bo ok
" ],
method s
par ts
Res ponse
Ġre mo
Ġoper ation
Ġme an
ut ure
Ġver bose
wa re
Ċ ĊĠĠĠĠĠĠĠĠĠĠĠĠĠĠĠĠĠĠĠ
attr s
c ase
Ġp ol
FA ULT
Ġre q
Ġma pping
ar r
Ġcontain s
li ed
s cope
Ġre l
Ġ ge
Ġm y
tra in
cur s
Ġw rapper
e mpty
s l
an sp
Ġsupport ed
Ġ{ "
" ])
(' \
Ġmult iple
Ġdi st
Ġ 7
Ġst ack
Ġst ore
m ath
Ġse rial
Ġbe cause
(' /
gorith m
child ren
g it
ca st
Ġuni que
Ġx ml
Ġc ent
Ġdis able
Ġfa il
Ġp e
Ġex pected
Ġm on
if t
Ġpart s
Ġpre vious
ch ain
cre t
T ext
py thon
and ard
Ġre mote
n t
Ġl ong
am l
inter face
var s
a u
ac count
p ly
Ġdiffe rent
stra int
ct x
as ure
ri ver
Ġse conds
Ġre port
as ync
Ġin valid
ĠN ame
T ER
po ch
ter min
al led
lat form
ser v
col s
ith ub
Ġv is
Ġg rid
č ĊĠĠĠ
Ġmat ches
c an
2 0
g ine
en cy
Ġhe ight
in sert
b its
istr y
1 5
c ut
A B
__ ,
Ġscal e
ĠA ttribute
Ġuser name
fi ci
st at
i er
U S
wa ys
man ager
Ġma in
Ġe st
Ġse cond
ĠL o
in itial
:` ~
k nown
ĠG ener
fe atures
2 4
Ġed ge
Co mp
K E
co res
error s
fa ctor
i an
( -
co der
`` ,
Ġdis play
' }
lo op
Ġs pec
Ġreg ister
raise s
valid ate
and id
re st
Ġs amples
Ġad ded
c c
mo unt
ri p
b l
ang le
T R
ta ch
se quence
ĠCo mp
Ġtime stamp
Ġindi ces
n an
a ctions
end swith
an y
tra ct
Ġm erge
ĠH TTP
wa y
Ġin it
Ġ und
strib ution
w arn
Ġs im
Ġ( (
Ġpo ssible
Ġfla g
_ ,
g re
di ms
Ġgener ate
w here
n on
Ġproper ties
Ar ray
Ġextra ct
E S
re po
Ġs ure
Ġproper ty
Ġcorre ct
set s
y ear
en coding
In fo
Ġth rough
fe ature
M odel
. '
n umpy
Ġf it
Ġc ell
en sion
l ate
ĉ ĉ
Ġ ):
d t
AN G
se conds
g lobal
Ite m
Ġtra in
Q u
Ġcon s
le ctor
posit ory
Ġtoken s
th read
Ġta ke
du ce
c lasses
f older
al pha
() [
ĊĠĠĠĠĠĠĠĠĠĠĠĠĠĠĠĠĠĠĠĠĠĠĠĠĠĠĠĠĠĠĠĠĠĠĠĠ ĠĠĠ
Ġ' *
Ġde lta
at er
Ġre ce
5 5
() ):
ĠU se
trans form
Ġspeci fy
la p
Ġde bug
F ield
Ġpath s
Ġtrans form
E vent
mb ers
Par ser
we ight
Ġapp ro
he ad
Ġre n
Ġc annot
ĠĠĠĠĠĠĠĠĠĠĠĠĠĠĠĠ ĠĠĠĠĠĠĠĠĠĠĠĠĠĠĠĠ
Ġ keep
proper ties
Ġse par
Ġ' {}
* (
V ER
che me
Ġs ocket
p id
b ot
o id
I O
ed ge
load s
Ġ{} '.
F ound
el y
Ġcur sor
s core
Ġz ero
Ġend point
b ab
Ġpre sent
Ġde pth
n orm
h en
Ġ utils
Ġre st
Ġwith in
and as
s ite
la b
ĠT o
Ġp op
5 0
Ġfollow ing
Ġrepre sent
ĊĠĠĠĠĠĠĠĠĠĠĠĠĠĠĠĠĠĠĠĠĠĠĠĠĠĠĠĠ ĠĠĠĠĠ
Ġex pression
code d
add ing
E X
P y
Ġcl uster
u red
ck er
Ġc ha
Ġb ot
Ġinter face
A n
Ġcon f
bo ard
C lient
di us
reg ion
: %
G ER
ta x
Ġb it
Ġu s
re ference
Ġfi x
it ive
8 0
Ġwe ights
ma pping
/ {
a f
Ġ1 00
B y
token s
id den
B u
al y
p atch
ĠRun time
ĠOption al
ve c
Ġ_ ,
Ġc lean
g ments
Ġ 9
Ġb oth
g reg
comm on
word s
tri cs
ht tps
Ġass oci
unt il
Ġdoes n
= %
Ġdo main
Ġwith out
ut ed
se ries
" ))
con vert
redential s
Ġf l
he x
st derr
GE T
Ġh ist
cur ity
ĠAttribute Error
c ard
Ġmax imum
Ġse q
2 01
u uid
al le
pro xy
cent er
H E
v l
Ġac cept
Ġt rue
ro ss
i a
f in
difi ed
Ġwe ight
ta il
el s
yn am
mb ed
to ols
up lic
time s
Me ssage
Ġ' --
Ġs ha
< /
trie ve
Ġe very
Ġd t
AT I
e ps
dir name
Ġass ign
cur sor
Ġs cope
n ly
Ġs ite
en viron
li m
Ġcol lection
A P
Ġthe ir
at io
Ġw rap
Ġ vert
di stance
im g
cs v
j ust
per i
Q U
Ġfla gs
at tributes
ĠS er
Ġvalid ate
to m
pa yload
w s
I P
Ġ2 01
D B
Ġen vironment
Ġrun ning
or ity
ok up
U ser
iz es
s ure
requen cy
__ )
ĊĠĠĠĠĠĠĠĠĠĠĠĠĠĠĠĠĠĠĠĠĠĠĠĠĠĠĠĠ ĠĠĠĠĠĠ
Ġident ifier
Ġnot e
un its
l on
na ps
N O
le ep
inter val
S O
u sed
l int
i re
Ġallow ed
Re ad
Ġcal lable
Ġf inal
Res ult
Ġst ats
es c
te red
al k
ĠEx ample
cl uster
Ġ1 2
me tric
ol ver
de pend
option al
U RL
umb ers
g round
se p
iv es
() ))
Ġt x
Ġmatch ing
Ġmethod s
t c
Ġsc ript
re port
il ter
B U
Ġinput s
per iod
Ġ Z
s pect
naps hot
a z
term ine
Ġbe ing
č ĊĊĠĠĠĠĠĠĠ
Ġsu ch
ne ss
d r
res hape
f name
e mail
Ġst at
de sc
uni que
w rap
Ġbe st
Ċ Ċĉ
sign al
reg ister
cf g
ĠRuntime Error
T H
Ġspecifi c
} '
Ġp ix
1 00
le g
Ġab out
lat ten
ĠĠĠĠĠĠĠĠ Ġ
serial ize
A M
pi x
D F
Ġs ince
pre c
3 3
Ġro ute
a uto
Ġy our
le ss
o x
Ġl on
Ċ ĊĠĠĠĠĠ
Data Frame
P AT
lic it
vis ion
Ġs pace
(' -
Ġthe se
(' %
Ġme mory
is ion
Ġtime s
Ġind ent
i k
re al
sq rt
Ġmessage s
v m
- +
li sh
Ġco uld
Ġlo wer
Ġcorrespon ding
Ġw rit
Ġapp ly
Ġbu ffer
Ar gument
Ġ" {
tra ce
ert ifi
O ption
c er
at tribute
end ing
Ġc types
doc ument
} .
di mension
port ed
s ocket
Ġan g
ent ity
1 9
al cul
Ġan not
ä ¸
ers ion
y p
int e
Ġi mg
Ġ ĊĠĠĠĠĠĠĠ
f etch
Ġh igh
iv ity
S C
Ġv olume
3 0
ari es
Ġo ur
Ġdefault s
ident ifier
Ġbo olean
Ġf ra
arg v
Ġme tric
an e
il der
clo ud
as ic
pe line
fa st
for ce
z e
Ġcomp ute
ch ron
t ick
S P
R un
Ġse ries
U R
Ġund er
O P
al low
variable s
ho ok
Ġevent s
Ġe qual
u ally
Ġd one
- %
1 4
KE Y
Ġco mb
input s
r b
ex pected
. *
c b
po licy
requi red
ge d
E D
Ġd a
ateg or
fla gs
Ġfe atures
A pp
Ġst yle
ul ation
uni code
dump s
Ġvi a
DE FAULT
clu ded
A t
Ġin sert
Ġstruct ure
Ġh ow
ol ute
zer o
Ġy ang
ut om
ad ded
/ %
Ġs yn
Ġre po
se c
######## ########
In stance
me th
lay ers
Ġre al
l ong
fi ll
Ġre lative
] +
mp t
ĠN o
Ġcli ck
' \
Ġcom ment
ER R
pa re
Ġne eded
Ġ kw
Ġn d
Ġper iod
ver s
og le
Ġs m
s w
i ent
Ġi mp
} {
s pe
Ġ' ')
ul ate
Ġindi c
s m
lo y
col lection
c lean
Ġgroup s
end s
Ġm ath
O r
f g
jo bs
Ġbu cket
A PI
feren ces
al ign
state s
ome try
log ging
s n
pre ss
G roup
Ġfa ctor
Ġ# #
bu cket
par ameter
Ġ- =
ĠI P
r ation
Ġs core
Ġlo c
o le
č ĊĠĠĠĠĠĠĠĠĠĠĠĠĠĠĠ
Ġstd out
Ġest im
Ġpy lint
dis play
S ize
Ġali gn
Ġpla ce
Ġe mail
Ġcontent s
L e
by te
Ġdecor ator
ex pr
Ġter m
Ġclo se
Ġ" /
Ġun its
Ġv ariant
Ġfunction s
re mote
Ġwarning s
Ġag ain
I L
exception s
le ctions
ste ps
In put
" ),
ma c
__ (
Ġse gment
f d
ĠO r
Ġo w
coord s
Ġre c
Ġax es
he lp
(" %
u i
Ġ" _
O ut
o uld
Ġchange s
v ing
ched ule
} \
C K
Ġwh at
ĠS tr
A uth
Ġbin ary
Ġsign ature
ĠCon vert
we ights
Pro cess
LO G
ar s
Ġremo ved
doc s
Ġpre di
Fa iled
ATI ON
ci mal
Con tent
Ġrequi re
st orage
change s
r f
ver bose
b ed
ter s
g ative
m erge
sy mbol
Ġent ity
(" \
In ter
ĠF ile
Ġal ways
U P
stant s
fi gs
Ġf older
__ .
ren ce
k ind
Ġ2 00
Ġ uri
ces sed
ci i
c ustom
di o
d at
Ġpl ugin
_ {
Ġar ch
ifi ed
Ġinter val
Ġt ensor
'] (
ed ges
comm it
Ġf ill
ten sor
: -
6 0
Ġf name
P er
ang o
Ġtra ce
Ġc at
ur se
g y
co s
Ġcomm on
r u
T e
Ġupdate d
en cies
Ġpri vate
. )
tri es
ĠE n
Ġsh ort
plot lib
av ed
Ġbo x
fla g
Ġi m
Ġl anguage
Se ssion
( ['
v s
pro p
Ġent ries
me mber
F O
Ġe valu
Ġ" ,
g ithub
base name
(' .
c orre
one s
Ġcoordin ates
Ġiter able
b ind
ign ore
Ġro le
({ '
f mt
Ġf mt
Ġd ay
ma ster
ĊĠĠĠĠĠĠĠĠĠĠĠĠĠĠĠĠĠĠĠĠĠĠĠĠĠĠĠĠĠĠĠĠĠĠĠĠ ĠĠ
Ġrepresen ting
f req
Ġa st
ut able
ĠĠĠĠĠĠĠĠ ĠĠ
sq l
Ġinstance s
he s
Par se
v ariant
_ .
Ġ/ /
G ener
auth or
end point
Ġassoci ated
il t
g b
w in
> `
Ġmult i
ext ension
event s
de c
Ġde tails
le ted
Ġst orage
Ġpa ir
Ġw ould
def in
Ġact ual
count s
app lication
Ġle ast
) ])
am s
x x
n ull
Ġre gex
I mage
Ġ" \
ĠI O
ari ance
Ġ'* '
Ġattr s
default s
ble m
po ol
ĠD o
re gex
{} '.
Con text
ch ine
Ġass ume
Ġex it
module s
S y
ĠD E
======== ========
S H
P re
ĊĠĠĠĠĠĠĠĠĠĠĠĠĠĠĠĠĠĠĠĠĠĠĠĠĠĠĠĠĠĠĠĠĠĠĠĠ Ġ
stri ct
s ig
st ed
Ġo c
er ic
Ġact ive
f un
n one
Re g
T O
exp and
Ġpre v
Ġex clude
ĠM ake
Ġapp lication
ertifi cate
g p
am ily
Ġsu ffix
V alid
peri ment
en gth
Ġdirect ly
Ġmodel s
H e
bu f
s lice
Ġc re
ro ute
P RO
n dim
code s
B ase
Ġg re
N D
ĠIn dex
FI LE
Ġma g
Ġ1 6
for med
mission s
Ġcha in
SI ON
V AL
roll er
quen ces
Ġrequest ed
vi de
comp ile
mi ss
Ġen sure
rt ual
T rans
g ate
Ġdown load
Ġ' ',
Ġname d
Ġdi stribution
Ġgener ator
PO ST
g g
in clude
log y
se ns
ue s
al ias
Ġht ml
iv ely
Ġas yn
r l
Ġlo ck
ro le
Ġcharact ers
C all
n n
ut ing
Ġrepresent ation
cle ar
w idget
sp ath
Co unt
co unter
Ġc or
Ġ until
Ġre try
mon th
() ]
le ar
j e
D O
l er
la ck
Ġselect ed
ĠO S
Ġf p
tr ansp
proper ty
** **
Ġst andard
su ffix
pt er
element s
Ġ[ (
H andler
3 4
v olume
ĠV alid
Ġm ost
Ġme di
su ccess
Ġpro xy
St atus
ype s
file path
Ġdest ination
Ġcall ing
Ġ[ ])
Ġb l
ath er
Ġper form
q a
s id
he et
sort ed
Ġpk g
Ġ join
am ma
Ġa uto
I G
ĠU pdate
ĠĠĠĠĠĠĠĠĠĠĠĠĠĠĠĠ ĠĠĠ
Ġst ored
I ter
Ġde sc
Ġre verse
pa c
ĠW hen
t ion
Q L
ist ered
Ġfilter s
Ġpro p
Ġadd itional
Ġwe re
m ut
Ġcharact er
Ġn orm
T able
ur face
, )
al s
fa ct
Ġh params
Ġb ranch
ĊĠĠĠĠĠĠĠĠĠĠĠĠĠĠĠĠĠĠĠĠĠĠĠĠĠĠĠĠĠĠĠĠĠĠĠĠ ĠĠĠĠ
j ango
V ersion
lo okup
Ġs w
bo ve
Ġ' __
en se
r and
Ġauth or
ĠAn y
Ġdi m
sp an
port s
content s
] *
ĠIn valid
Ġhe ad
PAT H
set default
Ġopt im
li ght
ast ype
Ġ util
de p
) *
o bs
D ate
) /
is h
le x
Ġid s
app ly
inst all
Ġimage s
sum mary
ax es
ase s
Ġpro bab
ĠR E
N S
C S
l anguage
mult i
Ġsen t
Ġpo ol
Ġset ting
chron ous
S h
Ġ{} ,
} "
t t
D is
St art
Ġsy mbol
Ġh o
: ])
ĠA s
M O
Ġp ick
Ġm u
M an
G raph
ser ved
v oc
Ġup per
co me
Ġy ear
ĠA pp
th reshold
Ġrecord s
lo aded
Ġde p
ERR OR
g a
Ġneed s
Ġc p
Ġl ar
N umber
re lease
se cret
Ġb its
Ġdire ction
os ition
ur ing
ta b
H TTP
Qu ery
Ġme ans
y g
en e
SE T
cess ary
Ġinst all
Ġcent er
1 3
Ġapp end
Ġ" {}
Ġs lice
T his
Ġ[ ],
Ġpa cket
g ger
s im
ow er
Ġed ges
ph i
Ġth reshold
ĊĠĠĠĠĠĠĠĠĠĠĠĠĠĠĠĠĠĠĠĠĠĠĠĠĠĠĠĠĠĠĠĠĠĠĠĠ ĠĠĠĠĠĠĠ
ĠU ser
comple te
main ing
U pdate
ĠO ther
fa il
ef fici
-+ -+
Ġlist s
u int
t ic
Ġpa irs
ĠC h
t z
utom atic
is file
resource s
U M
5 6
l t
m u
Ġsu bject
link s
C ode
ĠP ath
ar m
Ġw ay
gen e
Ġcomp at
channel s
Ġno qa
ass ign
Ġgen e
me mory
1 8
P C
Ġf ont
F or
iter items
mpl ing
Ġcalcul ate
Ġextension s
Ġd er
data base
Ġme mber
Ġat temp
sa fe
Ġpro tocol
O bj
di c
ci py
Ġi mplement
Ġchild ren
L oc
ta ct
l ing
Ġal gorithm
e ff
AT A
Ġs ig
entic ation
Ġw idget
A GE
Ġgener ated
s leep
Ġs igma
Ġover ride
Ġdis k
Ġ} ,
Ġtra ck
res sed
to re
M ap
argument s
ynam ic
F rom
Ġd raw
lin eno
Ġ" -
ok ie
a fter
pub lic
Ġpro gress
andl ers
im er
Ġs ql
ra g
' re
hist ory
def ined
part ition
m id
Ġro t
ĠData Frame
andid ate
fi c
op s
g t
ĠP er
ĠC ol
da ys
sy m
Ġsub process
filter s
Ġprovi de
Ġman y
p ad
Ġan alysis
Ġdefin ition
ĠY ANG
Ġin spect
ces ses
en ded
b ins
Ġcond ition
ra in
c la
Ġpart ic
= {}
Ġc fg
Ġpo licy
Con vert
0 3
i ew
Ex ec
miss ing
1 7
"] :
Ġa mount
u ce
Ġv m
Ġchange d
ind ent
il ar
( __
W S
= _
down load
T ree
sh ort
is hed
Ġk ernel
c ategory
L ine
w rit
Ġlook up
Ġarray s
gener ate
Ġback end
ĠĠĠĠĠĠĠĠ ĠĠĠĠ
de tails
)) .
Ġsuccess ful
ĠA l
I M
pk g
Ġcomponent s
ve lo
Ġ( %
D S
fa ces
Ġ{} )
si red
cord ing
script or
Ġf uture
T h
Ġr ate
re set
log in
as cii
Ġd at
ra ps
Ġexception s
Ġk ind
Ġcomple te
oper ation
c d
on s
component s
Ġin ternal
Ġn umbers
" ].
col ors
in f
Ġar r
curs ive
Ġnd array
2 00
change d
Ġren der
R A
ĠCon fig
pa ir
Ġmin imum
ĠRe move
ar ange
ut ton
I S
ĠQ u
ĠN umber
mb ols
Ġbu f
ĠO nly
h s
ag ent
e val
Ġc ategory
k er
so le
Ġorig in
s igma
F OR
ĠT ime
Ġali as
O per
se gment
ug ins
Ġcommand s
AB LE
extra ct
M S
Con nection
t ty
Ġe lem
Ġoper ator
Ġword s
Ġc y
Ġex pi
ac y
Ser vice
Ġmon th
Ġz one
c r
o ms
en um
Ġst ates
dered Dict
Ġ ,
per cent
Ġst derr
dir s
pro tocol
ten ce
image s
in valid
Ġg ot
sc a
mg mt
ib ility
er ature
f ont
Ġdimension s
] ])
Ġde tect
a bel
t i
atter ns
i fe
ĠAr gument
o gram
ĠB u
Ġp ad
su bject
Po int
re pr
th is
Ġ% (
Ġang le
Ġa bove
s d
= -
Ġ' )
be st
mat ches
ex pression
Ġtrans action
) "
0 5
Ġuse s
un pack
Ġbase string
Ġs pe
D esc
W arning
Ġc lasses
and s
ĠIO Error
Ġco unter
Ġver ify
at ches
ĠF ind
Ġen coded
Ġt yp
Ġwe b
sk ip
Ġto o
bin ary
straint s
b ranch
d raw
ĠRe ad
ĠX ML
ist ics
Re c
Ġpro duct
prec ated
le v
Ġ} )
fo und
ic ro
ww w
be fore
st s
( ',
co mb
Ġf etch
ad min
') [
Ġn s
Ġ $
con cat
} /
Ser ies
pl ugin
A s
Ġne cessary
Ġcomm it
Ġpub lic
ĠEx amples
Ġ ĊĠĠĠ
con s
C annot
Ġre ason
ab spath
al g
d rop
block s
comp ute
cond ition
f p
Ġter min
Ġd st
ĠStr ing
lay out
Ġset attr
ĠN O
ne ighb
Re cord
se ed
Ġre lation
Ġs ide
ol ved
Ġsup p
C ur
t k
Ġp andas
ut or
2 2
re p
el ls
are a
'] ))
ma ss
ut er
res ses
O f
ens ity
ne ctions
et work
struct ure
Ġb ro
Ġav oid
D o
je ction
fa ctory
Ġ ut
ĠPar se
re r
Ġs hell
Ġsum mary
d x
scri be
run ning
to ol
Res ource
ran k
ri c
ent ries
pro c
spa ces
ance l
Ġth ose
(' --
Ġn b
TI ME
und le
Not Found
Ġca ched
n ote
s yn
Ġsy m
T S
ategor ies
Z E
O L
Ġfin ally
Ġac cording
Ċ ĊĊĠĠĠ
A G
Ġcurrent ly
Ġlib rary
Ġset up
A l
ation Error
AC K
Ġb ash
li p
ot ential
ip s
n b
Ġse ed
ç ļ
ĠB y
ctor ies
Ġd uration
en abled
( \
ro py
Ġper cent
Ġe tc
pro b
Ġcont rol
re try
çļ Ħ
Ġf low
Ġma ster
Ġp adding
ï ¼
ĠDefault s
} }
lo ss
Lo ad
Ġan other
Ġre set
command s
is instance
cont rol
Ġe ffect
BU G
Ġpos itive
Ġin ner
L ay
me mbers
Ġfa st
bound s
ĠC LI
Ġcol ors
") .
alle l
Ġ[ [
cl us
j or
Ġp ut
sing le
ĠOther wise
ĠT rans
c u
record s
Ġvalid ation
gra de
: \
d uration
de g
tra ck
t ile
fi rm
U B
Ġc sv
Ġr ank
Ġb ind
(' :
v as
Ġstart ing
Ġa p
O K
Ġsi mple
ĊĠĠĠĠĠĠĠĠĠĠĠĠĠĠĠĠĠĠĠĠĠĠĠĠĠĠĠĠĠĠĠĠĠĠĠĠ ĠĠĠĠĠ
pro duct
Ġw in
Ġ" --
Ġhe x
Ġuser s
Ġre lease
ĠQ t
To ken
set up
Ġne ighb
( ?
in es
Ġa utomatic
"] ["
al ity
w rapper
o om
6 6
Ġbe gin
Ġme asure
Type Error
alcul ate
Ġbound s
Ġrequi res
Ġf alse
A SE
ro t
ho me
vid ual
sign ature
un try
con v
ver ify
host name
Ġwrap ped
o ot
pri ate
d st
b et
Ġcall s
pro vider
Ġinst alled
P AR
ĊĠĠĠĠĠĠĠĠĠĠĠĠĠĠĠĠĠĠĠĠĠĠĠĠĠĠĠĠĠĠĠĠĠĠĠĠ ĠĠĠĠĠĠ
Ġresource s
T ML
p latform
ut ype
di gest
se cond
F ilter
ĠW hether
ĠL og
(' _
__ .__
fo o
rid ge
di ent
par s
ik i
Ġre pository
C lo
Ġtuple s
_ )
is dir
li es
re ct
Ġde termine
re ce
(' .')
back end
) }
D ef
task s
av a
h igh
as sert
---------------- ----------------
V E
Ġspeci al
Ġmo ve
t w
Ġra dius
f inal
ur al
user s
ĠLOG GER
Ġc ut
c um
Ġs l
Ġexec ute
e poch
c ert
Ġpart ition
be ta
i mp
target s
mo oth
Ġlo w
read er
Ġbe low
k ernel
Ġ' '.
red uce
Ġle t
ĠI mport
k ed
Ġlo aded
ho od
Ġst rip
inte ger
C a
our s
Ġb ar
string s
d l
Man ager
Ġup load
en gine
message s
Ġex pr
Co uld
Ġign ored
Ġd ot
ust ers
u ff
ex clude
P RE
, '
Ġst ri
uplic ate
F unction
A ttribute
Ġp id
Ġappro priate
% (
medi ate
serv ation
in v
Ġde sired
ron t
di ag
. ",
qu ote
Ġw ell
Ġpro gram
Ġnormal ize
ĠP re
Ġex pect
as array
s cheme
Ġph ase
L IN
p b
k s
Ġcol lections
Ġ ))
ant s
2 3
Ġy et
s in
di fy
S ER
cat alog
u ous
the ta
il ities
ult i
at om
mpl ates
orig in
Ġ ),
V iew
Co mmand
ep copy
p d
Ġin cre
25 6
ad a
Ġro und
ou ble
[' _
iter able
me trics
Ġoc cur
un ch
source s
we b
A ction
c m
op y
j s
sc an
Ġf requency
st it
Ġd rop
cli p
M M
I mplemented
Ġex act
Ġat om
Ġfig ure
qu are
Ġm ight
Ġas ync
Ġre duce
s hell
T ra
Ġcount s
ron g
Ġsa fe
Ġmo dified
ist ent
p red
) '
Ġc redentials
EN T
St ream
se ss
re sp
5 01
p an
Ġre p
Ġne gative
r atio
s ync
V I
W idget
ĠH e
ĠI N
side red
crypt ed
Me thod
o ugh
Ġt ab
stru ction
w raps
2 7
Ġc ir
Ġset s
Ġd ump
ĠCo mmand
B ox
Ġf d
ĠA ll
ĠY ou
it ed
Ġma c
av ailable
U E
Ċ Ċ
'] ]
d river
co v
A c
| '
o ols
e cho
re ssion
M o
' "
st atic
ex pi
defin ition
d le
ren der
Ġsupp lied
Ġin cluded
) **
me sh
indow s
pri vate
S A
ot es
Ġre direct
} :
or ary
Ġon ce
Ġ< <
Ġcon sidered
es ca
Ġc lear
W e
Ġal ong
Form at
Ġd uring
F e
se par
h idden
Ġme sh
Ġabs olute
Ġrece ived
ĠP o
limit er
ex ample
) \
ĠS peci
Ġoutput s
y aml
g lob
Ġ2 0
4 0
i i
Ġ' :
ĠUn i
T ensor
I C
Ġen abled
ĠT h
å ı
FI G
Ġcol s
clu ding
Ġmodule s
fra c
Ġe poch
Con t
se m
={ '
Ġraise d
Ġs n
m k
D efault
Ġ1 000
c ing
Ġh y
ch an
Ġp latform
Ġfail ure
X X
Ġde code
Ġadd r
sh ift
pro gress
gener ator
Ġcur r
requi re
Ġst eps
Ġin side
ir st
Ġexec ution
re at
M et
Ġd s
9 0
de lay
Ġformat ted
L ink
Ġconvert ed
Ġcheck s
Ġpre c
orig inal
be gin
S ource
config uration
f latten
ĠF I
is o
ĠT e
. ',
ĠB o
ST R
B lock
) -
Ġsm all
ĠDi ct
pac ity
M ode
Ġs aved
Ġ' <
reg istry
at trib
Ġs cipy
SI ZE
ĠA t
8 6
ri ption
Ġover write
ĠNot Implemented
Ġle ss
d one
ĠC ode
OR D
Ġi o
Ġk nown
r r
ĠB ase
Ġchannel s
pre di
Ġm d
7 5
O S
ĠOS Error
Ġtask s
IN T
C P
cp u
Ġde leted
Ġal t
Ġsc an
Ġfe ed
ĠLo ad
li s
act iv
Ġm id
Ġle g
Ġc b
Ġg it
w riter
or iz
qui val
in ternal
Ġfile path
e lem
, ))
T ag
{} ".
Ġtrain ing
ĠIndex Error
Ġc la
Ġme trics
get attr
me asure
Ġe ven
Ġreg istered
Ġen able
AL L
se ek
Ġa ctions
all back
process ing
dire ction
au ss
stru ctor
split ext
c n
comp at
Ġver b
ant ity
Ġlog in
gre es
av ing
ĠI ter
po wer
Ġmat plotlib
ss l
Ġan s
rst rip
CO L
in c
Ġt ile
or ld
` :
m er
ra dius
Ġscal ar
Ġtarget s
di v
Ser ver
l an
Ġf req
ls o
Ġus age
Ġre ply
. '''
\ '
Sy stem
Ġ ~
Ġcon ver
Ġarch ive
ifi ers
Ġexp licit
Ġse ns
Ġautomatic ally
output s
as is
Ġne sted
sum er
ife st
corre ct
Ġpro vider
create d
Ġag greg
est im
Ġ ve
Ġco ver
8 4
Ġex port
Ġmark er
) ',
p df
Par ams
on al
en u
me m
rule s
G S
up load
medi a
riter ia
ĠOr deredDict
H O
Ġd id
Ġlat er
c wd
g z
Ġpos itions
Ġagain st
ect or
trans action
Ġstate ment
Ġdefin ing
Le vel
w alk
Ċĉĉĉ ĉ
Ġd ig
Ġse lection
Ġs cheme
Ġre pe
Ġb ins
Ġse p
b er
E M
S tore
pre sent
Ġk now
Ġsource s
S pec
Ġp s
Ġe mbed
so ck
function s
Ġblock s
Ġy aml
Ġbe ta
Ġcoord s
MA X
Ġ' ':
ub e
Add ress
end er
de l
z en
ĠRe quest
pa cket
Col or
Par ameter
AN D
.. ..
] ],
Ġchunk s
EN D
H el
bo ot
h older
coord in
Ġfix ed
ac cept
Ġin v
Ġman ager
Ġre trieve
P S
h ing
9 5
oper ator
ha vi
ĠD is
yg on
E nd
pt r
Ġi mplemented
RO M
ru pt
fer red
ĠA lso
ot ype
top ic
Ġt s
Ġp r
Ġwork er
Ġcon v
Ġare a
Ġiss ue
Ġversion s
S ign
Ġp ers
row ser
e qual
Ġpro blem
ut c
u la
r al
p m
Ġ* =
Ġiter ator
Ġag ent
Ġreg istry
part ial
R ow
Ġs pa
as set
Ġwork s
ue ss
3 5
Ġmat ched
Ġ Error
G B
log ical
Ġor g
DI R
ĠO bject
Ġst ill
D ATA
' |'
ĠBu ild
t d
pre v
pi ck
Ġn one
) +
Ġre ader
Ġfil tered
A d
Ġtop ic
li hood
x im
Ġpro cessed
Ġen gine
l st
Ġpart ial
IN FO
ĊĠĠĠĠĠĠĠĠĠĠĠĠĠĠĠĠĠĠĠĠĠĠĠĠĠĠĠĠĠĠĠĠĠĠĠĠ ĠĠĠĠĠĠĠĠĠĠĠ
Ġm ut
Ġs napshot
b r
Ġpi pe
Ġco v
Ġiter ation
ta ck
Ġco effici
ĠI mage
Ġimplement ation
Ġre maining
oc ument
con st
se g
ĠI d
/ '
Ġp ower
Ġh app
Out put
Ġval s
st o
Ġg lob
Ġho ok
ĠS h
Pro per
Ġhe lper
go ogle
f ree
Ġto ol
Ġse quences
ser ve
par sed
Ġtr ansp
own er
ren cy
Ġc ert
table s
andid ates
Ġre pr
Ġ ĊĠĠĠĠĠĠĠĠĠĠĠ
in ner
]) .
res olve
tent ion
. '.
normal ize
ĠComp ute
J ob
frame s
den ce
li er
Ġrule s
9 6
ss h
pro to
ĠĠĠĠĠĠĠĠ ĠĠĠĠĠ
work er
e m
ser vices
8 5
Ġback ground
ul er
M AT
m ar
arch ive
Ġgre ater
cho ice
Ġpix el
En try
" \
P a
Ġco urse
Ġde lay
[: ]
Ġ6 0
ier arch
re en
Un known
z y
on d
Ġat tach
= ""
key word
os ity
Ġtake s
rag ma
ĠH andle
pre dict
load er
Ġapp lied
A uto
i li
ed it
select ed
la g
al ance
ch or
t ol
R ange
(" -
mo st
Ġde termin
_ (
app ing
Ġan aly
Ġlay out
Ġde v
Ġcon struct
t tp
Un able
us age
3 6
speci men
esca pe
h y
Ġasyn chronous
ident ity
Ġact iv
Ġwrit ten
Ġinter pol
') ]
tain er
Ġr v
Ġhost name
/ (
= ['
P A
d n
po inter
fl ux
Ġs at
S c
Ġg r
D ir
ME NT
VER SION
ĠS ub
Ġpackage s
LE CT
fl ush
Ġwork ing
P art
O n
ĠB e
AR N
) ;
N um
Ġb ad
str ument
Ġlay ers
Ġrel ated
ĠĠĠĠĠĠĠĠ ĠĠĠĠĠĠ
package s
Ġhist ory
Ġe sca
ĊĠĠĠĠĠĠĠĠĠĠĠĠĠĠĠĠĠĠĠĠĠĠĠĠĠĠĠĠĠĠĠĠĠĠĠĠĠĠĠĠĠĠĠĠ Ġ
fi ed
> >
Ġl ate
Ġde c
b am
Ġt ar
o o
Ġe ps
ref resh
cre en
o unt
Ġn ull
e mon
Ġ å
Ġ\ '
Ġ3 2
sl ug
mag ic
ĠNotImplemented Error
fe ed
u ses
p ng
Ġprocess ing
find all
Ġpi peline
Ġlink s
ĠN ode
Ġa verage
i j
ĠO per
Ġnot ification
Value Error
Ġas set
Ġvi rtual
Ġinte gr
ĠIn itial
re lation
Re f
p al
or ing
a a
e mbed
ĠC an
ĠArgument s
cal c
Ġt ick
SI G
AC E
mit ted
Ġpro c
P Y
ro id
cal cul
ver sed
Ġindex es
Ġpre dict
sh ip
Ġfilename s
opt im
Ġpri or
L L
fig ure
request s
H andle
re verse
Ġsi mp
Ġv ari
Ġ[ -
ĠIn put
de tail
quival ent
re v
il ing
Ġma chine
__ __
co gn
Ġnot hing
W rite
stra ct
ce ed
Ġre ct
ind s
ref s
Ġa da
Ġspecifi cation
an alysis
con stants
Ġnormal ized
Ġs olution
E d
p g
) (
Py thon
Ġme mbers
(" /
ol ds
split lines
Ġcon version
se e
Ġconnect ed
b and
Ġcur ve
pa irs
Ġcomp ar
7 7
TE D
Ġpri mary
at tach
Ġcase s
Ġse c
Ġde precated
N G
ter ms
Ġow n
. \
t l
i ed
de cor
Q t
ĠF orm
C M
P ER
s cores
sub plot
ĠO pen
w b
b ig
ai lf
] ["
index es
at ype
Ġre ci
(' {
Ġco re
fa iled
ag greg
a w
Ġf un
li ct
=' ',
f amily
Ġlo ss
Ġpro to
g ers
arg in
b lob
er ies
ly ph
line ar
a ut
u dio
Ġlin eno
f time
al f
char s
cry ption
Ġo bs
qui re
sign ed
Ġor d
pro mpt
host s
ward s
ci o
ĠS y
Ġsp an
CON FIG
se curity
A X
N E
Ġreg ular
a ctor
ĠRe g
ĠH TML
sh ut
po logy
L ength
[ (
Ġversion added
te in
Ġdi ag
pe ak
pos ure
ĠO ut
v ol
Ġcat alog
H ER
Bu ild
ĠN e
se lection
ĠSt art
Ġstri ct
De vice
I f
instance s
Ġd river
Ġthe ta
li ces
ph ase
Ġ: ]
ist ic
S p
r pc
DE BUG
am ount
sen ce
ill ar
Ġma ss
or ter
Ġpar sing
1 000
Ġt or
vo ke
t ar
b reak
Ġcol lect
L abel
h andlers
dis k
ra di
men u
r ing
pt ure
ca ched
Se arch
Ġsim ilar
ï¼ Į
Ġis n
" '
ry pt
Ġclo sed
OR T
f alse
Ġ[ {
Ġa round
M ax
s lot
list s
ĠE ach
Ġb lob
ip v
Ġres olve
Ġsome thing
U ID
ĠImport Error
s r
S u
Ġde scri
Ġ ?
ĠC all
Ġres pect
Ġprec ision
pl an
Ġno ise
pri ority
quest ion
lin alg
Ġt z
gn itude
Ġit self
gra d
il er
qui red
b ad
ĠM odel
cl ar
Ġu uid
Ġc andidate
w iki
en vironment
not ification
Ġindi vidual
di git
Ġst age
Ġ" '
. ".
Ġe val
se ctions
Ġst atic
Ġp ack
Ġex periment
over ride
Ġda ys
7 0
ex port
Ġse en
co ver
up ported
en ate
T ask
Ġcoordin ate
Ġannot ation
+ '
Ġtable s
unk nown
connect ed
ed itor
Ġmedi a
Ġd en
re ason
Ġr atio
allow ed
i pping
Ġst o
ä »
Ġe qu
Ġp ragma
de s
ON E
Ġt urn
ot o
HE AD
ĠRes ponse
ma ked
ĊĠĠĠĠĠĠĠĠĠĠĠĠĠĠĠĠĠĠĠĠĠĠĠĠĠĠĠĠĠĠĠĠĠĠĠĠĠĠĠĠĠĠĠĠ ĠĠ
f lat
2 6
to ur
p x
Ġs cores
Ġ1 5
b us
pt ime
Ġtr an
PI PE
ic le
d c
Ġx range
ĠGener ate
Ġout file
* .
Log ger
Ġad min
Ġmerge d
Ġ2 55
Ġf ore
ys ical
Ċĉĉĉ ĉĉ
ge o
ĠS T
Ġact ually
level s
ue ue
W ork
a red
Ċ ĊĠĠĠĠĠĠĠĠĠĠĠĠĠĠĠĠĠĠĠĠĠĠĠ
qui et
ong o
dest ination
Ġu id
ĠG iven
ĠS alt
i ver
. %
h i
Ġreturn ing
B O
ĠD B
n u
Ġse cret
url s
Ġso ck
I ST
ĠThe re
â Ķ
un ic
Ġun pack
I F
Ġen er
old ers
Ġe p
um my
A ll
Ġres id
mon itor
Ġdepend encies
Ġre cursive
"] [
se mb
el se
P age
Ġf h
ar c
Col umn
clus ive
C L
id er
b i
av es
Ġoper ations
Ġlook ing
so ft
n r
ra se
Ġdocument ation
Ġfor ward
UL L
99 99
h at
Ġdata frame
MA P
ad cast
cre te
Ġmo difi
C an
ra d
fast a
Ġattemp t
Ġ jobs
tri p
ĠMe ssage
an ded
rit ical
Ġf s
Ġen code
Ġse curity
sub process
ites pace
Ġw riter
ĠID s
Ġdire ctories
Ġbut ton
str ftime
Ġd ue
FI X
Y ou
Ġm x
Ġ'. '
D yn
e ver
par k
vis ible
al gorithm
l ang
f c
Ġ' #
Ġmult ip
jo int
Ġline ar
Option al
_ %
re lative
A F
en able
Ġbe havi
clo sed
O pen
tick s
7 8
s napshot
č ĊĠĠĠĠĠĠĠĠĠĠĠĠĠĠĠĠĠĠĠ
ĠF irst
Ġun known
sup press
sem ble
ad ing
are st
b utton
po se
Ġdep loy
ct ools
Ġfl ux
se lector
Ġbu ilt
RE D
Ġ'{} '
() ),
pro ps
Ġ æ
> '
Ġde g
! ")
Ċ ĊĊĠĠĠĠĠĠĠ
Ġd x
Ġal tern
for ward
si mple
u ble
ateg y
Ġs pect
ĠW rite
ff t
Ġex ternal
Ġter ms
Ġ'/ '
scal ar
Ġconfig ured
C F
s age
Ġsh util
ĠNO TE
mo dified
con figs
res id
Ġsh ift
page s
ĠC O
ta ge
M in
FI EL
ĠC alculate
P TION
il on
Ġf latten
Ġse gments
Ġs lot
Ġm ime
C TION
ind er
Ġtemp erature
Ġs urface
Ch ange
V ariable
Ġser vices
we ek
Ġcre ating
ĠW indows
Par ameters
Lay er
= ='
Ġbot tom
mark er
ra ct
sw itch
C I
ic ally
I s
de vices
Ġupdate s
ĠF unction
ĠCreate s
Ġm s
k it
Ġsepar ate
p ush
P UT
se gments
lib rary
on ical
man y
de rer
Ġcom ments
P ri
Ġm is
Ġident ity
Dyn Class
Ġ ).
Ġp atch
c redentials
transp ort
ext methods
Ġext methods
, ),
Ġf lat
e q
co urse
b g
Ġread ing
l c
Ġp ur
l ar
ĠA c
Ġvert ex
Ġc ertificate
ĠP O
e valu
pre pare
ub class
oriz ont
version s
A ct
Ġqu ote
'] ):
ĠB ack
re pository
Ġmap ped
pi peline
_ :
min ion
s izes
auss ian
ĠS o
J SON
Ġpri ority
ĠA ss
sess ment
2 8
2 9
bu ilder
Ġexp and
Ġ---- -
form s
at rix
re direct
7 4
de epcopy
ierarch y
Ġauth entication
Ġallow s
sup ported
r um
list dir
um an
Ġcomp are
re pe
Ġtri gger
N etwork
re ply
ge ometry
D own
ĠNot es
Ġ3 0
Ġarg parse
c red
25 5
Ġc ells
Ġpre tty
In t
ĠU RI
Ġcho ice
p adding
st ar
name d
ns ure
st age
Ġsen tence
wh ich
Ġsub set
ad o
ĠT ry
Ġp red
ex ternal
p us
pol y
Ġpe ak
Ġuse ful
` )
Ġr ho
sc reen
Ġwork flow
Ġor dered
X T
d ouble
Ġw x
ou se
vl an
or dered
Ġsw itch
Ġb ig
vi ation
pl ugins
Ġkeyword s
ĠC lo
( %
Ġper mission
US ER
er a
Ġ"" )
g ent
C A
ent er
Ġcalcul ated
Ġref resh
(" --
Ġs parse
Ġ( -
Ġpick le
p at
Ġed it
u ation
le af
ĠF ilter
Ġcomple x
lis hed
2 1
t od
ation al
Ġcon stant
Ġfa ils
('/ ')
ator y
Ġgo od
r d
Ġinter pre
is on
r gb
pro gram
Name s
comp ress
ce d
ĠT ext
Ġdef ine
ĠQu ery
key words
ig en
Ġtrans ition
CO DE
Ex ist
r ho
M atch
Ġpop ulate
i ms
stant i
O nly
Ġbo ot
Value s
Ġre trie
Ġder iv
Ġge ometry
Ġtrace back
Ġca st
O ver
ma ps
or th
Ġow ner
maked irs
al let
Ġurl lib
last ic
sup er
He ader
istr ation
Ġb and
er red
ci rc
f uture
di stribution
Ġap pe
Ġper missions
pub lish
a il
Ġcal c
d p
ĠC ur
D D
ul k
ma chine
ĠM o
Ġs chedule
comple x
ch rom
depend encies
O F
ty p
lap sed
Ġdo uble
N OT
w n
ing er
Ġpix els
{} )
Ġph i
Ġsha red
Ġ" )
om ial
Ġs creen
Ġ( :
Ġread s
s chedule
Ġnum eric
Ġmake s
ĠGener ated
i red
mult ip
ma jor
andl ing
Re move
Ġre cur
w t
Ġma de
ĠC lient
Ġc ross
Ġpro mpt
P U
R ed
pri ce
LE TE
Ġframe s
Ġpartic ular
l v
~ ~
base d
az ure
Ġcheck ed
oc ab
Ġs ync
ann er
run time
Ġh idden
ĠO ne
orizont al
Ġg u
Ġ2 4
0 6
ra m
: ],
Ġr c
Ġtime zone
S D
e mit
al th
Ex it
N e
i or
Ġp mag
ĠIn ter
Ġv ol
ĠN ew
time delta
f requency
j ac
transp ose
Ġse g
st mt
Ġde vices
ĠPro cess
Ġx y
ĠT ra
U p
Ġn x
Y Y
ĠC ON
ĠAr ray
Ġb asic
ĊĠĠĠĠĠĠĠĠĠĠĠĠĠĠĠĠĠĠĠĠĠĠĠĠĠĠĠĠĠĠĠĠĠĠĠĠ ĠĠĠĠĠĠĠĠĠĠĠĠĠĠĠ
Ġman age
fin ite
Exec ution
ĠU T
> \
rec v
thread s
read s
Ġen viron
Ġs ur
x s
ro y
pend ing
b ra
)) ]
Ġad just
ca p
ĠO n
ta ched
extension s
å Ī
entic ated
(' <
F S
ĠS top
B o
Ġg ate
ran ches
^ {
Ġlate st
Se quence
ex cept
Ġpar allel
CE SS
exist ing
dis able
ma ins
ĠT uple
ul ated
os id
Ġcp u
vi rtual
-+-+ -+-+
ched uler
Ġcho ices
f fici
T A
č ĊĊĠĠĠ
ch r
ĠM ax
re ctory
z on
M IN
A pi
an aly
t le
depend ent
Ġlevel s
cal e
bot tom
g amma
P L
Ġe v
ction aries
update d
Ġf ree
RE QU
Ġe quivalent
Ġl st
Ġde limiter
Ġiss ubclass
curs ively
a N
0 8
ch a
W N
b asic
Ġde scriptor
Ġin cluding
Ġsa mpling
Ġlar ge
3 9
Ġlimit s
Ġindic ating
MO DE
ĠT ensor
ĠĠĠĠĠĠĠĠĠĠĠĠĠĠĠĠ ĠĠĠĠĠĠĠ
ĠL oc
pi pe
Ġse lector
Ġwh ose
Ġspe ed
ro les
read line
Result s
i ally
Ġresult ing
) .__
et te
Ġb el
ff set
Ġm ix
Ġ ],
A ME
us ing
Ġl c
Ġdoc string
g l
Ġ"" ,
do cker
LOG GER
ĠMe thod
( ["
il ent
(' {}
mpl er
Ġfa ce
rel ated
Ġassign ed
W ith
Ġ{} ).
Ġl ang
A ccess
ĠH ow
% %
Ġn u
Ġvector s
limit s
on y
Ġ vec
per s
diff e
me s
**** ****
pre vious
Ġob tain
Ġsen der
s ites
') ):
s parse
Ġone s
co very
pos itions
Ġrun time
st rap
de scriptor
Ġp otential
Ġsub class
end ar
Ġcompat ible
OR Y
annot ation
Ġe s
get ter
no ise
B e
ĠF ROM
Ġw rong
ĠE lement
F ind
Ġde cimal
Ġch rom
'] ),
encode d
chunk s
voc ab
Ġd d
work flow
HER E
Ġpol y
ĠSt ate
mo ves
) ],
ne ed
Ġm ot
F unc
ĊĠĠĠĠĠĠĠĠĠĠĠĠĠĠĠĠĠĠĠĠĠĠĠĠĠĠĠĠĠĠĠĠĠĠĠĠĠĠĠĠĠĠĠĠ ĠĠĠĠ
cont in
i ke
Ġth ree
g ame
Ġener gy
Ġpro cesses
state ment
Ġent ire
SE LECT
eff s
E ST
bo olean
â Ģ
h our
lo gs
M I
Con tainer
char act
com ing
S L
ARN ING
c ar
ĠA uth
AR T
gra ms
Ġo k
a ff
coordin ates
n l
uplic ates
################ ################
D ATE
ly ing
C RE
ĠM ust
m ot
neighb ors
Ġres olution
_ '
se ct
pl us
Ġre ferences
Ġmo unt
a ws
Ġd ensity
cli ck
S peci
Ġcon cat
Ġesca pe
Ġs sh
fi dence
Ġcall er
Ġpe er
Ġw arn
ble ms
ĠN OT
( ('
k ip
Ġs v
G R
Ġp atterns
FF FF
serv ations
max imum
c ategories
Ġp an
Ġvi de
Ġcheck ing
t or
ĠO ver
at temp
S V
Ġv s
Ch ild
Ġfra ction
Col lection
te p
pix el
fix ed
Ġra di
per m
ĠDE FAULT
n c
Ġ ])
[: :-
ĠRes ource
ĠDi ctionary
Ġdefin itions
([ [
late st
pri or
De lete
lo ur
location s
è ¿
ro zen
co d
un set
Re ference
Ġ\ \
ĠUni code
Me ta
Ġinitial ize
Ġge o
it al
Ġre v
Ke ys
Ġcode s
Ġ1 9
Ġw alk
is m
R C
Ġdi rs
(" {
ĠG raph
sert ion
Ġin place
Ġm p
Ġd jango
pri mary
Ġvert ices
min imum
Ġasyn cio
ada pter
M odule
] (
c ss
Ġrot ation
Ġ ri
k a
b ank
7 6
Ġstart ed
: .
ĠP lease
Ġh it
Ġta il
ens ure
4 4
Proper ty
te ction
Ġun less
an ization
Ġmin utes
M B
Ġkey id
Ġcont roller
sy mbols
Time out
V ector
O UT
Ġbu ilder
i mple
p andas
red is
Ġiter ations
Ġcond itions
Ġvar s
FOR MAT
l strip
ĠOut put
N ew
com ments
Ġ5 0
iz ing
b lack
Ġprobab ility
Ġ' "
Ġv ocab
Ġed itor
cy cle
process or
ta u
B ack
Ċ ĊĠĠĠĠĠĠĠĠĠ
Ġsign ed
Ġtx t
cal lable
Ġpro duce
U RE
t n
gen es
è ¯
en ari
ff ff
a gs
Ġraise s
) ')
A UT
u er
Ġany thing
IN TER
P ol
q s
Ġde grees
Ġme as
ĠUn ion
cur acy
T arget
e ffect
Ġc ard
Ġsy mbols
Ġe tree
Ġco st
$ ',
Ġg amma
b ias
} ]
... ,
Ca che
ĠL e
Ġquery set
Ġqu al
LIN E
Ġen ough
Ġadd ing
Ġcon straints
ild card
al lable
Ġdi gest
Ġcomp uted
ĠSet s
scri pts
Ġfin ished
Ġ 64
cur ve
Ġb box
Ġme m
Ġdo cker
Ġrequire ments
y les
le c
Ġmo dify
Ġe ar
Ġwh ole
Ġco s
de t
Ġdict s
ĠEx tract
ma zon
yn tax
se l
Ġmag ic
gate way
lev ant
A li
pe er
P l
) """
requen cies
F C
Ġp ull
ot ed
ir d
range s
tr an
Ġco okie
cont roller
M issing
P ort
at ial
Ġtime delta
A x
Ġ" <
Ġover lap
)) [
per mission
m x
ent ifier
r v
pro g
Ġsub net
Ġalign ment
Ġc er
an it
Ġs s
Clo ud
Ġver y
ce l
Ġstart s
vert ices
Ġm enu
n x
view s
Ġbot o
Ġdoc s
0 9
m q
(" .
re ci
Ġdi ctionaries
CH E
at ives
ĊĠĠĠĠĠĠĠĠĠĠĠĠĠĠĠĠĠĠĠĠĠĠĠĠĠĠĠĠĠĠĠĠĠĠĠĠĠĠĠĠĠĠĠĠ ĠĠĠĠĠĠ
c id
Ġhapp en
C AL
Ġthread s
ĊĠĠĠĠĠĠĠĠĠĠĠĠĠĠĠĠĠĠĠĠĠĠĠĠĠĠĠĠĠĠĠĠĠĠĠĠĠĠĠĠĠĠĠĠ ĠĠĠĠĠ
Th read
Ġf amily
L S
as c
Ġcon st
Ġclo ud
ĠW ork
D R
j a
ĠThe se
Ġa udio
:` .
pa b
æ ĸ
' ll
Ġlo gs
umb na
server s
Ġ1 1
B in
Ġinter vals
Ġbyte array
Ġtemp orary
Ġpub lish
b re
ume d
ur ations
D A
Ġal le
Ġcomple ted
Ġpage s
valid ation
Ġpi e
In itial
den s
ma v
A nd
ag raph
P T
Ġli ght
Ġcon structor
ener gy
Ġsepar ator
di ctionary
con stant
) ",
date s
vide o
a verage
Ġw a
4 5
ve red
cell s
Ġb us
que e
Ġqu ant
Ser ial
Ġd ynamic
ĠD esc
" >
T uple
Ġst mt
s heet
! ')
Ġdiffe rence
æ ľ
c ross
Ġcli p
dimension s
P rint
Ġre cent
B ad
co st
r split
(" '
os ite
Ġpre vent
RE AD
m c
b box
= ',
o auth
un n
cur r
Ġbound ary
m is
ver b
d m
call s
Ġp lease
im it
ok ies
con ver
s olution
ĠT ake
speci fic
Type s
': '
Te mp
Gener ate
Ġcon tact
vert ex
man age
Ġco pi
p in
Ġpre pare
se quences
Ġr df
dep loy
Ġinte gers
cut off
p atterns
ren ces
ue st
ient ation
V ar
w ave
Ġdepend ing
Ġspa ces
Ġh ard
å Ĳ
Ġ`` '
m v
cre ment
Un i
50 9
ĠH ttp
P lease
co e
ste ms
wh ite
Ġsub scription
j id
Form atter
g u
te ger
Ġp t
Ġadd resses
ul ly
W indow
we et
Cont rol
ise d
Ġpre ss
std in
Ġ( {
3 1
Ġcheck sum
Ġevery thing
Ġans wer
Desc ription
length s
Ġc v
Ġc map
it ation
li cies
at oms
() }
spe ed
Ġim mediate
concat enate
out file
z z
mut ation
HEAD ER
ad just
Ġg ive
ro u
expand user
! !
Ġsl ug
cl usters
(' #
Ġtr unc
Ġd ates
Ġbet ter
Ġlocation s
: ,
Ġre versed
Ġb asis
ang les
local s
Ġevalu ate
ĠT able
Ġout side
Hel per
Met adata
A ss
Ġarg v
Ġbl ank
po ut
C ore
Ġsh ut
k ing
} /{
F T
de cimal
ut ation
Ġgra dient
ĠA d
cho ices
de tect
ri ve
m icro
mb o
li d
st andard
Data set
Ġgra d
ĠP lot
iter ator
b b
(" {}
Ġ| =
Ġhost s
co okie
l uster
Ġ: ,
ĠS hould
ĠD ef
Ġrun s
Ġ= >
8 8
ph er
v cf
al e
and atory
abs olute
lin space
medi an
Ġpro jection
ĠF ield
bl ue
() ).
Config uration
ifi c
ĠFI X
LE D
ma gs
po sed
Ġparent s
Ġp at
E V
Ġsupport s
wa p
Ġc red
Ġe as
ro uter
format s
i con
ent ities
th resh
err no
a ched
out er
R R
di g
st im
set ting
Ġrepresen ts
S end
(' [
can vas
Ġdepend ency
Ġexact ly
t m
Ġs izes
ĠE nsure
Ġdecor ated
al i
ĠV M
rand int
Ġb ra
ĊĠĠĠĠĠĠĠĠĠĠĠĠĠĠĠĠĠĠĠĠĠĠĠĠĠĠĠĠĠĠĠĠĠĠĠĠĠĠĠĠĠĠĠĠĠĠĠĠĠĠĠĠ ĠĠĠĠĠĠĠĠĠĠĠĠĠĠĠĠ
E C
Ġsuccessful ly
O B
Ġp lay
ĠA WS
ip her
Ġformat ter
ĠYANG DynClass
", "
S chema
Ġvalid ator
Ġte am
y es
h ow
TYPE S
ile s
ast er
Ġne ver
æ ķ
Po ol
Ġd uplicate
Ġinclude s
D ocument
Ġcom ma
Ġcons ider
ce eded
sen tence
Ġcon nections
Ġcreate s
Ġexec uted
Ġindic ates
e v
S K
Ġse ctions
mo ved
rypt o
P os
pla in
3 7
te mplates
Ġres olved
Ġiter tools
Ġextract ed
sertion Error
sen der
Ġexplicit ly
ex periment
parent s
__ ))
Ġtransp ort
lif y
Ġserial ized
Ġgen es
Ġpri ce
Re ader
inter vals
]) [
Ġs mooth
av g
Ġbu ff
ĠR ed
am era
G I
ĠE vent
g ap
u ch
G e
Ġ: :
Ġpro b
ĠEx ec
Ġstat istics
o v
pre cation
vis it
Ġcl one
t ice
ĠRes ult
al an
z oom
Or der
M ake
Ġcoeffici ents
h ref
H ost
FIEL D
Ġa z
: "
s at
Ġcon stants
entic ate
quee ze
F LA
P osition
he st
Ġsha re
Ġsyn tax
M ulti
ab ility
tuple s
Te mplate
Fe ature
re es
ty le
cor r
exec utable
Ġwe ek
Ch annel
Ġlon ger
Ġexec utable
au dio
con nections
V er
ti fact
] -
Ġw ave
int s
project s
Loc ation
get her
c les
parser s
p db
Ġp ending
ex e
Ġdefault dict
lic ense
out ine
Ex pected
her it
G rid
Ġlong itude
Ġvide o
Ġc wd
Ġpo inter
Con nect
object ive
er al
array s
Ġab ort
s ame
> "
get Logger
Ġsens or
Ġcon sole
Ġcy cle
U t
Ġannot ations
Ġlog ical
inte gr
Ġc andidates
Ġto l
vector s
s la
di an
Ġcalcul ation
ib ration
U rl
W idth
Ġ1 4
Ġen coder
Ġread y
dis patch
)) ))
A V
C ell
sub set
X ML
annot ations
LO CK
ret code
v or
/ {}
to list
la gs
Ġget s
Ġ/ =
Ġt ax
ĠS QL
lo or
t imer
ĠD ate
] }
semb ly
> ,
f r
Option s
sha red
Ġin c
A b
ST AT
Ġre d
uni form
leg end
A A
s ur
Ġinitial ized
v ance
V al
ĠO R
rou ped
f fic
f path
Ġde coded
m ix
Ġcont ract
Ġcre ation
P ass
Ġdis abled
Ġfa ctory
U RI
Ġrange s
ri ces
iss ue
oper ations
Ġd y
ne sted
Ġback up
E CT
Ġ" __
Ch ar
Ġbehavi or
ĠFIX ME
ject ory
Cur sor
Str uct
R ole
S U
Ġl s
âĶ Ģ
VAL UE
Ġada pter
w cs
ce il
ffici ent
en coder
, "
work ers
con struct
ĠG roup
En abled
Ġa mp
le ast
c ancel
re name
o a
Ġ' +
Ġxml ns
ĠP rint
Iter ation
ategor ical
C LA
Ġc c
by ref
Ġper m
fail ure
S M
Ġst ride
crypt o
col lect
VAL ID
Ġs la
act ivity
By tes
ex pect
ok ed
Ġca use
Ġmon itor
Ċ ĊĠĠĠĠĠĠ
te am
ĠS end
re tries
Ġco untry
Ġb undle
ri b
ch at
LO W
ne g
Ġpro ps
able s
T er
ĠG o
cu it
Ġre vision
Ġthis Obj
ra vel
ss ib
Ġpre sence
ug gest
Q ueue
fi cation
et c
loc ity
ma y
uff le
Ġmid dle
ĠSer ies
ĠM ulti
ĠCur rent
Ġst ypes
3 8
n i
Ġlo ader
kw ds
Ġ"" :
I ds
] =
calcul ate
Ġtri p
wrap ped
sub mit
Ġdi ms
Ġtemp file
Ġt b
ĠOper ation
de velo
con straints
qu ent
d ro
Ġh our
app a
Comp ute
D ec
l ations
Ġtri m
vo ice
ns upported
5 8
Ġw atch
Ġg uess
Ġchar s
W rapper
: ].
con tract
Ġpl ugins
Ġdig its
: ")
Ġassume d
Ġth ing
([ (
ĠN ow
ĠDe lete
Ġk lass
Ġobject ive
Ġdeg ree
S o
pol l
Ġlat itude
al ten
Ġleg end
" %
align ment
umbna il
Ġpredi ction
Ġappro xim
bu ilt
Ġgener al
> <
0 7
Ġar tifact
I I
t b
Ġ ur
cl one
Ġbegin ning
p ot
Ġd ry
Ġh andling
inger print
n umbers
m ime
: ',
Ġf ront
ul ative
Ġreplace d
Ġ er
AR Y
: ",
Ġresponse s
pa y
im al
comple tion
Ġtest s
TE XT
iss ues
ist ers
En t
ĠU sed
w atch
format ter
b undle
Ġtermin al
iter al
Comp onent
Ġr ather
hook s
__ :
Ġvis ual
is nan
() ``
qu ad
Ġo l
Ġc riteria
Ġtrans lation
Ġcon straint
n or
y label
co untry
ĠD O
St orage
gre en
er ial
like lihood
Ġneighb ors
un ce
call point
I mport
li ance
ten sion
con tact
ten ces
Ġformat s
V AR
en ch
Ġp ush
ĠAs sertionError
Ġp in
m time
Ġex amples
ĠI s
ĠG e
S Y
back ground
' ^
Ġn an
Ġestim ated
Ġth row
mo re
alten v
x label
Ġs leep
ĠA ND
c map
in i
================ ================
c nt
Ġper formed
l u
du ction
ĠPar ameter
i os
act ual
pro j
Ġlength s
Ġh andlers
it ter
Par am
Ġdi alog
ĠD on
window s
q q
Ġc r
am b
fin ished
is ode
pro cessed
ĠSe arch
ĠS E
ĠW HERE
Ġs q
app ro
Ġo ps
in ations
re ating
vers al
dict s
Ġdataset s
fast q
H ash
stit ution
Ġz er
N UM
Ġr h
leg al
Ġaccept ed
spe cs
Ġauthor ization
pe t
(" _
ĠS ome
M apping
Ġma ps
s olver
get cwd
Ġestim ate
R ule
Ġ'- '
cogn ized
gener al
sub scription
p ur
mult iple
Ġspecify ing
Ġf g
Ġlocal e
Ġsimp ly
Ġto gether
0000 00
j ava
s ince
d ynamic
clar ation
-------- ----
Ġ ke
4 04
Ġpl an
ĠSer ver
x path
AC HE
Execution Error
ph rase
Ġassign ment
pick le
s quare
neighb or
Ġ Ð
ĠS ign
tri gger
ge om
reg ions
= ''
ĠP ol
e e
Ġvis ible
ĠS ave
H T
Ġlist en
Ġon to
Ġta ken
C R
ĠM ark
Ġprobab ly
Ġcompar ison
Ġm ig
co ef
Ġre dis
Ġv ariance
M OD
Fa il
ne gative
] '
m ol
Oper ation
B utton
T RI
Ġtrans fer
_ [
ĠW ill
ig hest
Ġdi v
Ġcons ist
prec ision
Ġcompat ibility
Ġa m
un ion
de ps
pi ent
__ [
Ċ ĊĠĠĠĠĠĠĠĠĠĠ
decor ator
c ertificate
Ġa ux
P lot
Ġh ref
Con s
h ip
ĠG ET
. /
W ARNING
] ',
in ci
Ġs sl
deg ree
Ġen crypted
T est
c andidate
so me
: '
or ization
Ġs id
) ``
s ses
Ġc ategories
Ġre start
Ġc t
ĠA R
Ġdetect ed
back up
Ġwrit ing
h dr
Ġincre ment
ĠForm at
Ġar c
Ġfra gment
ĠM an
h it
inter section
Ġreplace ment
ĠC lass
Ġsu c
d om
Ġcomp ression
qui ck
ĠPO ST
Ġcer tain
Ġprevious ly
train ing
w x
contain s
require ments
a ce
ĠCon tent
, ,
ĠS im
Ġvis it
s urface
pan el
Ġex tent
Ġwh ite
i fact
k g
call y
Ġ' [
Ġgo ogle
Ġse ver
(" ,
Ġent ities
Ġma gnitude
Ġreg ions
Po licy
ĠInitial ize
al ive
U se
con sole
6 5
Ġa ctor
Ġf allback
A ML
Ġs ol
con trib
cur rency
' },
c v
le arn
me ans
Ġin verse
Ġpa y
ST ATE
sub net
Ġbase name
ĠDe termine
filename s
he el
W ORD
st all
Ġ2 5
Ġro les
k v
Ġurl s
U ST
Ġb g
NotFound Error
sh ard
([ ])
lo pe
pro bab
er ce
Ġcl usters
Ġob served
p n
Loc al
æķ °
ex amples
m ul
bu ff
Ġf ully
Ġh ome
a cl
Ġr gb
U I
CO M
os ome
pro cesses
Ġ10 24
Ġs ites
f h
ĠĠĠĠĠĠĠĠĠĠĠĠĠĠĠĠ Ġ
ĠS up
ĠIn stance
7 9
Ġa ut
trans late
enari o
e ta
: ]:
Ġb order
func s
J ECT
Ġ ^
Ġhist ogram
ro ke
ful ly
P ORT
]) ]
Ex tract
Ġmay be
ĠN etwork
ac c
Ġac ross
Ġman ifest
comp ound
un ity
Ad min
Ċ ĠĠ
der iv
lar ge
U SE
An y
C B
ut ine
Ġ( _
="" ,
yn omial
Ġspecifi es
me ga
cal ar
Ġm ar
trans ition
dens ity
h ard
Ġre levant
Ġne g
Ġhash lib
num eric
inter pol
Ġre spon
sk y
global s
Ġc um
Ġp ot
df s
G P
de leted
() `
ĠSe quence
å Ľ
ir t
ra ft
(' "
local e
P ost
S N
ĠCon nection
S QL
Ġg ame
ĠB lock
Trans form
Ġplot s
Ġneighb or
per t
serial izer
Ġpredi cate
ĠT ask
Create s
ĠI gn
Ġexten ded
Ġnote book
Ġob servation
__ '):
ĠV er
data frame
im ension
Pro file
Ġth ings
mo difi
} },
ĠAdd s
P ub
ĠTo ken
Ġpredi ctions
warning s
Ġcomb ined
dig its
Ġcho sen
Ġdis patch
Un ion
Di rectory
Ġmin ion
he m
Ġm andatory
(', ')
Ġnum er
C opy
che my
Ġcomp ound
non zero
Ġte mplates
LI ST
Ġfi gs
AT OR
Ġlocal s
diffe rence
f ront
tect ed
Ġto k
Ġq s
h params
Ġasynchronous ly
mpl s
Ġent er
es ian
vent ory
Ġac c
Ġcomple tion
repe at
read lines
vel ength
De code
Ġro ll
A ST
sh ot
Argument Parser
b alance
ĠSer vice
charact er
ur ther
-- +
DE LETE
Ġstd in
st one
per missions
Ġbo ok
not ify
Ġbe come
ĠWe b
Ġhy per
V is
shape s
ĠCon struct
. +
Ġcorrect ly
ç Ķ
Re ce
Ġpass ing
Ar gs
fil tered
re vision
Set s
Ġs quare
d ns
Ġtyp ing
Ġe igen
w orld
Ġimport ed
Get s
M atrix
Ġb ug
Ġstate ments
m ts
AC T
unn el
Ġb ias
str ptime
App lication
time zone
ag g
Ġcontain ed
ig uous
Ġqu ad
L Y
Ġh ours
vent ion
W A
Ġload ing
Ġpl ane
Ġt imer
li ve
S um
f w
f its
k ill
group by
tw o
(': ')
Ġlog ic
Ġre tries
sa mpling
period s
da p
Ġend s
fi re
Ġle ading
stri ction
sens itive
S UB
Ġ---- --
ript or
AUT H
S ave
s aved
s ix
load ing
offset s
exec ution
Ġconf lict
Ġ question
comp osition
Reg ister
a ign
d ag
N N
y y
qu ant
tri m
Ġext end
Ġn ative
it able
ĠClo ud
RE C
R F
Ġf act
Ġoffset s
Ġmo ment
pre tty
9 4
p ull
ct l
PRE FIX
M ed
mask ed
Ġgo ing
B Y
Ġadd s
h ours
Ġport s
ri end
Ġfloat s
UN D
qu bits
B R
inst alled
loc ate
Ġtest ing
ĠIP v
Ġident ify
Ġe t
TE MP
Ġlar ger
ĠN aN
speci es
fun ctools
Ġe cho
Id entifier
lit ude
ys ql
Ġ( `
ĠT est
Ġmu ch
xy z
ĠAl low
Ġin stanti
ud y
Ġsen ding
ili o
Ġh alf
ha z
Ġtra iling
Ġposition al
at tention
ĠS p
Ġrece ive
Ġunder lying
l ated
I RED
add resses
/ "
V M
list en
trace back
Ġb lack
Ġh uman
ĠP ass
ĠCheck s
over flow
Ġmeasure ment
--- +
\ "
) ")
i mpl
ã Ģ
Ġa ge
Ġverb osity
separ ator
u do
Ġs r
ster ior
C LI
L ATE
Ġe c
Ġde sign
ĠC a
ĠF e
match ing
Ġscal ing
Ġgen ome
st ation
Ġp ip
Fa ctory
' ``
Ġdir name
n m
Ġc ar
ĠCommand ExecutionError
Ġs olver
Ġserial ize
> ',
lec ule
st and
be at
P open
Ġzer os
Ġcut off
( ""
n ative
ĠIter able
Ġdo ct
yntax Error
w ar
ult iple
us r
Ġappe ar
i loc
Ġ% .
Ġa ffect
re pos
W OR
` ):
b p
L D
Ġwait ing
ĠStop Iteration
Ġtor ch
termin al
io dic
0000 0000
Ġin struction
b rowser
en c
comp ressed
a ps
strict ed
Ġ{ !
Ġsmall er
ĠBack ends
Ġz oom
check s
B ASE
Ġ"" .
sup port
shut it
Ġurl parse
l n
Ġc atch
an te
Ġexp anded
[ _
b a
ĠM in
Ġsh ard
il li
Ġpro blems
Ġproper ly
C ACHE
inter p
stru ctions
R oot
Ġoption ally
Ġd ummy
Ġder ived
ssib ly
OP TION
Ġqu eries
pro t
N ormal
re cursive
('. ',
Ġp p
ĠP ri
({ "
callback s
ĠU N
). """
ĊĠĠĠĠĠĠĠĠĠĠĠĠĠĠĠĠĠĠĠĠĠĠĠĠĠĠĠĠĠĠĠĠĠĠĠĠĠĠĠĠĠĠĠĠĠĠĠĠĠĠĠĠ ĠĠĠ
normal ized
Ċ Ċĉĉ
RE S
") [
Ġexp onent
" }
F low
m ust
in x
9 8
ĊĠĠĠĠ ĊĠĠĠ
Ġc od
S tyle
re maining
Ġwh itespace
irt ual
Ġx s
b ing
ins pect
cond itions
dataset s
N ext
Ġcon sumer
w all
Ġt en
' d
t ip
å ħ
base s
Ġsepar ated
ĠI SO
Ġ quiet
Ġ* ,
Ġcov ariance
Ġw on
valid ator
ide s
vid ence
vid ers
gener ated
Call back
Ġ' $
00 1
Se lect
SS L
Ġret val
Bu ilder
y m
Ġ9 0
Ġg ithub
res olution
su ally
Ġat tached
Ġconfig ure
M T
cul ar
er ation
iv ing
trans fer
ĠB ad
Ac count
Ġ( ``
Inter face
b um
r x
ext ent
VI CE
inter faces
Ġex posure
def s
Ġpan el
l lo
urn al
Ġinterpol ation
man ifest
se udo
Ġmeta var
Ġimmediate ly
R el
(" [
.. .")
Ġinter faces
Ġr r
ca pacity
Ġp layer
ĠE X
Ġf oo
Do es
v rf
vi ded
Ġbl ue
UN K
v ariance
ct ypes
Ġ' ').
call er
Ġembed ding
Ġn l
'} },
g id
not es
wh en
v a
Ġ( )
out e
Ġcorre lation
Ġi con
Ġnew line
indi c
l r
el ta
we st
ĠL ine
Ġ1 3
Ġg zip
v y
ĠR O
Ġre ached
ĠĠĠĠĠĠĠĠĠĠĠĠĠĠĠĠ ĠĠ
O p
in formation
un ct
fi es
Ġle x
li g
' })
query set
Ġm icro
B ar
Ġar t
ash board
Ġdown loaded
L ib
mk dir
ĠRe trieve
F ont
me t
L imit
c riteria
Ġserial izer
evalu ate
mm ar
measure ment
Ġin strument
ĠD ec
con firm
om ment
pro blem
Ġcomp ress
Ġmin or
A gent
_ ):
iter ations
ĠValid ate
d jango
vis or
Ġretrie ved
Ġca p
as ing
ĠH el
alcul ates
le ts
ag ing
gen ome
c ritical
in ition
bot o
) `
z a
ĠKey word
E mpty
b f
Ġh dr
Ġindi cate
Ġspeci es
Ġover rid
la x
lit eral
m ig
Ġma jor
map ped
Pro xy
r df
ĠW rit
w ind
ma inder
Ġsignal s
Ġra ster
obj s
C C
Ġto ler
pri se
Ġb p
ĠSy stem
ct rl
UR CE
ĠGet s
s ol
Ġr s
I TE
Ġa ble
ro om
im ize
Ġeps ilon
å ¤
sv g
iz ers
re m
Ġcomp ile
B E
- >
N ow
st or
bit rary
g c
me try
p illar
æ Ī
ĠP Y
M ark
Ġs in
(" .")
I R
] {
initial ized
Ġf all
Ġar tic
ĠM ap
de scribe
ali ases
T c
Ġin line
ta int
Ġhandle d
Ġth resh
Ġout er
ĠM ag
Ġsp in
uto ol
Ġta u
Ġro om
File s
ĠBo olean
ĠDesc ription
Ġform ula
' ve
al o
ĠC IM
con j
iter ation
tz info
config ure
AL I
Ġevalu ation
Ġt c
Ġa data
Ġgener ic
Ġpop ulation
(' ')
ĠS N
ĠS ource
ck s
as sessment
per form
STAT US
or n
un ded
Ġne arest
width s
gener ic
Ġdistance s
Ġ gs
x c
Ġro uter
SC RI
Ġfigs ize
m n
s queeze
y e
Ġtry ing
hex digest
Ġhandle s
, -
O ffset
b order
co un
Ġvert ical
i ence
Ġcho ose
writ ten
Ġsub mission
idx s
U TP
Ġi i
Ġpress ure
ield s
p w
or ator
RO OT
Ġs amp
tr l
Cur rent
in ct
od b
res olver
pro bs
Ġ2 56
E P
In ternal
[ ^
Ġg p
compat ible
Ġpredict ed
in ja
ĠS tore
mat ched
play er
Ġan chor
Ġn a
check sum
Ġclose st
=[ ],
Ġattemp ts
' )))
k m
x lim
Ġat oms
lat itude
Ġhigh er
ri ch
Ġup d
Ġiss ues
args pec
Ġget ting
G iven
Ġf w
p ing
a fe
Ġre ally
Ġp df
mbo lic
RE F
) [-
Ġ4 0
Ġde cla
figs ize
Ġaltern ative
li ca
Ġme th
new axis
al ect
li ps
ur b
ĊĠĠĠĠĠĠĠĠĠĠĠĠĠĠĠĠĠĠĠĠĠĠĠĠĠĠĠĠĠĠĠĠĠĠĠĠĠĠĠĠĠĠĠĠĠĠĠĠĠĠĠĠ Ġ
IT S
Ġweight ed
s mooth
ist rib
ai lab
CH AR
variant s
Ġtrans formed
pi e
int f
bet ween
UTP UT
' {
+ "
æ Ĺ
me as
Ġbind ing
im uth
run ner
hist ogram
EX T
Ġsim ulation
Ġdetermin ed
R aw
Ġn args
CM D
F IN
n ick
UN T
() ])
12 8
U LE
U nsupported
Ġiter ate
B atch
Ð °
Ġme t
vo id
f loor
s hould
re cur
format ted
Ġt ries
mit ive
Ġpol ygon
ä º
mp ath
qu ared
Ġch art
comp are
Ġnormal ization
Un it
M on
h ide
Ġro uting
Ġopen ed
Ġle af
serial ized
pix els
Ġp db
Ġw orld
Ġst ar
di a
re a
work ing
Ġact ivity
gen ce
Ġh aving
": "
C alculate
Ġc rop
Ġn r
Ġnot es
sp y
Ġ{} :
Sh ow
ud ent
unic ate
Gener ator
Ġch at
ĠM AX
`` )
Ġp f
ro ls
Ġv ox
om in
embed ding
To ol
stat istics
h its
Ġc ipher
dimension al
is digit
Ġwindow s
/ .
w o
Ġpre serve
Ġorder ing
LO AD
Sc ript
ĠD jango
AR D
m argin
gra dient
Ġfast a
stream s
f coe
Ġmac ro
p v
ge red
ST ART
sup ports
n ed
ĠCon t
Ġfin ish
! "
us ion
X Y
P R
Ġi r
Ġ{ :
B ind
to k
am ing
Ġcopi ed
7 2
C ATION
Ġc ancel
key id
] )))
Ġf urther
may be
Ġcallback s
Ġre name
le arning
Ġre comm
=" %
Ġcomp ressed
CO MM
Ġto pology
Ġm k
Ġd l
STR ING
ad j
Ġs ilent
Ġo cc
ta ke
Ġexec utor
pa g
ĠM et
Ġdocument s
qu is
MP LE
Ġg ap
Ġb rowser
ca y
Ġda emon
ĠSt ream
Ġinte rest
) ['
[ ...,
f q
P h
per ms
ĠG it
sens us
Ġ': '
Ġalle le
ĠC allable
Ġpro j
Ġtoler ance
c rop
y lim
speci al
Ġcons istent
ra ster
Ġplot ting
seq s
sc atter
. :
b ri
Ġb s
ĠCh ange
() ['
Ġtrans late
Ġ', '.
Fail ure
Ġ5 00
Ġd ns
Ġg lyph
Ġqu ality
L T
le tes
pe x
Ġrepe at
Ġd c
Ġpercent age
ag ger
gra ins
p ip
.. .')
Ġtrans formation
cre ase
ĠA mazon
tt l
5 00
ĠE d
ip y
J son
z ed
Ġa ff
con straint
Ġderiv ative
Ð µ
ven ance
bind ing
Ġ1 80
SS AGE
ĠAdd itional
g gered
pro d
t ell
ĠTe mplate
Ġtran script
ER S
ann ing
plot s
res olved
ĠX XX
n v
ĠE nd
Ġrelation ship
Bu ffer
defin itions
en otype
a ux
Ġli ve
ĠN ormal
Ġdepend s
inci pal
Ġmark ers
U sage
Ġbase s
temp erature
mo ving
Ġiter items
Ġspect rum
/ ',
Ġtw ilio
Ġf ew
ĠS kip
d ry
l legal
Ġt reat
ma pper
Ġcon figs
quest ions
Tra ck
Ite ms
Ġg l
âĶĢ âĶĢ
ak ing
pl t
gr p
Ð ¾
ust ed
Ġso up
={} ,
Ġglobal s
co verage
ĠData set
note book
Ġreduce d
re present
Ġre action
da emon
PE N
Ġc d
ĊĠĠĠĠĠĠĠĠĠĠĠĠĠĠĠĠĠĠĠĠĠĠĠĠĠĠĠĠĠĠĠĠĠĠĠĠĠĠĠĠĠĠĠĠĠĠĠĠĠĠĠĠ ĠĠĠĠĠĠĠĠĠĠĠĠĠĠĠĠĠĠĠĠĠĠĠĠĠĠĠĠĠĠĠĠ
Ġp g
R a
reg istered
Ex p
LA B
sp ac
Ġformat ting
log its
ex act
ump tion
Ġ12 8
Ġactiv ation
Ġ utool
ĠP h
ĠA pi
ĠMax imum
Ġname spaces
mav link
c mp
min utes
ĠValid ationError
Log in
p as
} ",
Ġx max
F loat
on gs
Ġerr no
)) ):
led ge
bl ank
v cs
____ ____
h int
ĠT ag
precation Warning
D ep
TE S
velo pe
å ®
M ix
Ġclass ification
ven ience
K EN
Ġcon firm
Not Exist
ĠPer form
Ġre cursively
par allel
with out
S R
ailab ility
t up
S tack
res ize
Ġk m
Ġover la
We b
O ne
='' ):
ĠRe cord
Ġmask ed
( ("
Ac cept
x ies
Ġn dim
ul us
Ġco verage
ĠP art
Pro ject
Ġas c
`` :
ĠSer ial
custom er
>` _
ph an
Ġdo ing
ĠConvert s
ĠPo int
4 00
Ġt rial
ĠV ersion
s olve
R ect
Ġcoeffici ent
Ġc s
coun tered
v c
th ers
ĠA b
app s
Ġf fi
c us
Ġ`` (
comple ted
rot ation
at t
part ic
Ġ ì
C G
6 00
Ġex cluded
Ġso ft
lo bs
Ġj s
utc now
state ments
bound ary
T AG
b ut
Ġcan vas
Ġequ ation
haz ard
fra ction
long itude
ic ket
ç »
art ifact
Ġv lan
namespace d
sha re
TIME OUT
d id
sp in
update s
Ġsc ene
Ġbro adcast
} ',
con sumer
ip ant
D U
ĠN AME
dire ctories
Ent ity
pre view
o sed
Ġla unch
Ġ4 04
x i
ad ow
Ġin tern
ĠA B
Ġch an
min or
Set tings
ĠApp ly
j ar
il ename
d y
Ġbound ing
peak s
h df
Ġh its
auth enticated
S hape
c lock
k lass
local host
Valid ate
}: {
Ġattach ment
e lif
r h
f ollow
t cp
(" <
mat plotlib
Ed it
D P
å Ń
re ferences
Ġm i
O M
Ġst ation
Ġph one
" {
W riter
Ġb ed
assign ment
Ġsub mit
Ġl v
], [
+ \
Ġis o
c art
Co mm
çĶ ¨
it ute
8 9
S k
[ \
è ¡
Ġf its
Ġh ighest
ĠN um
ĠM ay
Ġlist ed
ĠCon text
im ing
} -
Ġp al
stack overflow
Ġco res
re moved
col lections
pl ane
SP ACE
Ġw ildcard
Ġl n
Ġlet ter
Ġre striction
all en
Ġcomp utation
ĠT O
Ġr x
Ġlog ged
Ġfilter ing
Sp lit
Ġchar set
LE NG
per son
Ġcomp s
ĊĠĠĠĠĠĠĠĠĠĠĠĠĠĠĠĠĠĠĠĠĠĠĠĠĠĠĠĠĠĠĠĠĠĠĠĠĠĠĠĠĠĠĠĠĠĠĠĠĠĠĠĠ ĠĠ
At tr
) ?
mo us
mp aign
Ġexpression s
ĠRe ferences
Ġcan onical
run s
Ġoc curs
un used
ĠS ort
è ®
und er
B B
Ġn c
Ġlike ly
Ġ[ ('
ĠP op
o ct
pop ulation
ĠHttp Response
Ġma king
Ġch r
ĠUT C
end or
LENG TH
Ali gn
Ġaggreg ate
bs ocket
Ġc rypto
limit ed
Ġren dered
ĠHow ever
Re trieve
H ist
T op
f tp
ĠAdd ress
Ġca pture
TO KEN
Lay out
F lags
Ġcheck point
AN CE
b ridge
ial og
Desc riptor
de coder
class ification
Ġsat is
r n
Ġc ss
Ġdisplay ed
mid dle
Ġ ĊĠĠĠĠĠĠĠĠĠĠĠĠĠĠĠ
Ġd uplicates
di ents
Ġ[ _
sm all
arg inal
ĠJ o
S ample
ro utes
go ing
Ġali ases
i gs
Ġnew ly
slot s
Ġf our
lex er
pab ilities
} ')
ĠP ub
Ġan ce
we ep
Ġaccept s
tr unc
ang ing
Co ord
N et
Ġt p
Ġcomb ination
G ui
T ry
Ġthread ing
fl u
e le
Ġp illar
Ġdefin es
æ ĺ
Ġr and
stit ute
ar ing
Ġindex ed
Ġpro g
Pre fix
to pology
do mains
Ġman ually
ĠO PTION
Ġpol l
predi cate
5 4
R PC
ĠA ct
Ġstr ategy
speci fied
__ ')
ug ment
F lag
e ss
Ġf rozen
Ġ' \\
shut down
Ġfor ms
Ġde epcopy
ĠSp lit
Ġmat rices
Ġinsert ed
mp y
g i
Ġcomple t
__ ',
M ask
ig ure
subplot s
Y ANG
P H
t ot
an ity
Ġ' ?
Ġfl ush
æĸ ĩ
Ġf requencies
to o
ID s
Run ning
Ġdescri bed
et ree
At temp
non ce
rece ived
chan ism
e qu
ĠC opy
Un expected
Ġresid ual
in fer
at least
reg ular
sg i
} ")
Ġn or
fra gment
ĠT hen
ance s
alan cer
W rit
AN GE
cent ers
Add s
ĠDo es
Ġoccur red
Ġten ant
Ġn n
Ġr ng
initial ize
radi ans
ATE D
Ġevalu ated
ĠS ince
Ġspeci men
gn c
Ġ' '))
Name space
the me
n om
Ġdeploy ment
Ġ' (
Ġos id
s lices
co effs
oc us
Ġ4 00
Ġover lay
Ġkw arg
T ags
m or
char ge
C ustom
Ġo thers
b ranches
ex posure
develo per
W ait
_ =
Ex tension
Ġvariant s
in line
run e
Ġsu itable
Ġsever al
Ġc m
dat atype
part itions
g ui
Ġcorrespon ds
de grees
ĊĠĠĠĠĠĠĠĠ ĊĠĠĠĠĠĠĠ
Ġwh o
helper s
Ġ"{} "
let ion
s cipy
ri pts
t reat
u it
fe at
Ġj ump
Ġyield s
leg ate
ĠCol umn
n ers
er ance
(' >
Ġre ach
Ġar bitrary
qual ity
comp liance
se quent
lo pen
P e
Ġin coming
ĠA S
Ġalpha bet
Ġde coder
UT F
rel path
7 3
ĠV ariable
ĠConfig uration
ar row
stra in
Ġ[] ):
ug ht
Def inition
name spaces
AN T
ãĢ Ĥ
` ."""
st able
Ġ` ~
te gr
lap se
sn mp
Ġ[ %
y ield
ĠĠĠĠĠĠĠĠĠĠĠĠĠĠĠĠ ĠĠĠĠ
start ed
Ġw s
Pro tocol
Ġr hs
Ġm ouse
Ġav g
T itle
ot a
Ġin f
ĠN ull
account s
sens or
.... ....
Ġin correct
riend ly
b ill
an is
min ute
Ġwork ers
Does NotExist
start ing
ĠE ither
Ġmy minion
Ġm v
Ġm er
ĠC PU
an sion
Ġestim ator
Ġbro ker
Reg ion
] /
()) [
return code
Check s
g iven
ĠP AT
s amp
Ġr id
Ġca pacity
doc string
de sk
Ġs heet
st yles
Co mple
mapping s
Ġcla use
hy per
Ġf ar
Ġd ag
Ġfile system
Ġfil led
Ġlike lihood
il ine
pri me
c rs
in ary
ta iled
Ġ< /
Trans action
ĠSpeci fy
RE CT
de cl
Ġm argin
Ġf u
lo red
ject ed
mac ro
Inter rupt
Ġmedi an
DE D
_ ['
Ġe q
C reating
Ġto ols
201 8
P i
ar ound
GE X
voc ation
Ġcon fidence
graph ic
Ġpre ce
Ġde al
ĠĠĠĠĠĠĠĠĠĠĠĠĠĠĠĠ ĠĠĠĠĠ
bind ings
Parse Error
Ġk v
C luster
l and
x min
Ġcomb ine
estim ator
alle le
co vered
Ġinter section
G IN
Dis play
Pl ugin
Ġb alance
amb da
Ġh orizontal
Ġ{ {
form ula
Ġprocess or
S top
ĠM apping
Ġrepresen ted
] ")
Ġan n
Ġbe am
ac quire
top ics
sec ure
Ġexpi red
in p
Ġlist ener
+ ',
Ġh ide
sp f
Ġuni form
Inter val
Ġmodifi cation
loc ator
syn tax
'] }
ĠCol or
Ġca re
h alf
th ro
Ġle ave
Ġde ad
ĠRe place
Ġclean up
Ġmeasure ments
c df
Ġang les
Ġin vert
ord ers
u c
Ġun able
Ġle arning
Ġperform ance
C ells
R GB
Ġmin ute
ĠK E
R andom
T ABLE
in complete
ĠD own
sc ene
Ġ( {})
ĠR GB
pac ing
o i
Ġpla in
ĠW h
ab c
4 8
T otal
P M
ar ante
ĠC SV
fo cus
Ġprovide s
C alled
Ġe lapsed
Ġde tail
fil t
distance s
um ing
Ġg rouped
/ #
P ix
er as
Ġun expected
ject or
check point
loc ated
bro adcast
SE S
1 01
\ .
Ġst uff
la ce
Ġat trib
Ġin s
L AN
S B
} _
Ġs lices
Ġar y
Ġip v
ent ion
comm unicate
æ į
Ġclient s
Ġob servations
Ġoptim ization
M sg
Ġpro tein
Ġgener ation
gg ers
Ġi de
Ġbo ard
Ġfa ke
exec utor
box es
> </
in strument
ĠT arget
Ġre store
qu eries
ĠC ustom
mt ree
ĠPro ject
G L
P r
Ġ' @
Ġu sually
M Q
int ext
ph ysical
Ġartic le
, **
Ġf oot
is ing
Ġa ws
Ġ" *
Ġen cryption
fin ish
G O
lev ation
gp u
set Level
Ġsq rt
M D
Ġshort cut
Ġfont size
attach ment
nor mpath
Ġv cf
__ ()
Ex tra
jac ency
cs r
la sk
Ġfa ster
Ġco lour
len ame
Ġdescri bing
Ġ" (
Ġbra cket
L en
ase d
Ġoverride s
ph one
b asis
ä ½
Ġun used
T ri
s b
Ġin p
ang ular
scope s
se en
Ġident ical
Lo okup
Ġskip ped
ĠLo ok
Auth orization
po w
Valid ationError
Ġread able
P ackage
g uess
iz able
Ġy max
åĽ ŀ
P attern
Ġu i
ĠE l
COL OR
le ting
ĠS c
Ġx min
ĠU sing
de serialize
ĠĠĠĠĠĠĠĠĠĠĠĠĠĠĠĠ ĠĠĠĠĠĠ
CLA SS
) ==
D ialog
Ġs d
k b
et s
root s
has hes
## #
Ġ... ,
Ġ'_ '
pro jection
Ġapp lies
medi ator
ĠEn vironment
C D
prefix es
A I
Ġk ill
"] ))
{ '
over lap
S pace
Ġapp s
art ist
Se ction
AD D
author ization
percent ile
ma gnitude
Ġcon tour
let ter
ren gth
R N
pro tein
mo ment
c andidates
l b
an za
file obj
Ġconver ter
ut ures
ĠJ ob
go od
v ari
Ġp ys
co in
Ġde ep
UR N
Ġvari ous
ass oci
Ġc mp
Ġde viation
ff e
over write
Ġdiag onal
Ġcon vention
num s
W E
ĠP ost
tra j
Ġaggreg ation
Ġadd ition
Ġplace holder
4 2
N C
> =
Ġac curacy
Sy mbol
ĠTake s
Ġscal ed
Ġ201 6
s am
Ġc id
tod ay
Ġdoct est
Ġident ifiers
PO INT
Ġh ad
Ġc n
trie ves
ol ding
B it
M ust
g d
Ġ" #
Ġdat atype
O ri
i ro
ĠS H
over lay
F E
end points
oth ing
Lo ader
1 80
i face
Ġh old
Ke ep
activ ate
6 8
b on
m ongo
v ailable
C md
G RO
N on
Ġs ink
'] =
ĠSh ow
ĠHel per
Ġf c
LE V
ĠOption Parser
ĠA SC
ĠE ng
Ġren derer
Ġor ientation
Ġapp ended
Ġclo sing
az ard
F etch
f m
um or
t ls
li de
Ġro utine
s ci
ĠI NT
S tep
Ġprefix es
Ġr m
ĠF a
ud it
IL D
ĠAss ume
contin ue
W ord
ĠT ri
Re port
U sing
Ð ¸
Or deredDict
allen ge
Ġqu antity
pe g
ten ant
Ġfe at
or al
b atches
SO URCE
aggreg ate
exp onent
Ġsplit s
B ound
St at
Ġmapping s
Ġprobab ilities
I ME
u oa
Ġoper and
R T
ro gram
ren derer
ĊĠĠĠĠĠĠĠĠĠĠĠĠĠĠĠĠĠĠĠĠĠĠĠĠĠĠĠĠĠĠĠĠĠĠĠĠĠĠĠĠĠĠĠĠĠĠĠĠĠĠĠĠ ĠĠĠĠ
Ġada pt
m gr
Ġre pos
ĠRe quired
ĠU p
Ġlink ed
Ġc art
spac ing
S ec
Ġp b
Ġp added
Ġr pc
TE ST
Ġart ist
Ġs pi
test s
An alysis
r p
Ġse l
ĠA nd
l lable
Ġb i
Ġup grade
Ġb ulk
factor s
: {
Ġin dependent
ĠURL s
Ġboot strap
B ER
B ACK
Ġ1 8
lic able
u pt
Ġif ace
at ural
Ġin fer
Ġv tk
',' ')
tic ket
ĠIgn ore
Ġremo ving
ĠN ULL
clean ed
Ġpers on
* \
N ULL
in crement
qu antity
pi ents
Ġgr ant
anit ize
out dir
Ġvis ited
} `
contain ers
Ġen countered
in file
co okies
TE N
Ġto do
IN ET
Act ive
f u
ct ype
PAR AM
5 9
h ierarchy
Ġt t
split s
char set
Ġproject s
ĠD ocument
Ġg ives
Ġdi strib
ĠG O
ific ant
in verse
on ic
Ġph ysical
ire ct
ma ils
ĠS imple
lastic search
G o
qu id
St ats
mark s
Ġprint ed
Ġsyn chronous
) ._
[ [
b io
u li
Ġas pect
ony mous
e g
c ates
response s
HTTP Error
ada pt
2 000
R UN
ther net
resid ue
REQU EST
b all
Ã ©
Ġd ro
or b
can onical
HO ST
T ING
t ex
Ġlar gest
J o
Ġstrip ped
Time stamp
Al low
H ttp
Ġmark ed
Ġhe at
ĠY AML
Ġcorrespon d
Ġpers ist
== =
su do
l m
up s
~~ ~~
Ġs olve
Ġh and
f fi
list ener
ĠP i
ME SSAGE
En coder
st p
Ass ign
=' %
In teger
Ġstream s
Ġp c
T here
right ness
d v
Ġqu bits
attemp ts
Z one
li very
Ġinter active
Ġhigh light
-+-+-+-+ -+-+-+-+
Ġst and
Ġ[{ '
Ġupd ating
de limiter
iz ations
Ex pression
ab ort
Ġserver s
de lt
'] ('
99 9
separ ated
) })
comb ine
Ġun ion
lin ux
den se
wh ile
Ġnot ify
en cryption
Ġ` %
TER N
istrib ution
G lobal
Ġs co
di alog
sp h
Ġmean ing
SO CK
al ways
Decode Error
pe dia
ist ype
Ġpart itions
4 6
D oc
in ux
ĠO K
Ġ3 60
Ġlook s
Ġnon ce
LI B
Ġin file
Ġpre ferred
ib ling
Ġalign ed
ĠPer mission
Ġobtain ed
Element s
ä¸ Ģ
Key Error
Ġpol ynomial
Ġperiod s
G ra
ri ft
Ġ' &
ĠW ith
ĠSe ssion
DI S
v tk
pla ces
po ses
add itional
Ġcode cs
predi ction
re store
ch art
Re quired
Ġrecur se
fi d
scal es
ul ary
Ġin herit
Ġ" +
Ġtra jectory
r atic
ne arest
Ġe le
Ġint s
Ġpie ces
ha in
Ġ8 0
pa gate
Ġt tl
LIN K
ro uting
client s
ac ket
Ġe mit
Ġrequire ment
Ġve locity
i um
art icle
pal ette
IT H
Ġp m
ul ations
Se e
Ġoptim izer
activ ation
Ġre mainder
ci pher
ĠCo mm
CO MP
ĠPro per
P ay
ĠA ccess
In sert
ĠSe lect
illi seconds
expi res
>> >
V olume
c rit
ĠC F
real path
author ized
mut ations
probab ility
ext ended
] "
t as
Ġge om
iv ot
dis connect
Ġt i
pre p
Ġb ranches
ob servation
Ġm m
te m
Ġpro du
Lo op
M ag
ise ct
ĠEx p
ran sp
Ġs cheduler
}. {
å Ĭ
Id x
vl c
Ġfollow s
ĠI mplemented
request ed
arg max
( """
` ).
e ach
read able
ĠM y
Ġpo ssibly
Lo ck
W indows
Ġre m
il la
Ġcomp iled
Se q
Se gment
ä¸ º
T T
g ot
Ġb c
as yn
Point s
re action
Ġh azard
Ġcal endar
Ġ( [
ĠW ait
writ ing
L U
Ġclean ed
Ġgu arante
FLA GS
wh itespace
alys istype
HO ME
stri de
dest roy
at al
art beat
Ġres olver
mode s
Ġfun ctools
OPTION S
cept s
** (
Ġfloat ing
ĠU ses
sh ips
requi res
head s
Ġl iteral
ĠS SL
Ġ` ``
at ched
align ed
D raw
le st
up grade
ĠĠĠĠĠĠĠĠĠĠĠĠĠĠĠĠ ĠĠĠĠĠĠĠĠ
ĠG ra
IG NO
n ado
im ation
Ġac cum
yg ons
b ian
get env
Pa rent
H TML
w l
ĠS u
Ġpa st
Ġshut down
D ouble
Ġreg istration
ä¸ ª
m ant
len code
Ġro utes
board Interrupt
ans wer
verb osity
el low
ĠV AL
clean up
vance d
Ġbound aries
LA Y
Ġimp ro
Ġl b
Ġor bit
ĠS chema
al go
d it
p otential
M AC
Ñ Ĥ
Ġt icket
ĠM atch
) *(
)/ (
' +
Ġt ot
Ġe g
UL TI
Ġpl us
dis abled
port al
ĠNe ed
tri al
Ġrun ner
Name d
M enu
v pc
an chor
Ġb ank
re cognized
Ġt gt
sc p
At tributes
ar p
Ġn t
T ODO
an cy
fa c
ĠSalt Cloud
' ",
Ġ ---
widget s
LEV EL
O FF
t id
depend ency
R ate
Ġsh own
è¿ Ķ
fi r
b c
] ')
Ġe ta
ot ypes
Ġ_ ("
Ġma il
Ġa ck
ame l
Ġne ur
script ors
M IT
g ain
m r
r ations
re trieve
str s
re start
Ġconvert s
Ġend points
g ies
Ġs ci
ĠY ields
data store
Ġsub sequent
ifi es
from string
Oper ator
3 00
Ġscope s
con structor
net loc
+ +
ĠN D
cre ts
Ġ201 5
o ok
Ġh ack
Ġcontain ers
/{} /
c ri
initial izer
t gt
work space
Ġ'. '.
è¿Ķ åĽŀ
mal lest
Ġpar agraph
Ġs uggest
* ,
]) ):
Ġwh y
comp s
Ġshape s
Ġpar s
Me mory
En gine
posit ive
Con d
lat ent
ĠDE BUG
Ġre served
: ')
v stack
Ġpal ette
po ssible
Ġreg ard
Ġh ierarchy
vis ions
[ ~
al tern
Ġgre en
g lyph
č ĊĊĠĠĠĠĠĠĠĠĠĠĠ
Ġex change
Fa ctor
C CESS
li sion
lock ed
' %
Ġx path
Ġdo i
Ġfollow ed
optim izer
g os
NO WN
conver ter
indic ator
b ulk
am ent
Ġal ert
SH A
li ers
ĠU sage
mark ers
(': ',
tran script
AT CH
Field s
sto ck
ĠHe re
pe s
pro vision
10 24
ar ily
Ġex ceed
sp here
ĠLo op
Ġrece iver
b ands
Ġt up
Ġcur rency
ad s
Ġtimestamp s
tol erance
ĠS P
Ġexpi res
Clo se
Ġ jo
Ex ample
at ios
M ain
n dims
Ġ1 7
pa red
TR Y
, :]
p mag
ĠC alled
Ġx i
Ġa ren
Ġ quick
12 7
Ġsort ing
Ġ-- >
Ġfl u
TEMP LATE
Ġpro files
MA GE
={ "
h and
p f
Ġst e
ex change
con sts
ĠM ed
(? :
g h
pro tected
out come
Ġident ified
c atch
Ġs low
Ġcon trib
Ġpk t
g zip
Ġv max
ĠĠĠĠĠĠĠĠĠĠĠĠĠĠĠĠ ĠĠĠĠĠĠĠĠĠĠĠ
Ġfla sk
li ck
ra pping
Ġqu otes
Temp orary
an alysistype
Ġde ci
trans lation
ĠString IO
d T
Ġfi re
9 7
r mtree
u v
iss uer
Ġimp licit
Ġbox es
Oper ations
P op
Ġ lif
Ġn ick
ri cs
ĠF ix
Ġsee ms
Ġ"/ "
Su ccess
p od
req s
ĊĠĠĠĠĠĠĠĠĠĠĠĠĠĠĠĠĠĠĠĠĠĠĠĠĠĠĠĠĠĠĠĠĠĠĠĠĠĠĠĠĠĠĠĠĠĠĠĠĠĠĠĠ ĠĠĠĠĠ
eps ilon
WOR K
po licies
AT TR
Initial ize
ĠDe precationWarning
con tour
__ ),
cp us
co effici
scal ing
é Ģ
Ġh a
check ed
MS G
Ġmime type
A ng
( .*
Ġt d
Ġsc ripts
Ġoper ators
ĠNot Found
Ġsp atial
Proper ties
on om
Ġb b
Ġw allet
ĠE ND
Ġhas hes
Ġp itch
str ategy
Ġv o
ĊĠĠĠĠĠĠĠĠĠĠĠĠĠĠĠĠĠĠĠĠĠĠĠĠĠĠĠĠĠĠĠĠĠĠĠĠĠĠĠĠĠĠĠĠĠĠĠĠĠĠĠĠ ĠĠĠĠĠĠ
Ġproduce d
A da
k t
ent ropy
En ter
cla use
Ġbel ong
Ġs altenv
pub lished
Change d
d uplicate
Ġsub stitution
rf c
ĠSpeci fies
place holder
Node s
Ġfactor s
en crypt
et ect
Do main
in el
s park
ol l
ĠA N
Ġo mitted
Ġl it
kw arg
LI C
ĠReg ister
Ġhapp ens
Ġde velo
len s
Ġen s
Ġne st
ME TH
Ġreference d
ĠTime out
ne eded
wh at
, %
Ġres ize
Ġinitial ization
ce ler
Ġse ar
sc roll
p ct
Data base
Ġsa mpler
12 3
n ic
D elta
al m
Ġrepe ated
Ġchrom osome
/ <
Ġc f
et ic
Ġthe me
con c
args ort
Ġsh if
æį ®
S up
al chemy
ĠExec ute
I X
(' =
ĠE C
Ġsen se
Ġp en
Ġde ps
ER Y
TH ON
bre viation
RE GEX
not ation
su bj
vi le
Ġget ter
Ġcir cuit
) >
Ġzip file
Ġembed ded
c annot
i ate
w ho
Ġb old
AR CH
ch dir
ĠVer ify
Ġdecla red
a o
SIG N
B LOCK
Ġo auth
Me mber
P P
Ġaccount s
FOR M
å į
el t
Ġvalid ated
Auth entication
ĠIter ate
Ġas cii
Ġend ing
mark up
s co
Ġde scribe
m ysql
Ġfil t
DE X
rece ive
Ġs pacing
Ġdig it
tod o
vert ical
AS H
] ]:
(" #
log file
Bu cket
Ġi x
C omment
L ANG
å º
ĠT er
Ġma v
pk t
Ñ Ģ
ch i
ph ot
M C
Ġorg anization
Ġ\' {
= __
ĠO N
Ġindic ator
Convert s
Ġp ts
int o
comp ose
Ġmod name
ĠP age
Ġassume s
black list
5 12
ome ga
Ġimp act
Ġspe cs
M erge
P s
SER VER
Ġsk y
Ġ" :
ĠR FC
CON ST
ench mark
d ct
ri er
"] ]
sub mission
dist s
| \
Ġb ond
v x
Ġstr and
Ġmo ving
Ġsession s
scal ed
Ġf lip
sub scribe
Start ing
ĠQt Core
Mix in
Ġy min
Ġ-------- ---
... )
Ġa mb
co eff
ĠRe ference
ĠDe cimal
multip lier
Ġasc ending
re load
on ts
CO UNT
('.') [
åı ĸ
taint y
g as
Ġin voke
Ġv min
z A
_ "
I p
out h
Ġmis match
T r
l ux
Ġ" ."
ĠS SH
Ġinv oked
U ES
g res
Ġb r
= ('
! ".
P RI
ĠL a
Ġsample d
Ġ'/ '.
signal s
M od
* ',
Ġs f
Ġat tention
Ġ| |
Per form
time series
B IN
se cs
Ġdata store
Ġm tf
percent age
O pt
st ub
Ġs ing
Ġen crypt
info s
ĠL abel
cha ins
s cheduler
4 9
Ġa way
an a
Ġm ol
index er
ĠValue s
? ?
d h
ĠGener ates
Ġ2 04
ĠFI LE
(' \\
OL D
b oth
Ġd p
')) ,
need s
S UP
x ff
Ġp print
ul ator
writ es
Ġth us
Ġme mo
ak er
Row s
Ġintegr ation
Ġm gr
gener ators
DI RECT
Ġdid n
cred s
Ġreci pient
b ol
Ġo ct
Ġwork space
Ġcum ulative
4 3
Ġb am
Ġstd dev
Date Time
EN TI
ĠUT F
System Exit
Ġc redential
ha ve
ĠRe ce
Ġgroup by
Ġdebug ging
ĠOver ride
æĹ ¶
! '
D en
ch ors
} ),
up y
Ġma gs
class name
a mpling
Ġ ;
Ġl l
kw s
fo ot
py plot
sim ilar
ĠPAT H
ĊĠĠĠĠĠĠĠĠĠĠĠĠĠĠĠĠĠĠĠĠĠĠĠĠĠĠĠĠĠĠĠĠĠĠĠĠĠĠĠĠĠĠĠĠĠĠĠĠĠĠĠĠ ĠĠĠĠĠĠĠ
PA RE
Ġdi c
LE N
ins pe
Ax es
j d
ct ime
merge d
ss ue
late x
Ġ-------- --------------------------------
Ġ[' -
Ġtick s
h stack
Ġ" [
ĠP RO
Id entity
č ĊĠĠĠĠĠĠĠĠĠĠĠĠĠĠĠĠĠĠĠĠĠĠĠ
ph inx
uplic ated
Cont roller
ĠKE Y
= ["
f olders
q os
Ġ{} \
ĠCurrent ly
C ho
ata ble
Ġv pc
ĠV ector
rece iver
e ch
se cut
Ġre load
RE G
ĠASC II
D C
de sign
Ġma pper
Ġloc ator
******** ********
m and
In it
In voc
L ast
Ġ license
Ġtensor s
Ġs wap
et ched
B asic
Ġsu do
Ġqu bit
gg le
Connection Error
epoch s
CHE CK
Ġpie ce
P OR
Ġvolume s
ĠCh annel
[' __
sp ice
volume s
Ġc nt
F UN
k l
(' ^
In di
ĠIn teger
sd k
Ġde tection
Ġ2 3
AR K
] ",
Ġlo west
Ġsimilar ity
6 7
Ġth ro
gorith ms
peri ments
S ocket
u ids
ĠP AR
mo dify
Ġpl ural
ad i
Ġat t
dir ty
Ġstop ped
TR AN
Ġlanguage s
aut if
Ġ è
timestamp s
Ġeffect ive
Invoc ationError
H ub
W T
ĠP a
bri ef
arg parse
mplement ation
Ġla b
ĠL ink
Ġup on
Ġauth enticated
Col umns
S im
Con st
f b
he alth
Ġimport ant
Ġmode s
PA SS
C OD
ĠR PC
ĠCon nect
TE NT
relation ship
5 3
or a
as sets
Ġpas ses
di strib
Ġout come
li min
Ġdata center
Ġexpi ration
d up
Ġsla ve
I t
i mag
Ġen c
C d
Ġst yles
Ġpa ired
Ġstruct ures
NO DE
Ġgr p
Ġrespect ively
Ġgate way
h d
start s
' m
ren d
Ġent ropy
201 5
l sp
Ġn v
Ġ3 1
String IO
Ġcor pus
red dit
lat tice
ĠDe vice
autif ul
Ġf r
ne st
ĠU UID
og en
Ar g
ĠRE QU
Ġ' ;
fa b
Ġnumer ical
Ġexpect s
ĠLoc al
S PE
""" ,
Ġrot ate
ĠI Python
Ġresid ue
Ġamp litude
D ay
Ġapp licable
R S
Ġout dir
reg istration
Iter able
End point
Sign ature
Z ip
q t
REQU IRED
j ump
ach ine
ĠGo ogle
pt ide
Update s
iso format
Ġmulti processing
M y
Ġc le
][ -
Ġre use
Se curity
predi ctions
ĠUpdate s
j i
v v
Ġt m
pro files
Ġ[] :
Ġsecond ary
GRO UP
6 9
i pt
Ġnamed tuple
e gg
inter pre
pri v
8 7
Ġcontin uous
Ġpub lished
ĠA x
out s
boot strap
ĠV iew
ĠB EL
Ġindent ation
Ġwrit es
} _{
Ġc lock
assign ed
Ġst rain
ĠN othing
Ex pr
or ientation
Ġindex ing
ĠGe o
r ant
al formed
ce back
ĠI S
Ġblock ing
aggreg ation
S to
Ġin ference
([ ^
Ġgra b
Set ting
ĠTrans form
Ġincre ase
termin es
ach ing
h n
w itch
sen tences
ĠQ ueue
Ġby ref
av asc
ĠSt orage
ĠStr uct
Ġf ocus
press ure
unct uation
Ġt weet
): ]
roll ment
Ġdepend ent
Ġsym metric
ĠDis play
z s
Ġg as
Ġco ef
12 34
graph y
reate d
ĠS ample
Ġla zy
ep isode
x p
Ġc ra
pe m
Ġsup ply
xx xx
attemp t
ent ially
") ]
i fo
v d
Ġv a
Ġs aving
Ġco me
Ġback ward
5 2
Ġe lect
'' .
filen o
Rece ived
h ub
la unch
ĠF rom
SI S
Ġcor ner
(' @
MA IN
+ )
Ġre strict
> ')
w allet
Ġto day
ĠI mp
dic ates
o res
Ġn ice
ĠL ay
Ġ-------- -
V irtual
LO B
E num
ob served
Ġinter p
th rough
Co unter
ĠKey boardInterrupt
Ġmar ket
ĠC H
AP P
Ġfast q
/ {}'.
D imension
ĠS Cons
Ġtop ics
Pass word
w sgi
ine ss
So up
r aries
Ġmat erial
Ġfa ces
conf lict
Ġdiv mod
AC TION
ĠPre pare
1 0000
E E
M ULTI
en crypted
lo cs
Date time
a res
on ce
Ġb atches
ĠM on
cre ation
secut ive
ca pture
Ġcha ins
vers ation
Ġre tain
comp iler
h w
estim ate
Ġapproxim ate
N ote
Ġde t
mo use
comp ar
Ġi v
OR M
- \
C AS
ĠC ho
ari ate
measure ments
la m
F irst
e ye
{ \
Ġd ct
ve st
Ġab stract
firm ware
Ġ'{}' ".
Ġmanage d
qu bit
ĠM atrix
be m
S ort
d ynam
n y
Ġimport s
vis ual
F ore
S CHE
ĠA ST
Ġexpi re
ĠLoc ation
avasc ript
Ġd w
ĠRe moves
Ġhe alth
L ike
Ġ` {}
Ġbuild ing
Process ing
ĠAt temp
predict ed
re ach
st roke
Ġin ferred
inal ity
EN CE
optim ize
METH OD
al arm
Ġcorre ction
bucket s
PRO TO
Ġp w
(" >
ĠCo unter
ĠD ep
RE AM
W D
i ma
Ġas sets
Ġla g
App ly
Ġlet ters
ĠTe mp
de ep
Ġh du
.. /
if s
ĠOr der
Ġcor outine
ĠT R
rb ridge
Ġrecomm ended
i et
st ors
dec la
override s
omin ator
do i
Ġsto res
s f
Ġ um
re versed
ĠE OF
place ment
Qu antity
Ġp ow
def ine
str and
fil er
title s
P G
b idden
('/ ',
Ġw ire
gr ant
Exec ute
built in
Ġleg acy
R ender
x b
Pro to
Ġlon gest
=" {
{} ,
in place
ident ifiers
=[ ]
b gp
Ġinter sect
riter ion
L vl
d uplicates
ä ¼
in o
ma ker
Ġfile obj
Ġch i
from timestamp
al ert
ĠM erge
}. '.
at ar
Bin ary
z zy
Ġass oc
Ġdist s
F D
x t
it ect
Ġbucket s
Down load
Ġlit tle
å ¼
In stall
Ġtrans actions
f ault
t ure
ta bs
import s
high light
Ġ\' %
Ġde cl
sub type
session s
KEY S
W ID
Ġar row
Ġy i
H as
N ull
ĠS tep
Ġimport lib
Ġmix ed
Ġth ird
al ty
Ġ_ ('
ĠI tem
Ġsen tences
now ledge
w p
ĠEx tra
cy cles
/ :
S imple
T ab
Ġt reated
Ġd om
Ġlist ing
ĠO Auth
pol ygon
Ġtransform er
Ġvol tage
p itch
ex us
ĠIn ternal
F older
ME TA
dis card
s ilent
Ġ# ##
Ġ" &
") ):
ĠL ength
By te
C LO
Ġsh uffle
Ar n
rot ate
config ured
Ġpack ed
h p
pa ired
Ġmo lecule
li ms
get value
ĠM issing
DO WN
] `
mple ments
Ġcal ibration
Ġreport s
ĠEng ine
mo ot
mod name
pk gs
resid ual
Ġo mega
G it
f old
ĠA uto
Ġtime series
cal led
en g
Ġy s
Ġref er
> .
en dian
ate ver
Ġun cer
Ġload s
w ire
il de
ll ite
Ġsc roll
Ġcent ers
Ġcustom er
cum sum
t an
t unnel
mon ic
Ġcons umed
E W
ĠSaltCloud SystemExit
Reg istry
Ġinterpre t
dro pout
b ond
Ġco okies
Ġag g
b n
=' ')
pk l
ĠOption s
Ġesca ped
4 7
per f
fo bj
Ġun signed
Read s
SU CCESS
Pro gress
indi vidual
Le ft
A IN
p ic
de crypt
ar se
(' ',
re ed
o ser
ne ur
Part ition
'] ).
ĠIn clude
Ġgener ating
org anization
ĠĠĠĠĠĠĠĠĠĠĠĠĠĠĠĠĠĠĠĠĠĠĠĠĠĠĠĠĠĠĠĠ ĠĠĠĠ
C UR
Ġs lope
hem ical
" ',
N ONE
é ĩ
Ġe fficient
clo sing
NAME S
Ġund ers
Ġoptim ize
Ġbel ongs
Ġlc dict
q dm
z h
Ġdis crete
Ð ½
ĠM odule
{} .
Ġdest roy
weight ed
ate llite
Ġ{ %
Ġsub classes
Ġcomp iler
i ri
Ġpo sterior
{} \
iter tools
ens ities
F in
Ġ utf
cal endar
ĠRed is
ĠF lask
bro ker
Y PE
Ġth ough
Ġcollect ed
ĠM O
ci al
auth ors
Ġ... ]
itor ies
Config ure
f allback
sp atial
ĠR el
Ġcont ig
M ultiple
d ummy
Ġc i
ot ropy
as sembly
mar ket
ä ¿
æ ī
Ġl hs
check er
let on
re cent
ag ents
Ġremo ves
Ġoverrid den
M AN
k o
Ġn m
ĠA ction
pay ment
is is
ĠR andom
LA GS
à ¸
ul se
Ġh int
ĠP andas
C ard
queue s
IN ST
be am
ced ure
f wd
Ġf ingerprint
ĠC alculates
Ġgener ators
Ġn ic
Ġinter mediate
O UTPUT
En code
Ġconcat en
] ].
e mu
li o
Ġlog its
, \
Ġf olders
Ġra d
MA IL
S ite
ĠP DF
Ġpre pend
h op
Ċ ĊĠĠĠĠĠĠĠĠĠĠĠĠĠĠĠĠĠĠĠĠĠĠĠĠĠĠĠ
he llo
con version
pro viders
ĠE mpty
tp l
av ig
Ġqu oted
An aly
Ġsk ipping
coordin ate
Ġn y
Ġint ro
DO C
autiful Soup
scri ber
cont ig
F ix
tick labels
Ġappe ars
ĠGraph QL
C DF
(' __
Ġover all
Ġth umbnail
) ].
G ot
h orizontal
oc cur
Ġint ensity
OR I
Ġver ification
vo x
Ġex clusive
lic ity
Ġrel ations
Ġ joint
Ġsc atter
Ġauth enticate
sla sh
D X
Ġhook s
C IM
Ex t
Ġ201 8
an di
Ġdf s
sca pe
de ad
Ġco effs
RE SS
Ġsup press
Ġnotification s
S ha
code c
clus ion
vol tage
ĠSalt InvocationError
Ġt aking
ĠP l
Se lection
ĠCo mple
Red irect
(" :")
ĠC lean
Ġline width
Ġsy stems
Group s
Temporary File
Ġf path
æ ł
ĠO b
Ġgra ins
over la
: **
ĠT H
con fidence
ĠN on
lip se
f requencies
{ "
block ing
hard ware
P AGE
w bem
Ġs g
Ġan no
is finite
ĠA li
Con ver
ĠH E
s un
read ing
multip ly
it ches
Ġy es
tra ffic
ular ity
report s
. ],
Ġres hape
LI MIT
Ġlower case
B EM
Q A
ar di
Ġe m
ĠE RR
pa use
ann ed
ĠQt Gui
pla ys
cmd s
cor pus
Ġt ell
=' \
log level
File Name
Ġsm art
Ġg ain
Ġ% }
auth entication
Re try
ĠS IG
Mo ve
Ġtor nado
Ġrender ing
N ET
lib vlc
ĠCa che
é Ĺ
Ġp tr
Ġopen ing
Ġtri ggered
Ġ2 2
Ġback wards
comb o
W IN
Ġel t
ĠF etch
cal ibration
Sign al
L P
string utils
SK IP
f rozen
Ġs it
qu oted
Ġplot ted
ĠPro tocol
D river
port ion
Den ied
e lect
Ġin structions
po re
al es
Ġg t
Re pository
ĠRe f
SET TING
Ġhelper s
ä» ¶
A rt
Ġme chanism
ip pet
af ka
S yn
l hs
r ates
ro me
om ic
ĠSet ting
UT C
("/ ")
alo gs
moot hed
C al
f lip
Ġpo licies
IN VALID
9 3
F ull
Ġy label
ph oto
Ġup stream
("" )
:` \
Ġdis card
Ġdistribution s
operation al
Ġf resh
() )))
ĠS O
ow ns
Ġwidget s
ch ast
h olders
Con v
ä¸ Ń
ĠNull Argument
de claration
fetch all
E mail
S yntaxError
l ator
ke s
ĠE nt
Ġ{} .
ab b
in vert
Ġa a
Ġj ava
Ġproduct s
Ġfit ting
Ġast roid
Ġpay ment
Ñ ģ
Ġc he
Ġp seudo
AT URE
Ġexec uting
d ent
Ġop code
DE F
G HT
U AGE
ps i
ĠCo unt
Ġcolor map
Ġc rit
ĠC orre
z ure
W H
k y
Ġt un
Ġf q
C ertificate
ax on
Ġbecome s
Ġd r
ps d
( {})
æ ŀ
Ġ0 0
Ġdi alect
Ġconfig urations
qui res
Ġreci pe
index ed
Ġloc ated
ĠL et
Ġstack level
expi red
= \
e mp
x large
Ġs ke
Ġw ater
Ġsc enario
a e
w as
ra mid
ĠV PC
sub s
ĠAc count
Ġs ong
ĠA LL
ĠP r
Ġsub s
Ġad j
Ġut c
Ġ â
am big
---- --+
Ġca pt
exp licit
f ingerprint
Ġs am
Ġm t
rel u
Ġc ritical
Ġpair wise
P N
vi e
Ġret code
ap alm
so up
vid ing
CON TENT
ĠWrit ten
s ink
Ġwa velength
Ġse ason
Ġclass ifier
Ġref s
PAT TERN
g ather
(' ;
:] ))
circ uit
ĠMo ve
l dap
Ġde letion
Ġversion changed
graph s
ĠUn known
Load ing
en ces
Ġmo ck
th umbnail
sh uffle
rel ations
head ing
diag onal
$ ",
] \
am i
DE N
find er
pub key
Ġfra c
iet f
Ġ' ='
set Text
ĠSt atus
C ategory
ĠFe ature
e very
Ġex ported
pre process
Ġcur ves
comp ression
cap ital
mm ing
Ġne ar
RE GI
Ġnetwork s
EV ENT
AS K
inspe ction
se ctor
il ation
Ġ !
or ient
id le
trans actions
Not ification
Ġear ly
ĠG aussian
struct ures
Ġsql ite
CLI ENT
m f
yp ot
Ġp ing
Ġw or
mod s
Ġlat tice
Ġaffect ed
: <
f ork
Ġc amera
Ġas k
second ary
x d
å ľ
Ġse ss
')) .
termin ate
language s
l ings
Ġt ip
de sired
ise s
Ġcol lector
ĠB it
work dir
ĠGener ator
ĠBy tes
network s
c rc
ĠS to
ĠP ort
ĠIn sert
zone s
Ġtransform s
Ġblack list
Ġc ategorical
ĠH ost
Ġup loaded
En coding
Ġreal m
' ")
Ġg aussian
Ġr d
Par ses
ĠSet ter
8 2
le gram
ĠF igure
A WS
ed u
I B
R M
Ġc type
mat erial
Ġstop s
ĠBo vy
fab ric
8 3
g ray
Ġcol l
Ġsub type
{} _
trans itions
let ters
Ġview s
O b
S F
Ġflatten ed
ĠA L
ĠH DF
ch ines
DO UT
Pri vate
Ġintern ally
Ġsy mbolic
Ġpartic le
Ġradi ans
LAB EL
h icle
ro ma
fo pen
ST REAM
TI VE
ĠApp end
å ¯
ĠF uture
ĠR ET
LO CAL
Ġcir cle
Ġmut ation
V ariant
ç Ľ
Ġ ĊĠĠĠĠĠĠĠĠĠĠĠĠĠĠĠĠĠĠĠ
in et
back ward
Ġc ube
Ġdo mains
Pro vider
Ab stract
Ter m
ĠOperation Failed
ate way
Ġex e
CON NE
CRE ATE
Ġfrozen set
al so
specimen s
ĠB ut
white list
1 99
e per
las hes
Ġfore cast
åŃ Ĺ
g w
Ġ ĊĠĠĠĠĠĠ
get item
ĠS D
Ġpur poses
c amera
æ Ŀ
Ġbe g
ĠS ite
ĠD raw
la zy
Ġlo cally
Ġinst itute
W h
u di
ss ian
Ġto uch
Ġg round
ĠF in
deploy ment
Q ual
Ġm n
6 3
L C
Ġg id
Ġlat ent
201 0
Ġtransp ose
ER T
freq s
A rea
po le
font size
I MAGE
i map
Ġfind ing
En vironment
æĺ ¯
Ġcomp osite
Ġnet loc
snapshot s
Struct ure
Ġint ended
tain s
ĠDo cker
in ventory
Ġp rom
pos ix
s altenv
is ation
Ġ\ "
find iter
E rr
Ġe vidence
ĠIn stall
inter sect
Ġtoken ize
Ġjoin ed
Bytes IO
MOD ULE
h du
Ġ', '
Ġob server
Ġiss uer
inter active
Ġsign ificant
:`~ .
Ġtermin ate
Ge ometry
Ġvox el
transform er
co lour
ĠG u
speci fication
/ *
9 2
u cli
at ively
Ġr t
tra ined
ab stract
Ġper ms
{ {
as pect
ms gs
Ġcomp uting
ORD ER
B inds
b d
at alog
op le
Ġca ption
ĠPar ses
qual ifier
ĠDef ine
+ ')
? \
G en
Ġo pp
Ġdirect ive
201 4
Ġhead ing
Ġl w
qu it
Ġcmd s
sha ke
st mts
Ġw ind
alpha bet
Ġcont rols
num er
Ġdesc end
Ax is
ĠT ree
ĠE valu
ĠOPTION AL
U UID
e th
ĠD NS
Ġobj s
iss ub
EN V
transform s
? )
Ġor ient
Ġ3 600
comp uted
alle li
um in
Ġl r
Ġde coding
ac curacy
Ġph rase
leg acy
Iter ator
Ġbro ken
Ut ils
ol ation
Ġu b
je ctions
imp act
Ġre ward
Process Error
Ġd m
et ime
d rive
ON T
wait ing
Re p
ob servations
Ġcond itional
ransp ort
L M
{} "
Ġtrans lated
Create d
Ġfn match
Ġol der
Cd lib
lf ile
Ġextra s
Sum mary
T ake
d pi
ĠC annot
f ort
x FF
Ġs mallest
Ġm illiseconds
Ġsign ing
Ġschedule d
all ery
r ating
'] ])
POR TED
C hain
g ca
t rees
{} ]
comb ined
cons istent
Ġbehavi our
F uture
Ġ& =
Ġtrunc ate
Ut il
Pub lic
(' $
Ġh i
Re mote
He ight
ĠRE ST
Ġen force
(" .",
RE NT
Ġinterpre ted
ĠĠĠĠĠĠĠĠĠĠĠĠĠĠĠĠ ĠĠĠĠĠĠĠĠĠ
ĠC OL
Event s
cons umed
ĠTh at
cor outine
ĠAss ign
UP DATE
wiki pedia
V ert
m st
Ġe mp
Ġr l
Sh k
res ample
Ġdetermin es
Exist s
ĠA fter
pol ar
Ġrecur sion
ĠDown load
W RI
De st
extra s
b old
ar ter
ch k
tra cker
Ġsub tract
201 7
cd lib
g al
Ġh ar
Re cs
b rain
clo sure
Ġfore ign
e ig
n ost
å ½
SS H
ane ous
Ġ2 8
In tegr
ve y
Ġ2 1
rs a
= ",
g uid
Ġp rt
Ġnot ation
sh if
F ilename
l ue
Ġse ctor
Ġregex p
us ic
Ġdist inct
App end
t weet
int en
Ġr up
Type Id
Ġthere fore
mark down
Py Cdlib
quis ition
r ng
Ġf ac
Ġd pi
un ix
start up
Ġ3 00
Ġpy cdlib
Ġmo ved
Ġorg an
pab ility
G ithub
ĠF low
Ġ", ".
counter s
w heel
ur lopen
=' /
æ ģ
ts v
full name
rep lic
Ġpycdlib exception
B LE
D T
at ern
Ġc e
with in
Ġgener ates
Ġapply ing
tor ch
od ata
ca ption
RE E
) [:
I con
Ter min
NUM BER
Ġaccept able
RA Y
v iz
Ġla m
corre lation
d types
l vl
ĠRe set
E MP
pro venance
ĠS hape
ĠIn t
manage d
Ġwhite list
Ġde crypt
Ġdef er
Ġ`` "
fa ke
Ġfunction ality
et ches
Ġra y
Ġoptim al
ertifi cates
ĠApp lication
r find
de precated
son g
ten ded
f ed
r g
ma s
Ġg aps
ĠP IL
tra verse
Ġargs pec
link ed
Ġclass name
handle d
Ġcomb inations
W rong
i am
(' `
__ ':
ĠO pt
spa wn
State ment
> {
ĠT CP
19 2
He aders
Met ric
c x
Ġres ample
Ġch anging
To o
ĠPro gram
attach ments
go v
add rs
Argument s
Ġf f
Ġc as
as m
iv ariate
Attribute Error
(' ~
O ff
f ar
s ke
Ġo sp
lo sses
h g
st ype
ot ing
FI L
- ',
] ._
Ġf ft
ĠMe as
İ ·
Con f
T F
ĠJ ava
her ited
exp anded
B ot
q te
Ex port
be led
pr inter
lips is
) ()
e lapsed
p added
ĠS ize
request er
ĠZ ero
Ġyear s
di strict
Ġx label
Ġuser id
ĠQ A
fla sk
m aries
ro i
pre sence
ĠJ ust
Ġep isode
re gs
new line
Ġdiffe rences
product s
e ast
x fer
ĠS yntaxError
ĠRead s
r dd
Ġc x
('- ',
Ġhow ever
F N
Ġdef erred
Ġpercent ile
di vide
ĠP ID
Per mission
it ers
Ġ== ========
pre ferred
ĠN x
(( -
Ġda ily
Ġeas y
Ġpa gin
B ody
k n
y ml
Re set
Ġrandom ly
onom y
Ġpa g
=' .
min us
Ġrun as
Ġdetect or
Ġm c
Ġ# ################################
Ġcon j
ve ct
Ġcons ume
in voke
se ason
on to
par sing
De tails
sa mpler
in ity
"] ),
RE L
color bar
Sh ort
æģ ¯
" ^
In v
ĠB inary
Ġappro ach
Ġc trl
ĠDi rectory
ĠSy mbol
v min
Ġre pl
un s
Ġpro xies
Ġsuc ceed
ĠMet adata
ĠND Array
- '
stop ped
201 6
æľ ī
Ġf o
ign ored
corre ction
arc sec
O PEN
Ġ Keep
in struction
Ġsa f
V A
w ater
Ġs he
Ġd rive
os a
7 55
Ġ' '),
ĠS Frame
ĠD I
ĠMed ia
ist ant
ca ps
Ġmatch er
sc r
IN PUT
Ġsp ans
comm unity
std dev
Ġmiddle ware
p rom
Ð¾ Ð
Dep end
k ers
Ġin ject
Ġde claration
Ġcheck er
}" '.
Ġsing ular
DE SCRI
Ġcolor bar
B S
c ron
di p
th at
Ġh df
ĠF rame
ĠP ut
default dict
Ġtri angle
CON T
E K
r ms
ann o
Check ing
sql ite
d ll
g aussian
å ĩ
SE C
Ġsome times
Ġt rees
Ġa ir
)) ),
ĠSe q
TRI BU
Ġf id
lo ok
Ġbase line
Ġvi m
] |
ĠS V
ĠF OR
ĠM AV
Ġk eras
Ġtw ice
Ġsepar ators
Ġp od
sample d
tmp dir
Read ing
L F
d w
de lim
Ġd n
pos al
Ġexp ansion
Ġst able
Ġj id
Ġper iodic
ib lings
Ġpk gs
Ġmig ration
sp ans
Ġun supported
ĠW hat
Ġinitial izer
33 33
LANG UAGE
Ġfile type
url parse
ĠR ow
err s
Object s
ĠTh read
ĠS ame
ĠF lag
Ġen dian
Ġeffect s
('_ ')
ĠElement Tree
Pol y
B us
ur ses
Ġin ds
Ġm or
ON G
lon s
itect ure
ow el
Ġindex er
ĠSe ction
ĠEn try
Ġanaly ses
Ġi mt
Ġal g
red u
Ġca mpaign
are r
Ġ201 7
de cay
Ġ' ['
De bug
Add ing
d k
h ib
ar ct
Ġun defined
bs ite
Ġass uming
Ġseq s
Ġsec ure
Ġl vl
Ġun changed
Con struct
iss on
Ġrect angle
Ġg c
Ġdi ffer
Ġset ter
ld p
Ġflux es
Ġpeak s
Dec orator
ĠB ig
cent ric
si mp
Ġhash er
UNK NOWN
D ump
user id
ME T
az imuth
ĠCol lection
Ada pter
, (
y r
Ġm l
Ġ" :"
Ġr ing
po sterior
RE SP
Sk ipping
Ġcomplet ely
? ',
F unce
[ %
b z
c redential
is null
Re place
FIEL DS
ĠERR OR
Funce ble
Ġse mi
x axis
pe ed
Ġcon venience
ĠD ynam
}) '.
Ġc rc
(( (
Ġtest ed
REC ASE
C RI
Ġcon secutive
Ġal go
Ġq ry
Ġfull name
FF ER
Ġutil ity
in str
age s
Ġchunk size
Ġgo es
cer ts
Ġpot entially
j ax
in ate
ur able
ul lable
SE PAR
N U
p u
Ġp v
Ġd types
Ġlock ed
Ġ" $
Ġco erce
comp act
flow s
g greg
de an
ĠV is
ĠB Y
inten ance
æ İ
mp p
Ġst udy
Ġpla ces
SER VICE
V S
u df
Ġqu it
ĠComp utes
Ġworks heet
C allable
p atches
v g
ch ip
Ġh op
circ le
Ġre ject
ĠC A
Ġtx n
Run time
track s
st udy
order ing
TER S
t ions
Ex pi
Ġ'' }
Pri ce
" %(
auth enticate
Ch unk
Method s
ĠBe autifulSoup
; \
C ancel
vi rt
Ġshould n
Ġsen ds
Ġde tailed
Ċĉĉ ĠĠĠ
ched ul
ucli dean
P ACK
Error s
Ġle arn
Ġsub plot
LA ST
T M
Ġo dd
Ġw f
Re gex
ĠS tack
ĠM ultiple
ĊĠĠĠĠĠĠĠĠĠĠĠĠĠĠĠĠĠĠĠĠĠĠĠĠĠĠĠĠĠĠĠĠĠĠĠĠĠĠĠĠĠĠĠĠĠĠĠĠĠĠĠĠ ĠĠĠĠĠĠĠĠ
Ġsnapshot s
Ġre main
ĠRe mote
Ġlog file
Ġfail ures
d ashboard
y axis
Ġp sd
ir th
Ġdraw n
jac ent
Ġens ures
D AT
a co
Ġch ip
Ġparser s
Ġmodifi er
Ġpmag plotlib
C redentials
de cess
Ġas sembly
gra ds
av en
org an
Ġproto buf
week day
S cale
h h
ĊĠĠĠĠĠĠĠĠĠĠĠĠĠĠĠĠĠĠĠĠĠĠĠĠĠĠĠĠĠĠĠĠĠĠĠĠĠĠĠĠĠĠĠĠĠĠĠĠĠĠĠĠ ĠĠĠĠĠĠĠĠĠ
Ġpacket s
= {}'.
s z
Ġc k
co uld
base dir
case s
pur pose
I gn
Ġd h
ĠN et
ĠM ongo
Ġun ix
Ġtr uth
Ġplace d
}- {
Ġf ine
Ġd u
Ġinter cept
IGNO RECASE
b id
Ġ1 0000
Ġg iving
text s
Ġwh atever
ĠSE LECT
L ines
c ube
Ġm time
ĠSpeci al
b rid
er ing
save fig
Record s
Ġconver ting
="" ):
Ġdro pout
P ING
li bs
Ġne ither
Ġconnect ing
Med ia
R oute
] ==
il led
ĠN S
FI ER
rupt ed
middle ware
a ys
w ildcard
Ġsplit ted
vide s
S ingle
un link
En able
imp licit
G EN
Ġto po
Ġx x
Ġvalid ity
W R
r ink
Ġa io
Ġof ten
Ġrel path
w it
ma gn
ĠCon tainer
tensor s
Ġrep lic
Ġde lim
Ġk not
ĠS ET
ist ed
mo lecule
cal ib
token ize
short cut
C y
C lean
S ync
h uman
Ġin ventory
handle s
gener ation
h ar
Ġa f
Re quire
ir cuit
blue print
Ġke pt
0 33
tr unk
Ġat tack
âĢ Ļ
buff ers
me ter
ĠT YPE
qual ified
P ress
te ctions
Ġ} }
Set up
Ġprefix ed
L anguage
ç ¬
Ġcon sensus
H z
Ġserial ization
expi re
Ġe tag
Ġpri mitive
sym link
expi ration
c as
ĠE stim
Ġcomp ared
('- ')
Ġcy cles
IST ORY
Ġblue print
F ra
ĠJ son
env s
typ ing
P ick
t un
. {
a ir
k args
Ġt pl
Ġs un
Ġinsert ion
Ġinterpol ate
to c
Ġco mes
der ived
annot ate
mask s
Ġreport ed
PRO CESS
Ġatom ic
Ġm arginal
data center
Ġle ader
Ġscal es
Ġph oto
schema s
bra cket
H ook
Ġp x
ĠSet up
Ġtri ggers
Ġmark down
Ġpol ar
ĠV olume
w f
al n
bo ost
ab breviation
cle ot
m ing
Ġst roke
ĠT HE
Ġpass phrase
Ġmain tain
regex p
gap ic
ë ĭ
Ġc ron
De termine
Ġf t
up d
for um
clar ations
Ġhard ware
ID E
En v
Ġdecor ate
Ġloop s
}\ '
+ =
] _
Ġre cogn
Re lease
ĠPol y
T U
Ġ[] ))
ĠU P
ick ness
Class Type
H H
roll ers
RA W
Ġtile s
< =
ĠFor ce
" },
i co
Con sts
Ġman ual
Invalid Argument
İ· åıĸ
con sensus
Ġal bum
EN ABLE
Ġtitle s
Ġinterpre ter
C N
T rain
Ġre cognized
ĠS Q
ĠF AST
Ġtrans itions
FA I
ĠParse Error
Ġinstanti ate
6 2
C enter
s wap
Ġb urn
Ġw heel
as n
ĠA zure
class ifier
ĠB asic
"] ):
ON SE
BY TES
anis otropy
Ġd ense
pro vided
{} :
Gener ates
ĠSign al
chast ic
S cope
---- -
dis p
ass oc
ens ive
pre ad
Ġwe bsocket
Ġno inspection
pop ulate
gu ide
Ġ ĊĊĠĠĠ
ar win
Ġat ol
Ġqueue s
Ġpla intext
Ġ[- ]
t umor
Re stricted
Ġhe ap
fetch one
st re
Ġn rows
Re ply
ĠC lear
Ġmark up
s as
or bit
Ġb ands
get size
Ġref lect
Uni code
Ġregard less
Ġper f
I mp
par agraph
Ġin str
ĠL C
Ġchar ge
Pol ygon
pro f
As set
plan ation
Ġtz info
Ġeas ier
al bum
vi ations
Ġtime d
QU ERY
notification s
B A
ĠS um
Valid ation
ĠD es
tra js
diff s
e tag
t mpl
¦ Ĥ
ĠD ATA
`` ).
Ġcode c
:] ):
B L
S core
w ill
Ġcalcul ating
Hel p
L ong
å Į
Ġs z
ĠT op
ven io
ä¸ į
6 1
C ase
x max
se gs
Count s
r hs
v network
file system
pa che
)""" ,
ĠPermission Denied
col lector
ĠB atch
da ily
bro sa
Ġ"- "
ĠMan age
Ġt l
st ick
ke h
mo ck
fe e
Ġpri v
ĠPro file
Ġsym link
Ġoccur rences
Ġpr incipal
ims how
pas sed
SCHE MA
Ġcont ra
Lib rary
ĠFa iled
it o
is class
Ġ" \\
Ġ2 000
AD ATA
atern ion
A tom
lit let
Ġsub mitted
Ġany way
Not Set
ĠComp onent
mi rror
Ġcluster ing
Ġb io
Ġpro ceed
mat mul
Ġli brosa
ĠLoad s
Rel ation
D ER
y ellow
ur is
Ġst udent
ol ves
Ġgra de
pl ate
hex lify
z mq
Ġor th
min s
Ġ'- ':
FAI LED
ĠS trip
py pi
extra ctor
UN I
fir med
= .
D istribution
â ĸ
Ġ ĊĊĠĠĠĠĠĠĠ
Ġ âĢ
Ġp atches
ve cs
Ġres ume
ĠH y
Ġfl uid
S ome
Ġre view
ĠG en
Ġgra mmar
t len
Ġ' ):
ĠS ingle
Up load
De cimal
ĠOption ally
sur f
subscription s
8 1
re ward
ex clusive
(' |
Ġblock size
TER M
ĠMag Rec
C alcul
P D
ut ors
ci p
E valu
R DF
s is
ad m
fore ign
Process or
ĠW S
Pro duct
Ġconstruct ed
Ġsmooth ing
P K
in table
Ġcontext s
Ġsee k
manage ment
n k
Ġn cols
Ġali ve
al one
Ġ` _
SE D
pass wd
enum s
stra ined
ĠCol lect
SER T
col l
ON LY
IN DEX
du cer
Ġlimit ed
sn r
Ġconsist ency
w arm
ĠF ound
h r
se cho
ĠT urn
---- -+
Ġmin im
real m
Ġam ong
s quared
la in
MA G
normal ization
ph en
ab f
gra mmar
temp dir
ome tric
Ġear lier
Serial izer
mime type
jector ies
ĠM D
wa velength
PO SI
ĠHe ader
æķ° æį®
] })
å °
ĠP mag
ĠG PU
Ġbind ings
ĠNum Py
C lear
re view
Ġle aves
Ġauthor ized
? "
P acket
in cluded
le aves
Ġcred s
R ight
ut ter
Ġver ified
Ġtrunc ated
c ub
x FFFF
Ġo t
... "
Ġwant ed
col on
Ġpa per
Ġslot s
er c
ur ic
Ġse mant
Ġsub parsers
Con stants
match er
])) ,
Ġdirect ed
ĠLo okup
pher ical
s lope
t ier
Ċ ĊĠĠĠĠĠĠĠĠ
Ġ` .
ou ch
F ROM
p st
py c
AT TRIBU
ĠPar ser
56 78
æŀ ľ
a bove
* '
q m
ul ls
Ġcon struction
ĠS cale
Ġk appa
Ġst ra
Ġprint s
Ġstart up
ĠUse ful
Ġmultip lier
Ġxy z
Ġthrow n
pie ces
Ġfi rm
Ġte ch
RE T
5 1
ĠSe curity
Ċĉĉĉĉĉ ĉĉ
y min
Ġw cs
to uch
date d
Ġgroup ing
Ġsearch ing
F ACT
Ġm pl
Ġtra de
Ġperform ing
ĠTra ceback
treat ment
L ife
cal ing
Ġ"" ).
Ġ201 4
s uggest
che m
** :
Cond ition
: (
me mo
Ġf m
sign ing
ĠSt andard
direct ed
('_ ',
charact ers
ĠL inux
Ġtext s
dis crete
L a
R ST
Ġ lf
und ant
__ '
Ġpre fer
Ġmax iter
Ġca uses
Ġmin imal
face t
N aN
Ġdire ctions
Ġad v
Ġannot ated
Bo ol
ipy thon
Ġance stor
Ġf out
Content s
WRI TE
S W
Di ff
close st
F L
Ġi ps
Ġlib spice
fin ity
Per iod
MENT S
YANG DynClass
as ses
ĠF ast
ĠM ain
ĠO P
Ġj ar
={} ".
Ġcir cular
E MAIL
g ps
Ġ' |
Ġhas hed
serv able
Ġrespon d
Restricted ClassType
j pg
cont iguous
final ize
ĠHandle s
Ġrespect ive
Github Object
tra de
ĠQ gs
stanti ate
I ABLE
Ġf ld
ĠP os
pd ating
Ġbutton s
coeffici ents
p ho
ree ment
decode d
IO Error
ĠL ambda
ĠW arning
ĊĠĠĠĠĠĠĠĠĠĠĠĠ ĊĊĠĠĠ
ri e
Ġ{} '
g le
Ġd up
ĠP e
Ex pect
na ke
Ġseparate ly
,, ,,
In f
IN SERT
Met rics
SEPAR ATOR
Ġwant s
C alculates
I SO
Ġf ault
Ġb rain
qu ential
Ġra ising
Ġal arm
%% %%
interpol ate
i ff
Ġtra j
lon gest
Ġreci pients
Ġdistrib uted
G G
Ġin clusive
es h
ps f
ca pabilities
Ġaz imuth
e igen
as semble
Ġgraph s
ĠIN PUT
Max imum
b last
IN E
([ -
vis ibility
writer ow
Ġvocab ulary
Ġlo st
Ġpath name
Ġfin ite
Ġalt itude
C or
M IP
x f
z ation
in voice
li der
dis covery
Pro p
trans lations
11 1
ĠAc cept
Ġc aching
') ])
ĠEx pression
Ġper mutation
TI CAL
}' ".
E stim
W rap
Ġh unt
ĠEx pected
... '
Ġdrop ped
Tra ce
Ġspa wn
he ap
:` <
ug ate
exp lo
86 01
` """
d on
ĠT ab
Ġimpro ve
/ ')
M ore
j k
ĠC luster
Con sole
ĠIn it
Ġstat istic
Ġpur pose
ar b
Ġf ut
List Type
ve locity
writ el
require ment
Ġcopi es
to string
Ġu int
__ ):
Ġreg isters
Ġauth ors
Ġsubject s
END POINT
Act ivity
ĠRO OT
; "
b w
ĠĠĠĠĠĠĠĠ ĊĠĠĠĠĠĠĠ
Ġb ridge
Ġh gnc
Ġ` {
ĠV ER
ĠM UST
fit ness
M aster
e vidence
h am
v p
Ġf etched
Ġ_ (
ĠF loat
ĠThe y
> %
] ][
ch ive
back ends
ĠName space
Ġconv olution
b az
d as
over all
Ġwidth s
tile s
mat ic
arg min
Gener ic
` ")
as afe
fe ats
Ġdis covery
Se gments
('/ '):
ĠUni que
COMM AND
N ORM
i q
sp ot
Ġenum s
sel ves
k appa
al ready
Ġl m
Ġh p
ĠV irtual
Ġ'_ ')
Ġlex er
E l
xim al
Ang le
FUN CTION
RESP ONSE
" ')
. -
a wait
g ates
Ġg ather
Ġj ac
Ġph ot
Ġcre ator
O G
ab i
Ġpoint ing
Ġ12 3
in ject
is q
ten s
Ġtr ust
C AP
S ING
Ġw ish
Ġh olding
Ġg al
max size
inter cept
man ent
d get
p ment
Ġfla sh
ĠPy Funceble
Ġcomm unic
i ator
in herit
ĠL ib
sub class
duce d
c ategorical
st ers
Ġh olds
00 01
By Name
FILE S
Ġtrack ing
ĠS park
sc enario
Ġsla sh
replace ment
alle les
l ng
en ses
im ate
ĠL D
AL T
AD DR
dev ops
> '.
j inja
re actions
red ge
Ġso und
{ :
Ġnew er
AR G
Ġtrip le
éĹ ´
F n
L at
v otes
it ivity
un defined
ĠP DB
ag in
fil led
ĠData base
spect rum
Ġperform s
Ġmi rror
WID TH
' [
Ġin finite
Cur ve
FLA G
pex pect
B reak
Ġco eff
Ġpro bs
ĠF LAGS
bu ses
pla cing
]] ]
Ġ6 55
bl k
Vis ible
Ġfirm ware
Ġst im
ĠI F
Ġ{} }
ret ch
reduce d
Ġtar file
5 7
c itation
Ġsub dir
Ġcomp utes
Ġsu bj
Ġ$ {
Ġden om
b ust
d bs
w k
Ġst em
process ors
V O
ST O
Ġdis connect
ĊĠĠĠĠĠĠĠĠĠĠĠĠĠĠĠĠĠĠĠĠĠĠĠĠĠĠĠĠĠĠĠĠĠĠĠĠĠĠĠĠĠĠĠĠĠĠĠĠĠĠĠĠ ĠĠĠĠĠĠĠĠĠĠ
CON F
ĠTrans fer
Ver ify
A IL
d raft
Ġh ot
et y
Ġnorm ally
drop na
ĠSh ort
A Y
P UB
d na
tag ged
sup p
FA IL
Config Parser
Ġ'{} '.
O IN
T ASK
ing u
ort ed
ĠS M
pa gin
min ions
ĠFile NotFoundError
Ġcor r
b ash
x data
dir path
ĠRun s
M achine
è ´
in structions
re index
id en
ĠĠĠĠĠĠĠĠĠĠĠĠĠĠĠĠ ĠĠĠĠĠĠĠĠĠĠĠĠĠĠ
ĠEn able
Ġms gs
be ats
ĠHTTP Error
IP v
PARE N
h param
} </
ĠP open
Ġdraw ing
t bl
Ġt y
per mutation
ers on
ĠREQU IRED
[ ]
e a
ĠR ender
act er
De pth
document s
modifi ers
Ġd ashboard
di alect
seq id
ĠMe ta
ĠProper ty
+ )\
X ml
Ġin complete
Ġv rf
Message Box
Ġattach ments
Ġactiv ate
Ġsol ar
æĪ Ĳ
pie ce
B AD
Ġ' ^
ĠC ase
Ġenum eration
reci pient
Ġ" @
Ġpre pared
Ġmin ions
multi part
ĠMin imum
similar ity
uric reate
v env
¦ ģ
Ġw rapping
pp ers
fo lio
Ġen semble
iter values
dispatch er
ur o
ST DOUT
lat in
pub lication
Fe atures
Ġsn mp
Ġthresh olds
t ight
ĠDe termines
A MP
Ġport al
Ġconnect ivity
An notation
represent ation
PASS WORD
] .__
v endor
ad ir
Ġor m
OR S
post s
serv ing
m ble
Ġb rightness
Ġ( *
Ġ( ))
Ġr ates
ĠS I
Ġun set
==== =
Ed ge
Bo olean
ind x
cor o
dat um
accept ed
Ġri sk
ĠT r
Ġsc r
BU FFER
hes is
Ori gin
LOB AL
se crets
base line
Ġover written
Ġ"% (
Ġrec v
ĠUnicode DecodeError
lux es
N EL
T L
v t
Ġb isect
per iodic
fn match
Ġcorrect ed
sn ps
Ġord ers
ĠMeas Rec
g file
l w
on line
ph as
ast ropy
h old
Ġi b
Ġgra dients
Ġmonth s
Ġpublish er
Ge o
a ref
g m
Ġpag ination
Ġle ad
ĠCO M
RES ULT
sub parsers
Ġsp ot
Ġerr s
Work er
Ġg uest
month s
Ġinstall ation
Ġps util
b ag
Ġwe ather
ĠW ord
---------------- ------------
Mo difi
Ġ4 01
Dis patch
Line ar
capital ize
> ",
st ored
Ġr p
__ ']
we ak
Ġpy lab
(_ ('
shard s
arct an
ä ¹
Ġon set
ĠRe port
ide o
stat uses
Ġexpect ation
Ġbuff ers
war ded
Ġresidual s
Ġprece dence
Ġf type
utom ation
Ġkw ds
ony m
Ġl dap
Re al
Ġr val
Ġt id
Ġst oring
ĠG tk
test ing
Ġconver gence
Act iv
sla ve
Ġpro viding
ĠF ull
Ġ'/ ':
16 8
sv c
Fe ed
v ault
Al ready
i lo
Ġf riendly
ĠT otal
ĠĠĠĠĠĠĠĠĠĠĠĠĠĠĠĠ ĠĠĠĠĠĠĠĠĠĠ
Hist ory
Zip File
) [:,
Ã ¡
sp ike
int ro
ĠW rap
gra dients
st udent
Ġpro viders
trans it
cor ner
Ġlib xml
QU E
Ġ"_ "
r pm
ag ers
Ġsub domain
Ġtrans lations
cent roid
Ġreplace ments
Ġtermin ated
Ġdec ision
Ġenter prise
Mon th
Ġoverla pping
asyn cio
' %(
d ri
Ġa cl
St d
To Char
At tach
ense mble
tlen e
T CP
w ers
Ġf obj
Ġpro cedure
Ġcol lapse
tx n
fra g
Ġreason s
Ġmeas ured
s he
ĠT w
path name
wa v
Ġreg ression
Ġroot s
G T
g rouped
re pl
Ġt mpl
Ġw eld
th an
vi a
ĠRe quires
ps a
] ;
list ing
tr uth
url lib
Ġextra ction
De v
Ġign oring
('= ')
4 1
py wbem
ĠR ange
Con straint
Ġpos ix
Ġqual ified
listen ers
r na
Ġe gg
pre ference
pred s
Ġanaly ze
Ċĉĉĉĉĉ ĉ
Ġin cl
ĠC or
ĠM E
Ġmask s
Over lay
Ġgp u
h gnc
Ġ: ],
Ġg f
Ġlo sses
ĠE mail
Un its
contin uous
Ġestim ation
P lace
Ġassoci ation
ATION S
f utures
Ġsub command
ĠNO QA
Ġvirtual env
ĠNormal ize
is abs
Ġh ub
und les
oc c
---------------- --------
Over ride
ĠSystem Exit
ä¿ ¡
Ġb on
Ġy lim
Ġnew lines
Ġcomm unity
PO INTER
cum ulative
W hen
Ġ( {}
Ġpro of
PROTO COL
F ill
Ġde cay
pro of
Ġvis itor
sid er
MODE L
se x
"" ,
Ġc sr
Ġint ent
Ġrecord ing
roll back
Ġsto ck
Ġsto pping
Ġal located
direct ive
Th reshold
expression s
e lastic
Ġt ier
Ġas sessment
Ġexp lo
Serial ize
ct r
Ġs anit
ro per
Ġb last
tra jectory
Con stant
has attr
math bf
Ġindic ated
9999 9999
z illa
Ġo mit
[' --
Ġv ary
Ġmanage ment
W atch
b ers
er ry
ro s
Ġan ts
Ġ( ?
get argspec
ĠS TR
ĠP ay
Ġfunction al
Ġad jacency
ĠHe at
C l
j wt
id ity
Ġpro pag
([ ],
cache dir
12 0
) ``.
C ATE
O O
d temp
j vm
ĺ ì
Ġp res
ĠDec orator
M ARK
pro blems
scri bed
Ġfind er
Ġblob xfer
ĠSH A
+ (
å Ĩ
el ded
Ġexp ressed
Ġoccur rence
Ġrep lica
PY THON
Ġn om
Ġh d
Ġtrans it
subject s
a con
g tf
Ġpath lib
reg isters
Ġsplit ting
ND Array
ĠBe cause
aff ine
ĠAttemp t
re ction
data s
np ack
Ġframe work
roll ing
ĠPer forms
Ġp wd
gin es
year s
As ync
soft max
Ġconflict s
] **
Ġth umb
ĠP ackage
Par sing
RI GHT
! ='
ĠA T
ĠC SS
Ġpar a
op ing
Ġartifact s
] [:
c ity
t urb
Ġph enotype
Ġapplication s
aref luxes
in ing
Ġt iming
st ations
Ġd bs
line sep
Ġpub lication
Ġremo val
au ge
Per cent
Ġsimp li
ĠWh ich
. ))
S napshot
] _.
Ġh s
Ġth er
ĠĠĠĠĠĠĠĠĠĠĠĠĠĠĠĠ ĠĠĠĠĠĠĠĠĠĠĠĠ
Ġ'% (
ĠUn it
Ġapproxim ation
a ug
ĠW rapper
Ġcalcul ations
Ġsyn chron
Ġincre asing
DA Y
pert ure
upt ools
in cr
Ġf coe
Ġd uplicated
cur ate
Ġtag ged
ĠCo uld
fail ures
w ide
re served
Ġb id
Ġ{' $
Ġhead s
Al gorithm
NE W
Ġinter action
float ing
fore cast
BU ILD
desc r
Ġdot ted
è¡ Į
Ġt k
Ġm ention
un wrap
Ġh mac
ĠD imension
block size
trans formed
ili ary
Label s
at ypes
tra cer
AL LOW
ĊĠĠĠĠĠĠĠĠĠĠĠĠĠĠĠĠĠĠĠĠĠĠĠĠĠĠĠĠĠĠĠĠĠĠĠĠĠĠĠĠĠĠĠĠĠĠĠĠĠĠĠĠ ĠĠĠĠĠĠĠĠĠĠĠ
Ġforce d
Ġequal s
('/') [-
è¡ ¨
w v
æ Ķ
in cluding
Ġm ongo
ad v
th umb
bar s
Ġepoch s
contact s
Ġex ceeded
ĠO UTPUT
pack ed
position al
Ġcomb o
ĠClo se
ĠSup port
D one
s anitize
Ġ[]) .
Ġtyp ically
Ġrep lication
Ġenviron ments
b tn
m ate
n rows
ST EM
group dict
be low
We ight
T ransport
ma cs
ĠA vailable
ĠW here
ĠH ISTORY
dis ks
are as
Ġview er
document ation
reci pe
cid r
trunc ate
Ġprodu ces
_ {}'.
å ¾
Ġs anity
U D
ĠD AG
Ġle d
** *
? ')
b es
de scriptors
le ader
ĠM at
Ġsim ulated
in y
Ġst ub
---- ---+
pa ren
desc end
Ġface t
nv ml
S m
Ġ' "'
Ġl max
ĠM AC
ĠL V
RE SET
(* [
Di stance
ĊĠĠĠĠĠĠĠĠĠĠĠĠĠĠĠĠĠĠĠĠĠĠĠĠĠĠĠĠĠĠĠĠĠĠĠĠĠĠĠĠĠĠĠĠĠĠĠĠĠĠĠĠ ĠĠĠĠĠĠĠĠĠĠĠĠ
Ġspect ral
en velope
ĠT ABLE
Re trieves
Ġdi vide
pi o
ds a
rep lica
CF G
schedule d
h ance
â ķ
{} '
man ual
effect ive
Ġkm ip
thro at
Ġf names
Ġs moothed
Ġtype d
ste md
row se
SE CON
ĠSe cond
ĠValid ation
CRE T
ĠAB C
c ats
q c
ł ģ
Ġle ase
spa rent
(_ ("
cov ariance
Ġsuc ceeded
Ġcomp ose
cent ration
sm art
Child ren
re connect
Ġs x
Ġd ynam
ĠSo ft
Ġev t
ĠHE AD
t ics
Ġn aming
mp s
Ġvalid ators
Ġsp here
AR GET
cor ded
ĠS tri
ĠRe trieves
NAME SPACE
Ġassoci ate
Ġhy d
Su ch
le ave
un signed
Ġl p
ĠC y
Ġlen s
Ġhas n
item getter
Ġman ip
include s
Ġquad ratic
H igh
S upported
ub y
bs olute
PI O
Ġport ion
LA l
Ġannot ate
ä¸Ģ ä¸ª
F it
J OB
Ġcon current
ĠC allback
ca mpaign
Ġ`` .
pri mitive
C V
Ġt qdm
he artbeat
Ġn orth
ut ron
Ġth ink
serial ization
Ne ed
æĪ ·
Ġde serialized
ĠF ail
Ġ{} "
arg ins
ĠCo mb
ĠAn alysis
cb c
Su bject
Ġf old
Ġ== ================================
file Name
ĠA D
ĠR ES
Ġshow s
Comm it
D iv
ch mod
ĠN umpy
sh p
sub tract
Check ed
fra gs
åı ¯
Ġaltern ate
Back end
7 1
re aded
Ġde leting
ĠO ri
IG HT
Ġsign atures
AC CESS
" })
= (),
it ors
Ġj c
Ġz ones
amp litude
Ġintegr al
LAl chemy
B V
int ensity
and box
DE L
Ġlib raries
e ven
ra s
ĠP RE
AR M
pl ural
Add r
Lo ok
sl t
car ded
ct ure
all close
Ġpro vision
Ġsy llable
Ġscal ars
Elements By
T C
Ġch k
byte array
R ot
in ference
Ġs ca
ĠD X
Ġpa use
Ġwe ak
ĠRa w
tlene ck
S aml
b alancer
Ġbuild s
ç łģ
ar ith
Ġre duction
pro cs
Ġpre ference
Ġli quid
Ġden ominator
r ated
me tri
he at
pre sen
ĠH ist
Ġtra verse
Ġcent ral
ĠINT O
ĠBytes IO
w id
ĠC AS
cre ator
Ġplace ment
h ints
set attr
Ġpa inter
ĠR ule
Ġfit ted
Pre di
" +
D ist
P ower
d g
i ous
Ġt cp
ĠU I
full path
Ġassign ments
Ġmot or
d os
Ġextra ctor
Ġdat um
Speci fication
Ġ é
Ġp rune
fla sh
S kip
in ates
Ġl ng
ĠM ult
To ols
d ark
h unt
y ou
Ġdi ameter
Ġpre f
Ġprint ing
ToChar P
n as
s x
py lint
lat s
gen us
Ġaccess ible
Ġpartic ipant
ĠInter val
Ġadjust ed
b t
r atios
Ġi e
Ġx lim
Ġdiff s
Ġps f
Ġsv c
A vailable
Ġpro venance
Ġ2 6
ĠV i
Ġ`` _
Ġ[] }
string ToCharP
cur ves
G PS
Ġs park
one y
ĠB E
RE MO
ose Version
zone file
Ġexclude s
Ed itor
ĠEl se
C re
Ġ1 99
ĠG rid
ne cessary
ST OR
LE FT
Ġ`{} `
S G
p res
qu ota
op code
Ġpop ulated
L ambda
Ġj inja
Ġbase integer
Co okie
ĠCon s
fast access
Ġpers istent
Red is
RUN N
. '))
Ġw all
Ġas n
ener gies
SI TE
sto res
' (
) ^
N s
S te
valid ators
ĠR o
Ġid le
sy stems
Ġkw s
Ġstride s
M X
j u
Ġs weep
Ġr type
ĠC R
ĠV CF
Ġurl join
EX IST
flux es
detect or
Ġrespon s
ctrl pts
Ġcontrib ution
MET ADATA
p ca
Ġ' ~
Ġde que
file Store
Ġpre view
Ġback ends
}) ".
ĠTrans action
HEADER S
Pro blem
Ġfunc s
gen otype
dist inct
Ġsegment ation
66 66
y ond
se mi
Pa ir
d rag
Ġproject ed
(", ")
Ġ Keys
Ġc itation
)) ])
pro xies
ĠU t
chrom osome
coef s
ĠSim ilar
ĠPri vate
mig ration
________ ________
Ġc ance
"] ],
Ġsingle ton
Ġdb us
ker as
MAT CH
n py
| |
ad jacency
Ġr g
In formation
Ġest ab
publish er
æĸĩ ä»¶
_ *
h c
modifi er
FIL TER
F FIX
se ll
ce x
Ġst mts
Ġv oid
ĠR ole
mat rices
Ġpri vile
ĠName Error
Valid ator
assign ments
w ant
} ;
ĠWrit es
ĠEnt ity
f ld
Ġread line
do f
Ġvar name
CH ANGE
oriz on
> /
E nsure
F R
ver ified
Ġr sp
ĠD ES
ĠM V
CE PTION
IG N
S chedule
Ġa ugment
ur lencode
Ġ4 5
Ġpl ate
ret ty
Ali as
Admin Session
755 4
Ġg ray
ĠS Y
Ġ` (
Ġal ter
sub dir
Ġcomm its
embed ded
Ġmodifi ers
= <
e Life
k not
x ls
re rs
Ġpro pagate
Ġpre p
ĠCh ar
ĠFind s
C orre
pers ist
Timeout Error
Ġalle les
Ġaz ure
co erce
Ġ( \
(" *
Ġgra ce
gp g
Man age
segment ation
B ro
G ING
c en
do es
su c
=[ ]):
Ġst rength
ĠT wo
qu ares
res ume
ic les
Ġ'' ',
connect or
Ġclo sure
Ġnetwork x
any array
Could n
ĠCall s
DI CT
tool kit
CL U
Ġs ay
mb l
ST OP
var name
Ġ5 12
Ġ'{ :
Tag Name
n f
Ġma gn
Ġsp line
ĠStruct ure
W M
in coming
Ġare as
success ors
x ticks
ĠF ill
jo urnal
ong odb
Ġag ents
M ult
_ ',
Ġc txt
set ter
Ġv ote
log o
ph enotype
([ \
}{ \
phan um
YANG ListType
S can
S urface
r sp
u ing
æ Į
** -
01 2
pop left
tri als
Ġbin ascii
Instance s
o ids
ĠDe letes
r w
Ġv endor
lp ha
PE G
Client Error
ĠDo main
ĠId entifier
Ġsear ched
ĠDynam o
q ry
in sum
cl ust
ac cum
Ġab spath
packet s
Ġ"' {
åĲ į
Ġshut it
REGI STR
m arginal
ob server
icro soft
upy ter
[ @
Ġs aves
get Attribute
ĠW CS
Ġsub tree
ä¸ ĭ
Ġoptim ized
members hip
. ]
Ġan sw
Ġr ating
sl c
ĠId ent
H ASH
P ush
} ))
de livery
Ġw d
as anyarray
par ms
qu otes
Ġdi vision
field name
ĠMe mory
Ġpol ygons
mar ize
ax y
... ]
Ġpr inter
Ġlate x
Ġsatis fy
R o
lo ci
Ġh ue
ĠW BEM
sub tree
Data Type
bound aries
ĠT ags
ĠN V
medi um
PARAM S
C ols
O ID
Ġst amp
read only
Ġk b
Ġsh lex
Ġbreak s
- {
D es
v max
ro utine
Ġl xml
Re po
SETTING S
A SS
D uplicate
e ve
w i
ĠF ore
desk top
Ġt unnel
pe p
Ġan imation
Ġcomp osition
PO S
success ful
cod on
Ġcipher text
I llegal
Ġac cessed
Ġmat ter
Ġoper ating
Ġerr msg
å¯ ¹
_ ')
up ling
Run ner
skip ped
I ssue
b at
Ġa id
Ġs quared
om atic
sub stitution
EN O
Ġconcat enate
DIRECT ORY
9 1
get ElementsBy
Ġor b
Ġx r
Ġso lid
EX TEN
monitor ing
evalu ation
ĠPop bill
ĠPopbill Exception
DB Session
FILE NAME
Ġmot ion
Ġshif ted
Ġ{} ))
queue d
COM MENT
y max
Ġs pread
iter ate
AB ASE
Ġwrit able
track ing
255 19
t ilt
Ġp n
Ġs lic
th ree
ĠL ike
comb inations
Writ es
a way
å Ģ
la ys
ĠSN MP
B IT
F LO
Ġ urn
Ġn atural
Re moves
Ġy y
MA V
enter prise
M ON
V ec
Ġst anza
a mazon
Ġc and
ĠP ress
Ġbreak point
Sub net
ĠOper ators
S pect
t g
ut s
Ġli g
={} ):
soft ware
Ġcod on
CAS RN
J Link
P otential
V ED
sh adow
Ġaccording ly
atom ic
mis c
f x
l ane
Ġb ill
__ "):
Ġ{} .'.
UR ATION
l just
m ic
qu ake
Request Exception
Ġsv g
ĠLine ar
' /
M app
er ts
auth ority
atter y
Ġpartic les
Ġpred s
ĠMan ager
recur se
M ac
w eld
Ġi mpl
Ġf tp
ĠN u
SE CRET
abb ix
U pdating
b ib
Ġb a
az y
ĠPo ssible
Ġinterpol ated
Ġ'# '
r nd
Ċ ĊĠĠĠĠ
Ġre call
Ġo id
th en
Ġ{ :.
vi m
Config ured
ĠAb stract
" )))
R SA
RE Q
L R
_ ))
s weep
ut ers
Ġw raps
Ġv c
us hed
Ġtext ure
Ġ'{} .
ĠGit Hub
st ars
Ġg pg
Ġle m
mit ives
cond itional
bro ad
EX EC
Ġtrack s
Ġfoot er
Ġexceed s
A U
M ARY
Ġre stricted
ĠL at
Di ctionary
sv d
Mo dified
Ġfreq s
Ġdeci de
w args
Ġm ul
Ġdir ty
DESCRI PTION
f ds
Ġp ivot
Ġs light
to ggle
Ġad jacent
Ġnon zero
Text Cursor
Ġvis ibility
å® ļ
k in
on oi
Ġi mm
Ġp ure
(' *
art ment
ĠM ac
RE ST
Ġdimension al
An chor
ATI C
Ġloc us
Ġre named
is in
Ġg row
ĠA C
time step
Ġen velope
ĠH as
ĠH igh
Ġmin us
ins ide
na if
Ġansw ers
d ur
ate x
ex on
ac le
Ġdis cover
sym metric
i vers
s ibling
Ġc riterion
Ġfor k
cmd line
Ġvari ation
it ations
Ġ[ <
to po
Ġpro duction
line width
Ġac celer
ID ENTI
Ġidx s
Ġfra gments
EV T
Ġextent s
m ro
ĊĠĠĠĠĠĠĠĠĠĠĠĠ ĊĠĠĠĠĠĠĠĠĠĠĠ
ype redge
par m
Ġinter actions
åĪ Ĺ
deriv ative
an onymous
ĠT c
ĠT EXT
ĠL ast
Ġca iro
fra gments
(': ')[
N F
er ated
ime s
Ġ2 7
ĠD rop
Ġtime step
Ġop ener
Ġtoken izer
analy ze
Ġcart esian
le ading
Ġs ho
get pid
om aly
token izer
ĠCon d
)] ))
sat is
Ġguarante ed
ç ±
ch allenge
Ġl t
Ġcomp act
chunk size
Ġrelation ships
à ®
ch ass
pt ides
ub er
chass is
al locate
Ġpar ses
ĠM ore
Ġ'. ':
MA SK
Po inter
Ġsn ap
effect s
Y ear
Ġro bot
ai a
pr t
Class ifier
vers ible
Widget s
Called ProcessError
R aster
int ent
(" `
Element Tree
limit ers
ident ities
bound ing
S calar
h mm
pe ek
ot onic
ol ated
cre asing
Ġblock chain
Ġur lencode
Ġ'? '
Ġmodification s
f riendly
Ġ' ('
ex cluded
sp l
Ġexist ence
PAR AME
F RA
d j
OB JECT
Fix ed
/ {}".
A gg
Y our
Ł ¥
Ġ` '
Ġkey board
ĠR SA
sub stitute
cons ume
re z
(' '.
ĠL E
ĠL imit
ĠG ot
Ð »
ur st
ĠT F
ĠV ert
ĠG UI
Ġcur ses
Ġfind s
oper and
Group Name
! )
' $
Ġp list
Ġp ng
ĠM IME
Ġline style
label size
level name
stop s
sw agger
^{ -
H AND
t iming
Ġf b
Ġs atellite
as p
Ġde legate
16 0
]+ )
ĠOne Login
Top ic
Ġc ity
Ġc raw
ĠE num
ĠM IN
ĠG P
so li
Ġtri angles
Ġ'/ ')
release s
big query
in crease
pre f
cord ance
ĠEx it
11 11
v r
at k
Ġd um
Ġback off
ome tries
Ġmark s
Ġconfirm ation
Ġuncer tainty
ĠEx tension
Hel lo
Ġmicro seconds
fq dn
ami lies
P ot
e mails
de compress
Ġm ysql
Ġ# :
Ġav ailability
dic ator
G ene
b are
ol ving
Ġpro posed
Ġmax len
Ġpub key
Ġsur f
D M
K B
get members
ĠR DF
Ġsub key
Ġgo al
Path Spec
Spec Rec
( .
8 00
S Z
p rune
å ¹
al loc
Ġ' +'
ĠT IME
Ġv cs
ĠIn stead
Pay load
A ctions
D N
k k
Ġh w
Ġsub string
User s
ĠConfig Parser
ffff ffff
flu ence
' <
an o
Ġb enchmark
ment ion
ĠE N
ĠB ound
Ġover flow
redirect s
Ġe mails
Ġdi visor
ĠA void
ip ants
mo other
:// '
EN COD
spe ction
C ALL
G lyph
M is
_ ]
Ġ" `
Pro duce
Ġgen otype
Ġdisk s
Clo sed
Ġbuilt in
Y ield
File Path
Ġsc ra
G H
v ote
v fs
Ġent ered
ĠDe code
Ġdesc ending
> ")
W in
d set
d scp
f onts
Ġp val
Ġp run
ĠT rain
as y
ĠN B
log ged
Ġgener ally
12 5
assert ion
Ġinstanti ated
? '
Ġin direct
ĠC omment
Ġpro be
Ġshow ing
S CO
o grams
Ġde crypted
Ġcol lision
()) ]
Pro gram
Ġconv ex
interpol ation
Ġin i
Ġg ates
Ġlo cate
ME DI
check out
LO CATION
Ġequal ity
sn ap
XY Z
Ġcomplet ions
ĠO F
Ġsu ite
Ġdebug ger
Trans fer
Ġsql alchemy
Ġcir c
Ġoverla ps
de m
Ġre build
Ġde serialize
ind ptr
add Handler
Ġbo ost
basic Config
Ġvo ice
H IG
} $
le et
Ġex planation
us b
ph y
cent ral
Ġele ms
STOR AGE
D etect
k de
ĠS ha
pro be
tri ps
Ġli bs
view er
ĠCont rol
sph inx
Named TemporaryFile
()) ):
St atic
mot or
Ġs pherical
po ols
ok u
Ġsy mpy
cho sen
201 3
Ġdiag ram
ĠRece ived
+ '.
O W
ul ename
() [-
Ġpro t
ĠM L
cur se
:] ]
decla red
A m
C atalog
N orm
a pt
} ).
Ġw p
Ġpro x
ĠP SD
DE VICE
book s
fill na
ĠLay er
æ Ń
Ġw it
ĠIn di
Ġpol ling
ĠBase Exception
Ġvox els
O mega
] ':
Ġlo t
ĠW ARNING
Ġser ve
Ġign ores
Ġcalcul ates
Ġfit ness
trip le
ĠAuth orization
A fter
u lo
Ġd raft
Ġto ks
ip ment
mo id
ĠArgument Error
ĠInter face
cod ers
integr ation
partic ipant
h al
ul ates
Ġg ran
ĠUn ix
catalog ue
click ed
chedul ing
ç± »
Ġif o
Ġal gorithms
unt u
Ġat las
Connect ed
_ \
Ġt bl
Ġre actions
ĠS ends
Ġkey ed
ĠR oute
ga ps
diffe rent
cnt l
Align ment
C ATED
S UM
co o
(' =',
type d
comp iled
exp ansion
est ed
q name
s rs
Ġf utures
() ;
tri ed
Ġwas n
Ġwa ys
conc ern
J S
st anza
Ġe ver
Re moving
ĠF ilename
Ġav ail
Ġ... }
Ġsuper class
Exec utor
ĠSQ LAlchemy
f resh
Ġw ide
() [:
Ġbe at
ĠĠĠĠĠĠĠĠĠĠĠĠĠĠĠĠ ĠĠĠĠĠĠĠĠĠĠĠĠĠĠĠ
ĠL i
lock s
scri bers
Ġtemp oral
Ġmedi um
enum erate
mk dtemp
thresh olds
Ġmer ging
getElementsBy TagName
P ID
l bl
Ġre lax
ro ids
vert s
PE D
du ces
CH AN
ĠFile s
Ġrank s
END ING
radi ance
appro x
S hell
o spf
è ¦ģ
Ġas array
Ġpre set
comm its
Ġinfo s
" ``
t end
an el
ĠC I
Ġpro portion
ĠH z
Ġsh orter
havi or
he mer
Ġin tr
Ġg ps
ste mp
Ġ& &
Ġqual ifier
Ġlisten ers
u a
Ġcon crete
Ġco mplement
tw itter
esca ped
Ġrepe t
SCRI PT
SES SION
F ree
p or
å ¸
de termine
ĠB oth
EX TR
Ġstage s
ado op
âĸ Ī
] [:,
lic enses
Ġsh adow
Ġstream ing
ik a
Ġeigen values
Writ ing
4 01
U sed
v R
fi sh
unc er
block chain
Ġsk learn
Ġschema s
VAR IABLE
F MT
o logy
Ġb ars
um idity
Ġl d
frame work
Ġfla vor
Te X
âĶ Ĥ
c and
g te
p du
ver gence
'] ],
ĠAs set
CI I
Ġbracket s
) `.
D L
Ġcounter s
Ġretrie ving
åħ ¥
Z a
g ss
z fill
re run
st rength
Ġc ertificates
Ġr tol
Ġme ters
Ġpro d
sim ulation
Ġsolution s
h ull
in ot
Ġe levation
Ġh aven
te ins
vi p
ĠN UM
ph p
ĠG lobal
fil ing
Ġ4 2
:// %
ner gy
inst itute
FO UND
ĠTime stamp
mar sh
ĠResult s
3 84
F ault
K ind
w rong
} })
Ġf cntl
Ġd P
Ġd ash
fi er
Ġw t
Ġme ss
mm er
ĠQ U
rgb a
= ".
Ġ 99
Ġc ub
'] })
ns ide
Ġca ught
ĠConfig ure
Ġweb hook
('.') [-
artifact s
* )
C tx
F req
M IS
Ã ¤
Ġth in
ext ents
Ġ- (
ĠL anguage
ĠR T
we bsocket
AL Y
Me an
distribution s
ĠFAST A
T ARGET
f k
i B
Ġc rs
Ġ% %
Ġk s
ab ly
ĠReg ion
N L
R en
s ls
== "
Ġinter act
cred it
Custom er
Double Vector
BIN ARY
M a
U TE
b m
st ab
Ġr sa
=' {
utomatic ally
Ġeas ily
Internal Error
Conver ter
ca iro
ER O
ST Y
ĠDi stance
Store ID
Ġd ask
Ġ** _
Ġmult iline
Ġrelease s
OS Error
Ġaggreg ated
enari os
Ċ ĊĠĠĠĠĠĠĠĠĠĠĠĠĠ
he ses
Ġd z
ex cel
Ġas semble
ĠAl tern
Ġplatform s
stand ing
ĠSc ript
co var
di f
Ġ1 000000
ĠA ES
ĠD etect
mo ments
Ġcol on
ĠGener ic
gre ater
ĠReg istry
H y
S ys
Z ero
e ither
Ġ" |
Ġco lored
ff old
Ġen rich
Ġ4 1
context s
Ġad vanced
ĠSet tings
Run s
zen desk
l ush
Ġin voice
un ities
con ut
Ġ+ \
ĠA CL
Ġsu fficient
cho ose
Token s
Ġaut oc
SUP PORTED
, ):
n ans
Ġre placing
ic ast
Ġj wt
post gres
orig ins
calcul ated
cart esian
ĠAssume s
S ending
V als
Ġw i
AN Y
Ġcor o
rep lication
ĠLog ger
ĠDate time
lig ible
e levation
o sc
s lack
ĠĠĠĠ ĊĠĠĠ
Ġg ui
__ ]
play list
EN TRY
Ġhash able
PRO JECT
cu da
I MP
U Int
Ġe ig
Ġst ick
Ġsp rite
pr incipal
web hook
sock opt
~~~~ ~~~~
u k
min i
######## ####
Ġsee m
Ġcent ered
depend s
Ġstat uses
Pre pare
Uni que
ĠDate Time
Opt im
z ier
Ġro ugh
Ġnum s
DE NT
Ġcontin uation
ift i
Ġsuffix es
Iter ate
Ġfore ground
oct et
M any
a che
u u
ĠM ET
gra mming
ĠSt at
Ġdescription s
Ġestim ates
Ġappropriate ly
Ġcid r
' `
3 60
e b
Ġn apalm
Ġl ats
tr ust
comple ter
Ġtrack ed
Ġdump s
TA IN
S creen
a ware
h z
Ġ= \
an chors
co sts
la mb
Ġcon cept
TI ES
Ġmultip ly
= ("
C n
ow els
ap is
SO L
Ġaltern atives
PL ACE
Ġsoft ware
ç¬ ¦
2 04
ã ģ
Ġo q
ĠT LS
ĠI llegal
Ġz mq
Ġref ers
ĠRE AD
Ġin herited
Ġo m
ĠV AR
[" _
DE FIN
sign atures
l lab
x l
â Ĥ
Ġex periments
Ġv env
iter keys
Ġassert ion
Ġclass path
Ġstruct ured
tick er
Ġside s
Pub lish
Ġaio http
S ensor
s ch
Ġb are
ra ses
amp Rec
Ġdir path
ĠIter ator
ĠAuth entication
(".") [
s os
¾ ç
Ġde scriptors
Ġr u
our ier
ile stone
Ġmin imize
Se lector
ĠTime Series
YY Y
åľ ¨
c lf
v T
Ġi c
Ġs phinx
name server
Ġby pass
delt as
ĠDynamo DB
1 10
a decimal
} [
¡ ç
Ġst ars
iz ard
Ġco sts
ĠA gent
), ))
stri ctions
be g
Jo in
sco ped
adi us
J obs
S ide
Ġre actor
ĠC ore
Key board
ĠInvalid Argument
equal s
ol ing
ĠD ump
im t
"] =
go al
let ions
Ġmembers hip
T imer
pt ype
ho use
ĠDe st
oper ands
Ch at
Auth or
ro bot
LE S
[^ \
Wait ing
Pe er
Ġconcaten ated
Ġslight ly
n atural
p ivot
Ġin form
end ers
Ġon line
Ġla mb
ĠAl ways
Try ing
ĠAli gn
def erred
ill er
Ġ`` <
oper ators
Ġpe ople
API Error
tool bar
ĠCont in
Attemp t
Ġ"{}" '.
RET URN
B I
M ouse
Ġex ha
Ġr st
und ers
DE V
Ġsee also
activ ated
roper ly
P ack
S pi
i ct
x iv
å ī
de tection
ar ches
Ġp bar
Ġpro tected
log ies
Ġ3 3
Di ag
Ġchunk ed
Fin ished
M atches
j j
Ġaccept ance
åı Ĥ
> `.
C TED
E qual
M s
on set
ĠP NG
op ener
the tic
xx x
4 03
add Widget
Ġyield ing
En tries
Ġab sent
Ġkeep dims
ik o
aa a
ĠST ATE
ĠOn ce
SU FFIX
pur ge
ĠWS GI
agin ated
c g
tri ggered
INTER N
Ġre member
Ġbe yond
set Enabled
Def erred
ĠAt tributes
! ",
> :
sub domain
RE SH
Ġac curate
modifi cation
Ġs b
RE EN
ron s
com ma
Ġjson ify
Ġmut ations
Ġactiv ated
Ġsat rec
Ġener gies
Ġrepos itories
ĠUp load
ĠVAL UES
interpre ter
G ate
d ash
Ġf x
an ger
Ġe th
Ġ3 5
ĠIn tegr
Ġpost s
ffici ency
B C
} (
or ies
me ters
Ġd ont
par ty
ĠS calar
Ġdis carded
Ġtri ed
-+-+-+-+-+-+-+-+ -+-+-+-+-+-+-+-+
G LOBAL
Ġt abs
Ġz order
ĠEx port
so ap
AR GS
Ġmulti part
ense mbl
estim ated
bon ds
up stream
Ġse cs
Ġcon sts
__ ",
pi log
ĠB ro
host port
Ġexpi ry
('{} :
Ġf re
Ġre jected
par a
Ġh ouse
ĠEx pect
comp osite
Ġpy game
Ġtra ffic
AC TIVE
Ġallow ing
WH ITE
' ``,
Ã ³
Ġp ul
Ġ: ])
Ġon nx
pa st
back off
Ġlin enum
ĠJ WT
From String
band width
Ab ort
Ġdl g
OFF SET
b ul
re actor
ĠA P
ĠF ITS
pre pend
Ġdirect ives
micro second
ĠEd ge
Require ment
] ``
g inal
ot ion
pp rint
te ch
Ġpo le
fit ted
ĉĉ ĉ
pm n
Ġdecimal s
c url
t cex
in tern
Ġb gp
Ġm iss
Ġco vered
ĠE very
)** (
ĠThere fore
avig ation
N P
a udit
or arily
Ġb ri
config urations
Ġcal ib
RO P
round ing
AS CII
relation ships
pers istent
Ġance stors
Lookup Session
ĠTer min
REGISTR Y
p seudo
re ject
(' !
Re st
00 000
ĠN ext
Ġca pabilities
Object ive
'} }),
ĠAd just
D H
c am
fe rer
SE NT
Res olver
ud p
CE S
Ġsco ped
arb age
um i
add Callback
Ġdel tas
spe ech
mix ed
g auss
th ough
Ġch allenge
class path
Ġ-------- ----
su ite
As sert
Ġoverrid ing
B ig
T mp
Ġi mag
urn ame
() ],
te e
Ġ{} .".
ĠW indow
og onal
sens ors
some thing
a es
n os
Ġm alformed
ĠR A
Ġcons umption
partic les
Ġ################################# ################################
" /
< <
D uration
U ri
Ġc hemical
Ġre construct
Ġl and
[' $
ard own
roperly Configured
e of
in ode
pe ers
ĠC reating
loc ities
SY STEM
qq q
Ġsilent ly
åį ķ
Ġout going
ĠM B
([ ('
search sorted
MB OL
Back ground
ĠS ci
read the
In clude
ĠPub lic
mor ph
' (?
) ".
F igure
Ġa ch
Ġ' ).
Ġd v
Ġ( ),
ĠS K
Ġv t
items ize
ĠIn formation
List s
Number Of
integr ate
ĠEvalu ate
P ut
s ic
Ġa min
Ġp th
Ġx array
SE EK
Ġsuccess or
Work flow
CR Y
Ġsaf ely
' ')
n able
p wd
x a
Ġd k
get mtime
time steps
Ex periment
Ġsh ot
Ġserial izable
Ġtrain able
ĠMulti Index
D b
c ers
Ġif f
Data Array
description s
hot o
Ġus able
pars ity
Cont in
Ġknow ledge
C la
U CT
en ing
Ġp ct
Ġg old
dev null
ĠQu ant
reach able
' ',
M dl
l xc
n ts
st aff
ĠS Array
Ġro unded
PE ND
Ġaff ine
) ][
n od
Ġo sc
un supported
Ġan chors
ĠS ec
ub ble
sc all
ab out
local ize
now led
Check er
PAT CH
Format Error
Ġsimp lify
Ġderiv atives
L i
L ow
Ġc g
Ġre li
Ġs ibling
Ġd ise
vi al
[: :
Ġdispatch er
A K
T OP
Ġp si
Ġb ump
Ġm type
ca pt
Ġ'* ':
ĠAd ded
¦Ĥ æŀľ
N rm
de e
Ġcheck out
ffect ed
201 2
cb io
LOG IN
ĠBase d
Ġmot if
v z
id ata
is at
ĠD elta
Ġ3 6
we ather
Ġdis p
==== ==
Ġqu er
AUT O
ĠAx es
R ad
i cons
ar ms
Ġc el
Ġg h
Ġun available
ĠB AM
Col lector
speci e
Ġiterable s
Min imum
ENCOD ING
' >
D J
n grams
w ner
Ġd os
Ġpa ren
Ġ'* .
Ġ12 7
Ġplace holders
rand n
MAP PING
æĹ¶ éĹ´
æİ ¥
re me
Ġr dd
PRO PER
ĠParameter Error
Ġamb iguous
C lick
D rop
d yn
Ġ' ..
ic ense
ĠIn dicates
pass phrase
Ġdatabase s
SC A
Ġbl k
ĠId entity
Ġmk dir
Ġocc ured
Ġcontra st
F un
el net
ver ity
Ġco in
ĠS pec
per c
ĠB U
Ġrece iving
tt le
ĠBu cket
grade book
ä» ¥
+ ",
Ġ* /
Ġde livery
Ġgra in
Ser vices
Ġkeep ing
Ġfraction al
Ġred undant
Ġsubstitution s
E LE
o spy
Ġa udit
ri se
ha ps
ME M
net es
spe ctor
Ġzone file
ĠPo ol
adapt ers
uber netes
readthe docs
im ms
Ġq qqq
ĠMake s
Ġsym metry
de legate
Ġd j
Ġ""" !
mp ot
con ns
]) ])
fa bs
IN D
button s
: /
h l
n ight
re levant
or ical
Ġre connect
Ġan t
ĠE L
sc anner
Comp utes
WA IT
Ġyi elded
R ANGE
f ri
Ġw ent
)) **
AC H
ĠPro duct
cont igs
Default s
ĠMark ov
T LS
Ġs lide
am in
str ong
ĠRe cursively
Ġz f
Ġqueue d
15 0
gre ssion
x z
ĠX Y
cos ity
; '
A mount
d arwin
ĠS k
ĠF ra
op h
sy llable
ĠZ ip
Ġquant iles
WOR DS
Ġpen alty
aco bian
i ser
ĠS AS
ist s
ĠE qu
im gs
ĠH ash
Ġapp let
ST AMP
check ing
Ġsent inel
Ġve hicle
c wl
e os
Ġi mplements
ne ar
ĠDE LETE
ĠPass word
Normal ize
n ii
í ĺ
ra ck
ir p
Ġcould n
Ġattemp ting
sto pping
Ġcatalog ue
Sp in
B its
S ent
V ol
ang ent
Ġtra ined
Ġoff er
local time
LI P
Ġdown stream
Log ging
VAL UES
Ġut ter
a ma
Ġe ast
pe cs
), )
ĠR DD
ĠIn voke
SE ARCH
DI ST
CON TEXT
Ġund o
Ġsim ulate
break point
ĠOperation Class
ele ms
FRA ME
M Y
ĠC T
new lines
ĠCo ord
To String
Per m
cla ims
GR AM
i mplementation
n tp
le e
ĠS upported
]) *
our se
Ġ2 9
Ġpre process
Con n
Con tact
ĠIn tern
Ġfeed back
c raw
s np
Ġme ant
ord inal
log ic
Ġz lib
Ġsup posed
part icle
Di rect
åĪ Ĩ
reci pients
A ns
S ta
a id
at tack
at tached
Ġe ff
is y
ĠC LA
Ġun wrap
Ġwhen ever
åı ĳ
Ġsn ippet
semb l
Ġnu cleot
Ġunders core
ä¿¡ æģ¯
i ated
y ticks
ate l
ime d
ĠE S
net conf
off line
Ġhost ing
Ġ[" -
Ġissue d
Random State
ĠFin ally
R D
Ġl g
Ġcon c
Ġr bridge
Id ent
Message s
ĠCON FIG
ĠHttpResponse Redirect
ĠJo urnal
or ation
Ġ' >
Ġex its
Ġsub stitute
gra ding
Ġli m
play ers
Ġequ ations
Ġbig ger
a ugment
e insum
Ġ' `
Ġex cluding
ĠD oc
ans wers
Ġtra jectories
[:, :,
... ',
owns ample
shif ts
é Ļ
Ġc amel
Ġd store
Ġcopy ing
Ġtransform ations
ĠArgument Parser
Ġplay list
ĠMay be
R NA
b log
Ġ ĊĠĠĠĠĠĠĠĠĠĠĠĠĠĠĠĠĠĠĠĠĠĠĠ
Ġh ull
Ġg andi
Ġme et
Ġpre served
ph ases
ab ling
Ġper mitted
CH UNK
Ġcla ims
compat ibility
Ġfall s
CUR RENT
$ (
b ow
t te
Ġs anitize
ke eper
ĠC DF
ph ys
Ġapp ending
object info
tab ular
Ġsat uration
Ġjo urnal
C Y
v ms
w ell
al ts
Ġin vocation
fig ures
ĠB io
Ġuni versal
sql alchemy
b rightness
Get ting
ĠAl ready
Ġpat ient
compound s
* :
N ON
de rers
Ġout liers
Ġsub scribe
ĠDe bug
CONT RO
è ·
re use
Ġg a
set sockopt
ĠS C
Ġpass wd
Ġup sert
pri ces
named tuple
ĠImp roperlyConfigured
pic ard
d um
Ġt ube
co urses
ren dered
fo x
Ġsub list
Ġstand ardi
compar ison
D ynamic
P ull
n at
æ ³
Ġ que
un quote
ra ppers
co pt
od ate
ĠF requency
ll ing
api key
Ch art
Ġcent roid
em ma
Ġvisual ization
Stat istics
T urn
d og
g ff
re trie
(" !
ĠP K
ĠU ID
Ġpart ially
Ġ201 2
pan els
USER NAME
Ġgu ide
built ins
ĠCF G
D ing
P en
n es
un expected
Ġh ypot
Ġ== ================
(" |
ĠF FT
]) /
ĠH AS
ap ses
Ġcap ital
Ġcra sh
STO RE
i ssion
p lex
Ġ Ã
de part
pro pagate
pat ched
Ġdynamic ally
f lo
s ay
Ġan onymous
ĠS w
ded ent
In correct
Se conds
Ġown ed
uest ion
I SS
w c
é ¡
ĠV LAN
Ġk l
gra in
IL L
Ġput s
So ft
Take s
A GER
E AR
h ang
ut y
ĠP UT
loc us
Loc ator
Part itions
altern ative
> ``
b ile
p lo
Ġse crets
ec c
Down loading
!! !!
C ircuit
d P
r up
pre set
Ġso on
Ġimport ing
err msg
Ġsc oring
connect ivity
Ġfra g
Ġm r
is ons
as ctime
Ġdata s
Ġal location
Ġlog level
ns ures
fla vor
cr umb
correct ed
screen shot
Ġhappen ed
ADD RESS
f ts
n w
