{
  "version": "1.0",
  "truncation": null,
  "padding": null,
  "added_tokens": [
    {
      "id": 0,
      "content": "<pad>",
      "single_word": false,
      "lstrip": false,
      "rstrip": false,
      "normalized": false,
      "special": true
    },
    {
      "id": 1,
      "content": "<bos>",
      "single_word": false,
      "lstrip": false,
      "rstrip": false,
      "normalized": false,
      "special": true
    },
    {
      "id": 2,
      "content": "<eos>",
      "single_word": false,
      "lstrip": false,
      "rstrip": false,
      "normalized": false,
      "special": true
    },
    {
      "id": 3,
      "content": "<unk>",
      "single_word": false,
      "lstrip": false,
      "rstrip": false,
      "normalized": false,
      "special": true
    }
  ],
  "normalizer": null,
  "pre_tokenizer": {
    "type": "ByteLevel",
    "add_prefix_space": false,
    "trim_offsets": true,
    "use_regex": true
  },
  "post_processor": {
    "type": "TemplateProcessing",
    "single": [
      {
        "SpecialToken": {
          "id": "<bos>",
          "type_id": 0
        }
      },
      {
        "Sequence": {
          "id": "A",
          "type_id": 0
        }
      },
      {
        "SpecialToken": {
          "id": "<eos>",
          "type_id": 0
        }
      }
    ],
    "pair": [
      {
        "SpecialToken": {
          "id": "<bos>",
          "type_id": 0
        }
      },
      {
        "Sequence": {
          "id": "A",
          "type_id": 0
        }
      },
      {
        "SpecialToken": {
          "id": "<eos>",
          "type_id": 0
        }
      },
      {
        "Sequence": {
          "id": "B",
          "type_id": 1
        }
      },
      {
        "SpecialToken": {
          "id": "<eos>",
          "type_id": 1
        }
      }
    ],
    "special_tokens": {
      "<bos>": {
        "id": "<bos>",
        "ids": [
          1
        ],
        "tokens": [
          "<bos>"
        ]
      },
      "<eos>": {
        "id": "<eos>",
        "ids": [
          2
        ],
        "tokens": [
          "<eos>"
        ]
      }
    }
  },
  "decoder": {
    "type": "ByteLevel",
    "add_prefix_space": true,
    "trim_offsets": true,
    "use_regex": true
  },
  "model": {
    "type": "BPE",
    "dropout": null,
    "unk_token": null,
    "continuing_subword_prefix": null,
    "end_of_word_suffix": null,
    "fuse_unk": false,
    "byte_fallback": false,
    "ignore_merges": false,
    "vocab": {
      "<pad>": 0,
      "<bos>": 1,
      "<eos>": 2,
      "<unk>": 3,
      "!": 4,
      "\"": 5,
      "#": 6,
      "$": 7,
      "%": 8,
      "&": 9,
      "'": 10,
      "(": 11,
      ")": 12,
      "*": 13,
      "+": 14,
      ",": 15,
      "-": 16,
      ".": 17,
      "/": 18,
      "0": 19,
      "1": 20,
      "2": 21,
      "3": 22,
      "4": 23,
      "5": 24,
      "6": 25,
      "7": 26,
      "8": 27,
      "9": 28,
      ":": 29,
      ";": 30,
      "<": 31,
      "=": 32,
      ">": 33,
      "?": 34,
      "@": 35,
      "A": 36,
      "B": 37,
      "C": 38,
      "D": 39,
      "E": 40,
      "F": 41,
      "G": 42,
      "H": 43,
      "I": 44,
      "J": 45,
      "K": 46,
      "L": 47,
      "M": 48,
      "N": 49,
      "O": 50,
      "P": 51,
      "Q": 52,
      "R": 53,
      "S": 54,
      "T": 55,
      "U": 56,
      "V": 57,
      "W": 58,
      "X": 59,
      "Y": 60,
      "Z": 61,
      "[": 62,
      "\\": 63,
      "]": 64,
      "^": 65,
      "_": 66,
      "`": 67,
      "a": 68,
      "b": 69,
      "c": 70,
      "d": 71,
      "e": 72,
      "f": 73,
      "g": 74,
      "h": 75,
      "i": 76,
      "j": 77,
      "k": 78,
      "l": 79,
      "m": 80,
      "n": 81,
      "o": 82,
      "p": 83,
      "q": 84,
      "r": 85,
      "s": 86,
      "t": 87,
      "u": 88,
      "v": 89,
      "w": 90,
      "x": 91,
      "y": 92,
      "z": 93,
      "{": 94,
      "|": 95,
      "}": 96,
      "~": 97,
      "¡": 98,
      "¢": 99,
      "£": 100,
      "¤": 101,
      "¥": 102,
      "¦": 103,
      "§": 104,
      "¨": 105,
      "©": 106,
      "ª": 107,
      "«": 108,
      "¬": 109,
      "®": 110,
      "¯": 111,
      "°": 112,
      "±": 113,
      "²": 114,
      "³": 115,
      "´": 116,
      "µ": 117,
      "¶": 118,
      "·": 119,
      "¸": 120,
      "¹": 121,
      "º": 122,
      "»": 123,
      "¼": 124,
      "½": 125,
      "¾": 126,
      "¿": 127,
      "À": 128,
      "Á": 129,
      "Â": 130,
      "Ã": 131,
      "Ä": 132,
      "Å": 133,
      "Æ": 134,
      "Ç": 135,
      "È": 136,
      "É": 137,
      "Ê": 138,
      "Ë": 139,
      "Ì": 140,
      "Í": 141,
      "Î": 142,
      "Ï": 143,
      "Ð": 144,
      "Ñ": 145,
      "Ò": 146,
      "Ó": 147,
      "Ô": 148,
      "Õ": 149,
      "Ö": 150,
      "×": 151,
      "Ø": 152,
      "Ù": 153,
      "Ú": 154,
      "Û": 155,
      "Ü": 156,
      "Ý": 157,
      "Þ": 158,
      "ß": 159,
      "à": 160,
      "á": 161,
      "â": 162,
      "ã": 163,
      "ä": 164,
      "å": 165,
      "æ": 166,
      "ç": 167,
      "è": 168,
      "é": 169,
      "ê": 170,
      "ë": 171,
      "ì": 172,
      "í": 173,
      "î": 174,
      "ï": 175,
      "ð": 176,
      "ñ": 177,
      "ò": 178,
      "ó": 179,
      "ô": 180,
      "õ": 181,
      "ö": 182,
      "÷": 183,
      "ø": 184,
      "ù": 185,
      "ú": 186,
      "û": 187,
      "ü": 188,
      "ý": 189,
      "þ": 190,
      "ÿ": 191,
      "Ā": 192,
      "ā": 193,
      "Ă": 194,
      "ă": 195,
      "Ą": 196,
      "ą": 197,
      "Ć": 198,
      "ć": 199,
      "Ĉ": 200,
      "ĉ": 201,
      "Ċ": 202,
      "ċ": 203,
      "Č": 204,
      "č": 205,
      "Ď": 206,
      "ď": 207,
      "Đ": 208,
      "đ": 209,
      "Ē": 210,
      "ē": 211,
      "Ĕ": 212,
      "ĕ": 213,
      "Ė": 214,
      "ė": 215,
      "Ę": 216,
      "ę": 217,
      "Ě": 218,
      "ě": 219,
      "Ĝ": 220,
      "ĝ": 221,
      "Ğ": 222,
      "ğ": 223,
      "Ġ": 224,
      "ġ": 225,
      "Ģ": 226,
      "ģ": 227,
      "Ĥ": 228,
      "ĥ": 229,
      "Ħ": 230,
      "ħ": 231,
      "Ĩ": 232,
      "ĩ": 233,
      "Ī": 234,
      "ī": 235,
      "Ĭ": 236,
      "ĭ": 237,
      "Į": 238,
      "į": 239,
      "İ": 240,
      "ı": 241,
      "Ĳ": 242,
      "ĳ": 243,
      "Ĵ": 244,
      "ĵ": 245,
      "Ķ": 246,
      "ķ": 247,
      "ĸ": 248,
      "Ĺ": 249,
      "ĺ": 250,
      "Ļ": 251,
      "ļ": 252,
      "Ľ": 253,
      "ľ": 254,
      "Ŀ": 255,
      "ŀ": 256,
      "Ł": 257,
      "ł": 258,
      "Ń": 259,
      "ĠĠ": 260,
      "ĠĠĠĠ": 261,
      "ĠĠĠ": 262,
      "ĊĠĠĠĠ": 263,
      "in": 264,
      "se": 265,
      "ĠĠĠĠĠĠĠĠ": 266,
      "re": 267,
      "ĊĠĠĠĠĠĠĠ": 268,
      "on": 269,
      "at": 270,
      "Ġt": 271,
      "or": 272,
      "er": 273,
      "st": 274,
      "Ġ=": 275,
      "ĠĠĠĠĠĠĠ": 276,
      "en": 277,
      "Ġi": 278,
      "Ġa": 279,
      "ĊĠĠĠ": 280,
      "de": 281,
      "ar": 282,
      "al": 283,
      "\"\"": 284,
      "ĊĠĠĠĠĠĠĠĠĠĠĠ": 285,
      "le": 286,
      "me": 287,
      "he": 288,
      "Ġf": 289,
      "Ġc": 290,
      "ĊĠĠĠĠĠĠĠĠĠĠĠĠ": 291,
      "lf": 292,
      "self": 293,
      "Ġre": 294,
      "ion": 295,
      "ur": 296,
      "Ġn": 297,
      "Ġp": 298,
      "it": 299,
      "Ġin": 300,
      "an": 301,
      "ct": 302,
      "ce": 303,
      "Ġif": 304,
      "Ġs": 305,
      "Ġo": 306,
      "ge": 307,
      "Ġthe": 308,
      "ro": 309,
      "Ġself": 310,
      "Ġe": 311,
      "ame": 312,
      "Ġ'": 313,
      "ue": 314,
      "ut": 315,
      "lo": 316,
      "\"\"\"": 317,
      "ing": 318,
      "):": 319,
      "Ġd": 320,
      "pe": 321,
      "urn": 322,
      "Ġb": 323,
      "turn": 324,
      "ent": 325,
      "li": 326,
      "ot": 327,
      "Ġ\"\"\"": 328,
      "ate": 329,
      "fi": 330,
      "ĊĠĠĠĠĠĠĠĠĠĠĠĠĠĠĠ": 331,
      "Ġw": 332,
      "Ġm": 333,
      "un": 334,
      "ss": 335,
      "ra": 336,
      "Ġ#": 337,
      "id": 338,
      "Ġfor": 339,
      "co": 340,
      "Ġis": 341,
      "Ġreturn": 342,
      "--": 343,
      "Ġto": 344,
      "def": 345,
      "mp": 346,
      "val": 347,
      "one": 348,
      "ad": 349,
      "ed": 350,
      "la": 351,
      "Ġan": 352,
      "ĊĊĠĠĠĠĠĠĠ": 353,
      "ul": 354,
      "Ġ(": 355,
      "()": 356,
      "get": 357,
      "ata": 358,
      "ch": 359,
      "pt": 360,
      "ype": 361,
      "name": 362,
      "Ġst": 363,
      "ri": 364,
      "ke": 365,
      "None": 366,
      "um": 367,
      "Ġof": 368,
      "is": 369,
      "ĊĊĠĠĠ": 370,
      "._": 371,
      "il": 372,
      "Ġnot": 373,
      "Ġ:": 374,
      "ter": 375,
      "es": 376,
      "ck": 377,
      "ĊĠĠĠĠĠĠĠĠĠĠĠĠĠĠĠĠĠĠĠĠ": 378,
      "di": 379,
      "ex": 380,
      "gs": 381,
      "Ġ\"": 382,
      "el": 383,
      "',": 384,
      "ma": 385,
      "ath": 386,
      "ol": 387,
      "up": 388,
      "Ġand": 389,
      "ĠT": 390,
      "))": 391,
      "ation": 392,
      "am": 393,
      "('": 394,
      "th": 395,
      "value": 396,
      "Ġl": 397,
      "ver": 398,
      "Ġse": 399,
      "as": 400,
      "par": 401,
      "ode": 402,
      "['": 403,
      "Ġcon": 404,
      "']": 405,
      "ult": 406,
      "ction": 407,
      "con": 408,
      "ĠNone": 409,
      "ror": 410,
      "Ġex": 411,
      "key": 412,
      "type": 413,
      "ve": 414,
      "Ġh": 415,
      "Ġth": 416,
      "ser": 417,
      "list": 418,
      "ĊĠĠĠĠĠĠĠĠĠĠĠĠĠĠĠĠĠĠĠ": 419,
      "Ġ1": 420,
      "Ġor": 421,
      "Ġ+": 422,
      "end": 423,
      "ble": 424,
      "orm": 425,
      "ime": 426,
      "')": 427,
      "ta": 428,
      "Ġbe": 429,
      "Ġ==": 430,
      "Ġfi": 431,
      "Ġ[": 432,
      "sp": 433,
      "Ġg": 434,
      "int": 435,
      "Ġ_": 436,
      "args": 437,
      "pp": 438,
      "ith": 439,
      "path": 440,
      "ext": 441,
      "iz": 442,
      "bj": 443,
      "ect": 444,
      "od": 445,
      "Ġ0": 446,
      "ig": 447,
      "and": 448,
      "Ġ*": 449,
      "to": 450,
      "Ġco": 451,
      "':": 452,
      "----": 453,
      "Ġu": 454,
      "Ġel": 455,
      "ance": 456,
      "ment": 457,
      "Ġ-": 458,
      "ort": 459,
      "Ġelse": 460,
      "qu": 461,
      "(\"": 462,
      "ption": 463,
      "set": 464,
      "Ġ{": 465,
      "Ġlo": 466,
      "te": 467,
      "Ġde": 468,
      "ise": 469,
      "form": 470,
      "Re": 471,
      "age": 472,
      "Ġr": 473,
      "Ġdi": 474,
      "file": 475,
      "po": 476,
      "str": 477,
      "ĠA": 478,
      "data": 479,
      "param": 480,
      "rror": 481,
      "Error": 482,
      "ĠI": 483,
      "Ġ%": 484,
      "tr": 485,
      "vi": 486,
      "rom": 487,
      "ĠĠĠĠĠĠĠĠĠĠĠĠĠĠĠĠ": 488,
      "Ġdata": 489,
      "Ġstr": 490,
      "Ġas": 491,
      "ren": 492,
      "stance": 493,
      "Ġme": 494,
      "Ġvalue": 495,
      "all": 496,
      "put": 497,
      "et": 498,
      "ĠS": 499,
      "Ġra": 500,
      "res": 501,
      "ine": 502,
      "art": 503,
      "ĠC": 504,
      "Ġname": 505,
      "ub": 506,
      "ord": 507,
      "Ġar": 508,
      "que": 509,
      "ase": 510,
      "rue": 511,
      "Ġ`": 512,
      "ite": 513,
      "ize": 514,
      "Ġpro": 515,
      "Ġwith": 516,
      "ĠF": 517,
      "che": 518,
      "Ġal": 519,
      "able": 520,
      "per": 521,
      "),": 522,
      "ew": 523,
      "Ġres": 524,
      "kw": 525,
      "ic": 526,
      "\",": 527,
      "Ġv": 528,
      "ist": 529,
      "Ġma": 530,
      "ry": 531,
      "us": 532,
      "Ġraise": 533,
      "Ġlen": 534,
      "out": 535,
      "fo": 536,
      "fig": 537,
      "ly": 538,
      "ack": 539,
      "ow": 540,
      "alse": 541,
      "Ġ>": 542,
      "Ġfile": 543,
      "pro": 544,
      "bject": 545,
      "ĠP": 546,
      "time": 547,
      "ers": 548,
      "Ġlist": 549,
      "Ġpar": 550,
      "eld": 551,
      "ms": 552,
      "kwargs": 553,
      "\")": 554,
      "ci": 555,
      "format": 556,
      "app": 557,
      "red": 558,
      "])": 559,
      "Ġfrom": 560,
      "ha": 561,
      "Ġdef": 562,
      "dex": 563,
      "our": 564,
      "quest": 565,
      "Ġx": 566,
      "mple": 567,
      "Ġkey": 568,
      "ht": 569,
      "Ġy": 570,
      "ault": 571,
      "instance": 572,
      "ure": 573,
      "ff": 574,
      "rent": 575,
      "sion": 576,
      "ange": 577,
      "len": 578,
      "date": 579,
      "],": 580,
      "ind": 581,
      "Ġon": 582,
      "lass": 583,
      "code": 584,
      "Ġ2": 585,
      "ĠRe": 586,
      "''": 587,
      "Ġget": 588,
      "ĠD": 589,
      "ĠE": 590,
      "ray": 591,
      "ĊĠĠĠĠĠĠĠĠĠĠĠĠĠĠĠĠĠĠĠĠĠĠĠ": 592,
      "unt": 593,
      "ource": 594,
      "00": 595,
      "Ġch": 596,
      "text": 597,
      "tri": 598,
      "atch": 599,
      "url": 600,
      "ĠThe": 601,
      "Ġwh": 602,
      "sc": 603,
      "Ġout": 604,
      "und": 605,
      "ust": 606,
      "ĊĠĠĠĠĠ": 607,
      "Ġlog": 608,
      "pre": 609,
      "..": 610,
      "__": 611,
      "jo": 612,
      "os": 613,
      "Ġnp": 614,
      "add": 615,
      "col": 616,
      "mm": 617,
      "Ġset": 618,
      "ip": 619,
      "cess": 620,
      "ile": 621,
      "error": 622,
      "op": 623,
      "Ġisinstance": 624,
      "Ġ<": 625,
      "odel": 626,
      "Ġthat": 627,
      "Ġthis": 628,
      "oc": 629,
      "lif": 630,
      "ger": 631,
      "sed": 632,
      "Ġat": 633,
      "append": 634,
      "cept": 635,
      "bu": 636,
      "ity": 637,
      "iv": 638,
      "Ġtry": 639,
      "thod": 640,
      "pa": 641,
      "im": 642,
      "Ġpa": 643,
      "='": 644,
      "Ġen": 645,
      "ĠĠĠĠĠ": 646,
      "ctor": 647,
      "ĠN": 648,
      "Ġit": 649,
      ").": 650,
      "Ġresult": 651,
      "Ġelif": 652,
      "ĠV": 653,
      "ition": 654,
      "low": 655,
      "ho": 656,
      "py": 657,
      "Ġby": 658,
      "cl": 659,
      "ĠTrue": 660,
      "mb": 661,
      "read": 662,
      "ive": 663,
      "ill": 664,
      "mo": 665,
      "Ġ**": 666,
      "ĊĠĠĠĠĠĠĠĠĠĠĠĠĠĠĠĠĠĠĠĠĠĠĠĠĠĠĠĠ": 667,
      "pi": 668,
      "dict": 669,
      "dd": 670,
      "roup": 671,
      "ces": 672,
      "Ġ{}": 673,
      "reate": 674,
      "Ġhe": 675,
      "info": 676,
      "ĊĊĠĠĠĠĠĠĠĠĠĠĠ": 677,
      "Ġtime": 678,
      "Ġcol": 679,
      "ute": 680,
      "Ġtype": 681,
      "unction": 682,
      "onse": 683,
      "Ġro": 684,
      "ument": 685,
      "ameter": 686,
      "Ġla": 687,
      "valid": 688,
      "der": 689,
      "ĠM": 690,
      "log": 691,
      "ĊĠ": 692,
      "ule": 693,
      "dir": 694,
      "Ġwe": 695,
      "om": 696,
      "ssage": 697,
      "umb": 698,
      "Ġnew": 699,
      "Ġ'''": 700,
      "ary": 701,
      "return": 702,
      "Ġare": 703,
      "Ġpath": 704,
      "bo": 705,
      "size": 706,
      "version": 707,
      "hape": 708,
      "ans": 709,
      "ign": 710,
      "Ġobject": 711,
      "lit": 712,
      "Ġpre": 713,
      "Ġexcept": 714,
      "``": 715,
      "ĊĠĠĠĠĠĠĠĠĠĠĠĠĠĠĠĠĠĠĠĠĠĠĠĠĠĠĠĠĠĠĠĠĠĠĠĠ": 716,
      "ps": 717,
      "==": 718,
      "ĠFalse": 719,
      "ssion": 720,
      "ator": 721,
      "Ġos": 722,
      "port": 723,
      "vent": 724,
      "ample": 725,
      "rint": 726,
      "ild": 727,
      "Ġint": 728,
      "alue": 729,
      "Ġun": 730,
      "ded": 731,
      "ca": 732,
      "sponse": 733,
      "ari": 734,
      "ĠL": 735,
      "ĠReturn": 736,
      "Ġstring": 737,
      "Ġ``": 738,
      "ork": 739,
      "ys": 740,
      "Ġ[]": 741,
      "ĠR": 742,
      "attr": 743,
      "bel": 744,
      "In": 745,
      "class": 746,
      "Ġall": 747,
      "config": 748,
      "Ċĉ": 749,
      "umber": 750,
      "ken": 751,
      "Ġk": 752,
      "min": 753,
      "'.": 754,
      "lement": 755,
      "cal": 756,
      "True": 757,
      "ery": 758,
      "ĠIf": 759,
      "ception": 760,
      "\":": 761,
      "load": 762,
      "index": 763,
      "peci": 764,
      "[\"": 765,
      "():": 766,
      "ant": 767,
      "Ġ)": 768,
      ".\"\"\"": 769,
      "pla": 770,
      "ĠO": 771,
      "start": 772,
      "##": 773,
      "fe": 774,
      "fa": 775,
      "Ġcont": 776,
      "ph": 777,
      "ave": 778,
      "lock": 779,
      "string": 780,
      "ore": 781,
      "Ġhas": 782,
      "mage": 783,
      ".__": 784,
      "ĠG": 785,
      "!=": 786,
      "update": 787,
      "join": 788,
      "Ġcur": 789,
      "heck": 790,
      "ĠĠĠĠĠĠ": 791,
      "line": 792,
      "cur": 793,
      "unc": 794,
      "Ġwill": 795,
      "son": 796,
      "Ġrequest": 797,
      "Ġ!=": 798,
      "cation": 799,
      "ns": 800,
      "ne": 801,
      "--------": 802,
      "ated": 803,
      "ĠU": 804,
      "loat": 805,
      "Ġline": 806,
      "tain": 807,
      "].": 808,
      "ER": 809,
      "array": 810,
      "mat": 811,
      "Ġj": 812,
      "Ġdefault": 813,
      "Ġid": 814,
      "vice": 815,
      "query": 816,
      "gument": 817,
      "Ġdo": 818,
      "arget": 819,
      "Ġpo": 820,
      "ial": 821,
      "False": 822,
      "node": 823,
      "ĠW": 824,
      "tra": 825,
      "count": 826,
      "split": 827,
      "Ġdict": 828,
      "gth": 829,
      "ag": 830,
      "Ġfil": 831,
      "Ġ+=": 832,
      "ener": 833,
      "ste": 834,
      "mmand": 835,
      "Ġfunction": 836,
      "ĠB": 837,
      "Ġmethod": 838,
      "ĠValue": 839,
      "if": 840,
      "lin": 841,
      "atus": 842,
      "Ġnode": 843,
      "Ġbo": 844,
      "trib": 845,
      "max": 846,
      "sen": 847,
      "lient": 848,
      "Ġuser": 849,
      "ĠReturns": 850,
      "Ġ/": 851,
      "sh": 852,
      "ies": 853,
      "\"]": 854,
      "ON": 855,
      "ok": 856,
      "Ġadd": 857,
      "rite": 858,
      "mport": 859,
      "ann": 860,
      "Ġconfig": 861,
      "ask": 862,
      "sert": 863,
      "Ġle": 864,
      "Ġ>>": 865,
      "ĠValueError": 866,
      "ting": 867,
      "base": 868,
      "Ġsub": 869,
      "lot": 870,
      "Ġoption": 871,
      "obj": 872,
      "ight": 873,
      "ir": 874,
      "uld": 875,
      "ty": 876,
      "ameters": 877,
      "odule": 878,
      "word": 879,
      "ard": 880,
      "uth": 881,
      "ther": 882,
      "Ġprint": 883,
      "scri": 884,
      "back": 885,
      "fix": 886,
      "Ġte": 887,
      "da": 888,
      "Ġspeci": 889,
      "ll": 890,
      "Ġkwargs": 891,
      "Con": 892,
      "yn": 893,
      "Ġmax": 894,
      "Ġoutput": 895,
      "Ġfield": 896,
      "ress": 897,
      "Ġ>>>": 898,
      "Ġcomp": 899,
      "shape": 900,
      "Ġne": 901,
      "by": 902,
      "Ġuse": 903,
      "bug": 904,
      "Ġ\\": 905,
      ":`": 906,
      "field": 907,
      "Ġargs": 908,
      "IN": 909,
      "\".": 910,
      "pos": 911,
      "user": 912,
      "ifi": 913,
      "state": 914,
      "group": 915,
      "ader": 916,
      "Ġ3": 917,
      "ĠĠĠĠĠĠĠĠĠĠĠ": 918,
      "iven": 919,
      "Ġstart": 920,
      "([": 921,
      "ab": 922,
      "uple": 923,
      "mpl": 924,
      "Ġite": 925,
      "**": 926,
      "rame": 927,
      "ml": 928,
      "gra": 929,
      "ree": 930,
      "Ġerror": 931,
      "point": 932,
      "map": 933,
      "=\"": 934,
      "mit": 935,
      "his": 936,
      "own": 937,
      "vert": 938,
      "qui": 939,
      "ec": 940,
      "Ġresponse": 941,
      "cord": 942,
      "ump": 943,
      "Ġvalues": 944,
      "{}": 945,
      "AT": 946,
      "vel": 947,
      "arch": 948,
      "ĊĠĠĠĠĠĠĠĠĠĠĠĠĠĠĠĠĠĠĠĠĠĠĠĠĠĠĠ": 949,
      "sub": 950,
      "ĠH": 951,
      "Ġrange": 952,
      "rst": 953,
      "ac": 954,
      "lic": 955,
      "md": 956,
      "Ġno": 957,
      "Ġapp": 958,
      "values": 959,
      "RE": 960,
      "Ġcan": 961,
      "wa": 962,
      "ket": 963,
      "Ġz": 964,
      "request": 965,
      "model": 966,
      "Ġindex": 967,
      "Ġinput": 968,
      "[:": 969,
      "Ġcheck": 970,
      "Ġso": 971,
      "ls": 972,
      "result": 973,
      "())": 974,
      "ning": 975,
      "ang": 976,
      "ST": 977,
      "ug": 978,
      "Ġli": 979,
      "Ex": 980,
      "ĠEx": 981,
      "params": 982,
      "work": 983,
      "Ġgiven": 984,
      "Ġparam": 985,
      "comp": 986,
      "ten": 987,
      "iter": 988,
      "from": 989,
      "Ġret": 990,
      "act": 991,
      "Ġmodel": 992,
      "items": 993,
      "Ġcall": 994,
      "ory": 995,
      "ĠThis": 996,
      "with": 997,
      "its": 998,
      "ep": 999,
      "default": 1000,
      "stri": 1001,
      "ull": 1002,
      "place": 1003,
      "tern": 1004,
      "ĠIn": 1005,
      "we": 1006,
      "ude": 1007,
      "uct": 1008,
      "Ġend": 1009,
      "debug": 1010,
      "ound": 1011,
      "Ġcurrent": 1012,
      "Ġtr": 1013,
      "Ġimport": 1014,
      "ates": 1015,
      "lat": 1016,
      "cs": 1017,
      "Ġmust": 1018,
      "Ġax": 1019,
      "Ġmessage": 1020,
      "ations": 1021,
      "ariable": 1022,
      "spa": 1023,
      "Ġnumber": 1024,
      "Ġop": 1025,
      "ils": 1026,
      "ds": 1027,
      "ich": 1028,
      "ax": 1029,
      "Ġac": 1030,
      "Ġinstance": 1031,
      "pect": 1032,
      "ach": 1033,
      "ses": 1034,
      "row": 1035,
      "object": 1036,
      "np": 1037,
      "Ġbase": 1038,
      "'):": 1039,
      "for": 1040,
      "ding": 1041,
      "Ġ..": 1042,
      "tent": 1043,
      "Ġurl": 1044,
      "ron": 1045,
      "ĊĠĠĠĠĠĠĠĠĠ": 1046,
      "label": 1047,
      "Ġone": 1048,
      "ject": 1049,
      "Ġ|": 1050,
      "num": 1051,
      "Ġspecifi": 1052,
      "move": 1053,
      "option": 1054,
      "ts": 1055,
      "tp": 1056,
      "Ġfa": 1057,
      "Ġcontain": 1058,
      "func": 1059,
      "Ġser": 1060,
      "ctory": 1061,
      "'s": 1062,
      "Ġper": 1063,
      "inter": 1064,
      "quen": 1065,
      "Ġarray": 1066,
      "Ġfloat": 1067,
      "arg": 1068,
      "ote": 1069,
      "bs": 1070,
      "hould": 1071,
      "ream": 1072,
      "Ġcreate": 1073,
      "keys": 1074,
      "tes": 1075,
      "Ġca": 1076,
      "write": 1077,
      "Ġtext": 1078,
      "call": 1079,
      "Type": 1080,
      "Ġmin": 1081,
      "sing": 1082,
      "Ġbu": 1083,
      "reg": 1084,
      "'t": 1085,
      "com": 1086,
      "umn": 1087,
      "Ġpass": 1088,
      "ature": 1089,
      "Ġwhich": 1090,
      "andle": 1091,
      "Ġsup": 1092,
      "be": 1093,
      "json": 1094,
      "lay": 1095,
      "Ġformat": 1096,
      "Ġused": 1097,
      "filen": 1098,
      "Ġversion": 1099,
      "Ġdire": 1100,
      "Ġonly": 1101,
      "space": 1102,
      "Ġhave": 1103,
      "Ġitem": 1104,
      "][": 1105,
      "ield": 1106,
      "Ġvalid": 1107,
      "Ġent": 1108,
      "ix": 1109,
      "01": 1110,
      "LE": 1111,
      "sor": 1112,
      "idth": 1113,
      "ak": 1114,
      "((": 1115,
      "Ġmatch": 1116,
      "Ġcal": 1117,
      "ost": 1118,
      "Ġdis": 1119,
      "names": 1120,
      "fil": 1121,
      "run": 1122,
      "ctions": 1123,
      "ref": 1124,
      "og": 1125,
      "df": 1126,
      "filename": 1127,
      "ename": 1128,
      "Ġrun": 1129,
      "Ġlogger": 1130,
      "Ġargument": 1131,
      "Ġcode": 1132,
      "Ġlin": 1133,
      "Ġstate": 1134,
      "Ġreg": 1135,
      "Ġsu": 1136,
      "Ġshould": 1137,
      "alt": 1138,
      "Ċĉĉ": 1139,
      "Ġrow": 1140,
      "Ġsh": 1141,
      "gn": 1142,
      "ID": 1143,
      "aders": 1144,
      "Ġassert": 1145,
      "ou": 1146,
      "parse": 1147,
      "ally": 1148,
      "OR": 1149,
      "Ġevent": 1150,
      "output": 1151,
      "Ġparams": 1152,
      "token": 1153,
      "input": 1154,
      "Name": 1155,
      "Ġexist": 1156,
      "status": 1157,
      "====": 1158,
      "not": 1159,
      "ft": 1160,
      "Ġpy": 1161,
      "Ġtarget": 1162,
      "ME": 1163,
      "Ke": 1164,
      "Ġmat": 1165,
      "Ġquery": 1166,
      "Ġ}": 1167,
      "andl": 1168,
      "tribute": 1169,
      "lob": 1170,
      "mplate": 1171,
      "new": 1172,
      "nd": 1173,
      "'],": 1174,
      "Ġinter": 1175,
      "sum": 1176,
      "Ġnum": 1177,
      "message": 1178,
      "Ġimage": 1179,
      "Ġdate": 1180,
      "Ġpos": 1181,
      "Ġother": 1182,
      "().": 1183,
      "thon": 1184,
      "ments": 1185,
      "//": 1186,
      "Ġpart": 1187,
      "####": 1188,
      "check": 1189,
      "types": 1190,
      "item": 1191,
      "method": 1192,
      "adata": 1193,
      "Ġany": 1194,
      "led": 1195,
      "Ġsource": 1196,
      "ef": 1197,
      "lect": 1198,
      "Ġfirst": 1199,
      "rid": 1200,
      "ins": 1201,
      "Ġread": 1202,
      "pts": 1203,
      "Ġ4": 1204,
      "Ġtuple": 1205,
      "Ġsize": 1206,
      "table": 1207,
      "feren": 1208,
      "St": 1209,
      "Ġ@": 1210,
      "ution": 1211,
      "rc": 1212,
      "sk": 1213,
      "Ġgroup": 1214,
      "lib": 1215,
      "lable": 1216,
      "Ġup": 1217,
      "Ġeach": 1218,
      "itle": 1219,
      "annel": 1220,
      "sg": 1221,
      "view": 1222,
      "'])": 1223,
      "nection": 1224,
      "clude": 1225,
      "DE": 1226,
      "filter": 1227,
      "var": 1228,
      "ched": 1229,
      "Ġfilename": 1230,
      "Ġclass": 1231,
      "so": 1232,
      "block": 1233,
      "source": 1234,
      "here": 1235,
      "Key": 1236,
      "Ġtoken": 1237,
      "Ġtrans": 1238,
      "Ġelement": 1239,
      "arning": 1240,
      "ual": 1241,
      "Ġcontin": 1242,
      "Co": 1243,
      "ght": 1244,
      "api": 1245,
      "Ġopen": 1246,
      "main": 1247,
      "Ġcommand": 1248,
      "length": 1249,
      "sy": 1250,
      "unk": 1251,
      "pec": 1252,
      "ide": 1253,
      "Ġsp": 1254,
      "Ġwhile": 1255,
      "try": 1256,
      "ĠPar": 1257,
      "Ġtra": 1258,
      "Ġobj": 1259,
      "net": 1260,
      "Ġ{'": 1261,
      "old": 1262,
      "ĠAr": 1263,
      "://": 1264,
      "av": 1265,
      "(),": 1266,
      ")))": 1267,
      "rix": 1268,
      "use": 1269,
      "inal": 1270,
      "]:": 1271,
      "Ġlabel": 1272,
      "pop": 1273,
      "tadata": 1274,
      "doc": 1275,
      "Ġover": 1276,
      "Ġbool": 1277,
      "ical": 1278,
      "match": 1279,
      "off": 1280,
      "module": 1281,
      "has": 1282,
      "Ġ--------": 1283,
      "Ġcontent": 1284,
      "ody": 1285,
      "uration": 1286,
      "Ġwhen": 1287,
      "no": 1288,
      "Ġspecified": 1289,
      "Ġ__": 1290,
      "event": 1291,
      "content": 1292,
      "ids": 1293,
      "ĠX": 1294,
      "Ġfound": 1295,
      "ĊĊĠĠĠĠĠĠĠĠĠĠĠĠĠĠĠ": 1296,
      "Ġcontinue": 1297,
      "tings": 1298,
      "Data": 1299,
      "ĠCon": 1300,
      "host": 1301,
      "oth": 1302,
      "Ġinto": 1303,
      "client": 1304,
      "process": 1305,
      "AR": 1306,
      "[-": 1307,
      "umpy": 1308,
      "mi": 1309,
      "utes": 1310,
      "SE": 1311,
      "ong": 1312,
      "amp": 1313,
      "scription": 1314,
      "AL": 1315,
      "Ġupdate": 1316,
      "orre": 1317,
      "(*": 1318,
      "job": 1319,
      "create": 1320,
      "response": 1321,
      "msg": 1322,
      "raw": 1323,
      "image": 1324,
      "err": 1325,
      "itial": 1326,
      "Par": 1327,
      "rtype": 1328,
      "Ġpl": 1329,
      "plot": 1330,
      "ted": 1331,
      "do": 1332,
      "Ġpoint": 1333,
      "umns": 1334,
      "lete": 1335,
      "ackage": 1336,
      "Ġfiles": 1337,
      "amples": 1338,
      "idx": 1339,
      "Ġ->": 1340,
      "action": 1341,
      "face": 1342,
      "ark": 1343,
      "find": 1344,
      "ures": 1345,
      "ast": 1346,
      "files": 1347,
      "target": 1348,
      "Ġdoc": 1349,
      "mt": 1350,
      "ging": 1351,
      "AN": 1352,
      "Ġtable": 1353,
      "ped": 1354,
      "stem": 1355,
      "andler": 1356,
      "Ġmsg": 1357,
      "Return": 1358,
      "ries": 1359,
      "nect": 1360,
      "cre": 1361,
      "ctionary": 1362,
      "čĊĠĠĠĠĠĠĠ": 1363,
      "ors": 1364,
      "swith": 1365,
      "onent": 1366,
      ")):": 1367,
      "ume": 1368,
      "ay": 1369,
      "dis": 1370,
      "Pro": 1371,
      "cent": 1372,
      "db": 1373,
      "PI": 1374,
      "ormal": 1375,
      "Ġval": 1376,
      "ai": 1377,
      "andom": 1378,
      "trans": 1379,
      "clo": 1380,
      "mbda": 1381,
      "float": 1382,
      "cy": 1383,
      "lean": 1384,
      "Ġgener": 1385,
      "Ġcls": 1386,
      "utils": 1387,
      "Id": 1388,
      "Ġlength": 1389,
      "Ġht": 1390,
      "Ġiter": 1391,
      "Ġsy": 1392,
      "ference": 1393,
      "mpty": 1394,
      "core": 1395,
      "pr": 1396,
      "men": 1397,
      "Ġdoes": 1398,
      "ous": 1399,
      "tag": 1400,
      "Ġcontext": 1401,
      "Ġfilter": 1402,
      "dire": 1403,
      "ats": 1404,
      "::": 1405,
      "ized": 1406,
      "context": 1407,
      "Ġbut": 1408,
      "10": 1409,
      "replace": 1410,
      "Ġmodule": 1411,
      ")]": 1412,
      "auth": 1413,
      "strip": 1414,
      "Ġvariable": 1415,
      "indow": 1416,
      "lection": 1417,
      "Ġparent": 1418,
      "otal": 1419,
      "range": 1420,
      "chema": 1421,
      "quence": 1422,
      "Ġ['": 1423,
      "Ġsort": 1424,
      "tx": 1425,
      "ches": 1426,
      "cls": 1427,
      "pri": 1428,
      "Ġwork": 1429,
      "level": 1430,
      "Ġsign": 1431,
      "lp": 1432,
      "cket": 1433,
      "command": 1434,
      "ld": 1435,
      "Ġrequi": 1436,
      "TE": 1437,
      "Ġjson": 1438,
      "pping": 1439,
      "rial": 1440,
      "of": 1441,
      "Ġgra": 1442,
      "Ġta": 1443,
      "Ġsys": 1444,
      "link": 1445,
      "Se": 1446,
      "ible": 1447,
      "Ġarg": 1448,
      "Ġtf": 1449,
      "lines": 1450,
      "ap": 1451,
      "Ġthen": 1452,
      "Ġusing": 1453,
      "root": 1454,
      "Res": 1455,
      "Ġcount": 1456,
      "ĠJ": 1457,
      "lower": 1458,
      "Ġmo": 1459,
      "Ġver": 1460,
      "io": 1461,
      "Ġresults": 1462,
      "Ġ.": 1463,
      "ĊĠĠĠĠĠĠĠĠĠĠĠĠĠĠĠĠĠĠĠĠĠĠĠĠĠĠĠĠĠĠĠ": 1464,
      "Ġass": 1465,
      "Ġblock": 1466,
      "pl": 1467,
      "Ġfe": 1468,
      "Ġoff": 1469,
      "Ġyield": 1470,
      "Ġ>=": 1471,
      "Ġlast": 1472,
      "sent": 1473,
      "options": 1474,
      "sign": 1475,
      "reak": 1476,
      "cul": 1477,
      "ick": 1478,
      "Get": 1479,
      "Ġoptions": 1480,
      "Ġhasattr": 1481,
      "right": 1482,
      "TI": 1483,
      "session": 1484,
      "Ġ<=": 1485,
      "su": 1486,
      "Ġclient": 1487,
      "resh": 1488,
      "coding": 1489,
      "Ġq": 1490,
      "Ġdefin": 1491,
      "Ġ('": 1492,
      "ĠQ": 1493,
      "Ġmake": 1494,
      "part": 1495,
      "'))": 1496,
      "File": 1497,
      "ĠException": 1498,
      "---": 1499,
      "cond": 1500,
      "copy": 1501,
      "Ġoptional": 1502,
      "Element": 1503,
      "iled": 1504,
      "PE": 1505,
      "width": 1506,
      "fore": 1507,
      "loc": 1508,
      "ready": 1509,
      "number": 1510,
      "current": 1511,
      "Ġdictionary": 1512,
      "ify": 1513,
      "mode": 1514,
      "ved": 1515,
      "Ġfunc": 1516,
      "Ġsc": 1517,
      "igh": 1518,
      "queue": 1519,
      "Ġwas": 1520,
      "Ġrecord": 1521,
      "viron": 1522,
      "rt": 1523,
      "64": 1524,
      "32": 1525,
      "ĠSe": 1526,
      "Ġpri": 1527,
      "Ġresource": 1528,
      "play": 1529,
      "Ġreturns": 1530,
      "ĠType": 1531,
      "Ġ----": 1532,
      "Ġparameters": 1533,
      "Ġqu": 1534,
      "attern": 1535,
      "ccess": 1536,
      "Ġchar": 1537,
      "ffer": 1538,
      "Ġprocess": 1539,
      "`.": 1540,
      "pend": 1541,
      "iss": 1542,
      "Ġmode": 1543,
      "Ġhost": 1544,
      "Ġuni": 1545,
      "Ġ5": 1546,
      "cache": 1547,
      "function": 1548,
      "Ġact": 1549,
      "ud": 1550,
      "ync": 1551,
      "ran": 1552,
      "prefix": 1553,
      "Ġneed": 1554,
      "parent": 1555,
      "Ġorder": 1556,
      "Ġextra": 1557,
      "Ġ--": 1558,
      "Ġav": 1559,
      "Ġstatus": 1560,
      "temp": 1561,
      "frame": 1562,
      "Ġaxis": 1563,
      "ating": 1564,
      "ĠY": 1565,
      "gen": 1566,
      "man": 1567,
      "Ġcase": 1568,
      "ĠArgs": 1569,
      "ifier": 1570,
      "Ġback": 1571,
      "Ġarguments": 1572,
      "color": 1573,
      "cmd": 1574,
      "ĠParameters": 1575,
      "Set": 1576,
      "Ġ...": 1577,
      "fields": 1578,
      "req": 1579,
      "Ġauth": 1580,
      "stamp": 1581,
      "Ġparameter": 1582,
      "Ġnames": 1583,
      "Ġenum": 1584,
      "order": 1585,
      "axis": 1586,
      "Ġoper": 1587,
      "Ġcorre": 1588,
      "Ġnext": 1589,
      "Ġchange": 1590,
      "ateg": 1591,
      "ĊĠĠĠĠĠĠĠĠĠĠ": 1592,
      "Ġsame": 1593,
      "Ġcolumn": 1594,
      "exist": 1595,
      "Ġprovi": 1596,
      "Ġparser": 1597,
      "Ġtask": 1598,
      "fter": 1599,
      "annot": 1600,
      "Ġdtype": 1601,
      "AC": 1602,
      "uri": 1603,
      "Ġtag": 1604,
      "Ġshape": 1605,
      "Ġheader": 1606,
      "last": 1607,
      "child": 1608,
      "Ġ'.": 1609,
      "Ġgetattr": 1610,
      "Ġchild": 1611,
      "List": 1612,
      "xy": 1613,
      "Ar": 1614,
      "resource": 1615,
      "zer": 1616,
      "search": 1617,
      "Ġed": 1618,
      "are": 1619,
      "rit": 1620,
      "Ġad": 1621,
      "lobal": 1622,
      "EN": 1623,
      "imum": 1624,
      "ols": 1625,
      "Ġdirectory": 1626,
      "ert": 1627,
      "store": 1628,
      "Ġyou": 1629,
      "Ġmult": 1630,
      "Ġnet": 1631,
      "cor": 1632,
      "Ġnumpy": 1633,
      "limit": 1634,
      "comm": 1635,
      "Ġindi": 1636,
      "header": 1637,
      "ĠCo": 1638,
      "formation": 1639,
      "change": 1640,
      "Ġproper": 1641,
      "De": 1642,
      "']:": 1643,
      "'].": 1644,
      "Ġlocal": 1645,
      "ib": 1646,
      "itions": 1647,
      "Ġaction": 1648,
      "ome": 1649,
      "vid": 1650,
      "})": 1651,
      "(_": 1652,
      "ain": 1653,
      "ative": 1654,
      ".')": 1655,
      "Ġserver": 1656,
      "SI": 1657,
      "Ġkeys": 1658,
      "tributes": 1659,
      "Ġ----------": 1660,
      "pper": 1661,
      "pth": 1662,
      "OD": 1663,
      "element": 1664,
      "Ġbreak": 1665,
      "address": 1666,
      "older": 1667,
      "FI": 1668,
      "open": 1669,
      "rap": 1670,
      "erate": 1671,
      "les": 1672,
      "Ġtimeout": 1673,
      "Ġdf": 1674,
      "Ġfind": 1675,
      "lta": 1676,
      "Ġcolor": 1677,
      "Un": 1678,
      "Exception": 1679,
      ".\")": 1680,
      "Ġport": 1681,
      "Ġplot": 1682,
      "'),": 1683,
      "RL": 1684,
      "local": 1685,
      "Ġdiff": 1686,
      "ĠĠĠĠĠĠĠĠĠĠĠĠĠĠĠ": 1687,
      "Ġattr": 1688,
      "http": 1689,
      "uid": 1690,
      "To": 1691,
      "ner": 1692,
      "wise": 1693,
      "Ġalready": 1694,
      "offset": 1695,
      "Ġparse": 1696,
      "LO": 1697,
      "Ġcmd": 1698,
      "12": 1699,
      "vis": 1700,
      "print": 1701,
      "startswith": 1702,
      "Ġroot": 1703,
      "Di": 1704,
      "ĊĊĠ": 1705,
      "task": 1706,
      "Me": 1707,
      "graph": 1708,
      "ĠGet": 1709,
      "ĊĠĠĠĠĠĠĠĠĠĠĠĠĠĠĠĠĠĠĠĠĠĠĠĠĠĠĠĠĠĠĠĠĠĠĠĠĠĠĠĠĠĠĠĠĠĠĠĠĠĠĠĠ": 1710,
      "raise": 1711,
      "Ġload": 1712,
      "ization": 1713,
      "ell": 1714,
      "Ġsession": 1715,
      "Ġinfo": 1716,
      "stream": 1717,
      "Ġthan": 1718,
      "server": 1719,
      "Ġpage": 1720,
      "Ġ\"\"": 1721,
      "ailable": 1722,
      "ĊĠĠĠĠĠĠĠĠĠĠĠĠĠ": 1723,
      ":]": 1724,
      "Ġorig": 1725,
      "GE": 1726,
      "Ġfla": 1727,
      "Ġallow": 1728,
      "top": 1729,
      "ster": 1730,
      "fn": 1731,
      "exec": 1732,
      "uto": 1733,
      "env": 1734,
      "pected": 1735,
      "ister": 1736,
      "ingle": 1737,
      "argument": 1738,
      "ĠTypeError": 1739,
      "Ġwhere": 1740,
      "na": 1741,
      "TP": 1742,
      "vector": 1743,
      "yload": 1744,
      "dim": 1745,
      "Value": 1746,
      "Ġheaders": 1747,
      "RO": 1748,
      "lease": 1749,
      "struct": 1750,
      "scal": 1751,
      "Ġoffset": 1752,
      "Ġ'%": 1753,
      "wait": 1754,
      "mension": 1755,
      "Ġreturned": 1756,
      "En": 1757,
      "Ġref": 1758,
      "ties": 1759,
      "Ġword": 1760,
      "ustom": 1761,
      "]]": 1762,
      "du": 1763,
      "exp": 1764,
      "Ġlay": 1765,
      "lication": 1766,
      "char": 1767,
      "Ġinte": 1768,
      "den": 1769,
      "title": 1770,
      "script": 1771,
      "cope": 1772,
      "mask": 1773,
      "Ġsupport": 1774,
      "conds": 1775,
      "Ġenumerate": 1776,
      "Ġsalt": 1777,
      "ager": 1778,
      "pass": 1779,
      "Ġthere": 1780,
      "record": 1781,
      "util": 1782,
      "pha": 1783,
      "ocket": 1784,
      "cli": 1785,
      "Ġfields": 1786,
      "page": 1787,
      "Ġident": 1788,
      "atures": 1789,
      "Ġexception": 1790,
      "returns": 1791,
      "uni": 1792,
      "Ġbytes": 1793,
      "init": 1794,
      "Ġlines": 1795,
      "Ġentry": 1796,
      "uster": 1797,
      "']['": 1798,
      "Ġtest": 1799,
      "bytes": 1800,
      "Ġrepre": 1801,
      "Ġmore": 1802,
      ")[": 1803,
      "ĠID": 1804,
      "tree": 1805,
      "},": 1806,
      "mplement": 1807,
      "Ġlevel": 1808,
      "Ġ-------": 1809,
      "dtype": 1810,
      "Ġag": 1811,
      "mary": 1812,
      "Ġlogging": 1813,
      "ĠAn": 1814,
      "mail": 1815,
      "ternal": 1816,
      "\"):": 1817,
      "Ġdest": 1818,
      "Ġnon": 1819,
      "Ġ&": 1820,
      "handle": 1821,
      "tps": 1822,
      "yle": 1823,
      "Ġservice": 1824,
      "hash": 1825,
      "Ġsingle": 1826,
      "mote": 1827,
      "Ġdatetime": 1828,
      "Ġtemp": 1829,
      "encode": 1830,
      "las": 1831,
      "exists": 1832,
      "Ġprefix": 1833,
      "efault": 1834,
      "[:,": 1835,
      "Ġcache": 1836,
      "ose": 1837,
      "SS": 1838,
      "ĠKey": 1839,
      "Ġscal": 1840,
      "points": 1841,
      "mag": 1842,
      "Ġjob": 1843,
      "Ġtemplate": 1844,
      "Ġlimit": 1845,
      "test": 1846,
      "Ġtw": 1847,
      "erge": 1848,
      "exception": 1849,
      "project": 1850,
      "mission": 1851,
      "ĊĠĠĠĠĠĠĠĠĠĠĠĠĠĠĠĠĠĠĠĠĠĠĠĠĠĠĠĠĠĠĠĠĠĠĠĠĠĠĠĠĠĠĠĠ": 1852,
      "Ġman": 1853,
      "contain": 1854,
      "Ġsearch": 1855,
      "Ġsum": 1856,
      "headers": 1857,
      "Ġstream": 1858,
      "mon": 1859,
      "gram": 1860,
      "ĊĠĠĠĠĠĠĠĠĠĠĠĠĠĠĠĠ": 1861,
      "Ġexec": 1862,
      "flow": 1863,
      "std": 1864,
      "Ġconvert": 1865,
      "like": 1866,
      "]))": 1867,
      "round": 1868,
      "Ġexp": 1869,
      "gment": 1870,
      "Ġform": 1871,
      "Ġpas": 1872,
      "Sub": 1873,
      "cat": 1874,
      "sort": 1875,
      "CO": 1876,
      "ĠWe": 1877,
      "Ġcl": 1878,
      "Ġ''": 1879,
      "Ġbet": 1880,
      "remove": 1881,
      "Frame": 1882,
      "Ser": 1883,
      "ice": 1884,
      "Ġobjects": 1885,
      "metadata": 1886,
      "ear": 1887,
      "Ġmay": 1888,
      "bin": 1889,
      "datetime": 1890,
      "gener": 1891,
      "Ġhelp": 1892,
      "send": 1893,
      "box": 1894,
      "ont": 1895,
      "UL": 1896,
      "nodes": 1897,
      "Ġprovided": 1898,
      "rapper": 1899,
      "Ġproject": 1900,
      "ĠET": 1901,
      "term": 1902,
      "({": 1903,
      "stack": 1904,
      "sq": 1905,
      "Ġhandle": 1906,
      "bro": 1907,
      "########": 1908,
      "parser": 1909,
      "ident": 1910,
      "ities": 1911,
      "bose": 1912,
      "Ġattribute": 1913,
      "location": 1914,
      "channel": 1915,
      "Ġsome": 1916,
      "Ġitems": 1917,
      "000": 1918,
      "MA": 1919,
      "Ġcopy": 1920,
      "build": 1921,
      "...": 1922,
      "Ġcoord": 1923,
      "the": 1924,
      "stant": 1925,
      "Ġcallback": 1926,
      "nown": 1927,
      "qual": 1928,
      "ML": 1929,
      "html": 1930,
      "Ġab": 1931,
      "ĠPy": 1932,
      "fla": 1933,
      "Ġvar": 1934,
      "ights": 1935,
      "ĠFor": 1936,
      "ween": 1937,
      "Ċĉĉĉ": 1938,
      "Ġph": 1939,
      "Ġold": 1940,
      "========": 1941,
      "service": 1942,
      "fy": 1943,
      "LI": 1944,
      "variable": 1945,
      "AD": 1946,
      "Ġsen": 1947,
      "logger": 1948,
      "99": 1949,
      "Ġvi": 1950,
      "ass": 1951,
      "spec": 1952,
      "timeout": 1953,
      "}'.": 1954,
      "Ġign": 1955,
      "tuple": 1956,
      "gr": 1957,
      "Ġ6": 1958,
      "lambda": 1959,
      "Ġremove": 1960,
      "connect": 1961,
      "ĠSet": 1962,
      "Ġinformation": 1963,
      "template": 1964,
      "Ġinclude": 1965,
      "utf": 1966,
      "tric": 1967,
      "Ġmap": 1968,
      "UT": 1969,
      "ĊĠĠĠĠĠĠ": 1970,
      "arn": 1971,
      "close": 1972,
      "idget": 1973,
      "post": 1974,
      "Str": 1975,
      "verse": 1976,
      "Ġerrors": 1977,
      "Ġ10": 1978,
      "ential": 1979,
      "mod": 1980,
      "orage": 1981,
      "ĠDe": 1982,
      "Ġsorted": 1983,
      "Ġpassed": 1984,
      "Ġempty": 1985,
      "ugh": 1986,
      "atic": 1987,
      "Ġsample": 1988,
      "wer": 1989,
      "Ġstruct": 1990,
      "iod": 1991,
      "Ġframe": 1992,
      "stra": 1993,
      "Ġrequired": 1994,
      "Ġtop": 1995,
      "ility": 1996,
      "ING": 1997,
      "Ġinitial": 1998,
      "lation": 1999,
      "Ġwrite": 2000,
      "ĊĠĠĠĠĠĠĠĠ": 2001,
      "TY": 2002,
      "bit": 2003,
      "Ġmatrix": 2004,
      "čĊĠĠĠĠĠĠĠĠĠĠĠ": 2005,
      "callback": 2006,
      "ĊĠĠĠĠĠĠĠĠĠĠĠĠĠĠĠĠĠ": 2007,
      "settings": 2008,
      "column": 2009,
      "Ġerr": 2010,
      "ux": 2011,
      "Ġlink": 2012,
      "25": 2013,
      "ĠData": 2014,
      "rs": 2015,
      "pression": 2016,
      "pol": 2017,
      "hether": 2018,
      "Ġlocation": 2019,
      "Ġaddress": 2020,
      "Ġits": 2021,
      "Ġbody": 2022,
      "RI": 2023,
      "Ġter": 2024,
      "xml": 2025,
      "Ġpackage": 2026,
      "ĊĠĠĠĠĠĠĠĠĠĠĠĠĠĠĠĠĠĠĠĠĠ": 2027,
      "Ġfull": 2028,
      "opts": 2029,
      "itor": 2030,
      "decode": 2031,
      "pk": 2032,
      "ĊĠĠĠĠĠĠĠĠĠĠĠĠĠĠĠĠĠĠĠĠĠĠĠĠ": 2033,
      "vals": 2034,
      "izer": 2035,
      "Ġmetadata": 2036,
      "ĠCheck": 2037,
      "down": 2038,
      "cf": 2039,
      "={": 2040,
      "----------------": 2041,
      "Ġafter": 2042,
      "ges": 2043,
      "Ġgen": 2044,
      "go": 2045,
      "pack": 2046,
      "Ġcomm": 2047,
      "olume": 2048,
      "Ġchunk": 2049,
      "body": 2050,
      "Ġsuper": 2051,
      "'''": 2052,
      "Ġclo": 2053,
      "ĠK": 2054,
      "Ġdb": 2055,
      "NA": 2056,
      "Ġraw": 2057,
      "serial": 2058,
      "The": 2059,
      "Ġbefore": 2060,
      "only": 2061,
      "]['": 2062,
      "lper": 2063,
      "cho": 2064,
      "Ġgraph": 2065,
      "next": 2066,
      "meta": 2067,
      "ĠAdd": 2068,
      "ollow": 2069,
      "columns": 2070,
      "Ġchannel": 2071,
      "Ġsk": 2072,
      "Time": 2073,
      "now": 2074,
      "licy": 2075,
      "grid": 2076,
      "ĊĠĠĠĠĠĠĠĠĠĠĠĠĠĠĠĠĠĠĠĠĠĠĠĠĠĠĠĠĠĠĠĠĠĠĠ": 2077,
      "cry": 2078,
      "Ġ8": 2079,
      "ward": 2080,
      "`,": 2081,
      "ĠCreate": 2082,
      "Ġposition": 2083,
      "seq": 2084,
      "Ġtotal": 2085,
      "mory": 2086,
      "Ġidx": 2087,
      "let": 2088,
      "delete": 2089,
      "proper": 2090,
      "Ġnormal": 2091,
      "coord": 2092,
      "results": 2093,
      "over": 2094,
      "Ġdataset": 2095,
      "ification": 2096,
      "si": 2097,
      "side": 2098,
      "abled": 2099,
      "Ġnamespace": 2100,
      "Ġali": 2101,
      "TTP": 2102,
      "mbol": 2103,
      "etch": 2104,
      "Ġcontaining": 2105,
      "bar": 2106,
      "Ġavailable": 2107,
      "Ġcomple": 2108,
      "pub": 2109,
      "ions": 2110,
      "other": 2111,
      "ensor": 2112,
      "Ġmask": 2113,
      "Ġinst": 2114,
      "Ġbetween": 2115,
      "mg": 2116,
      "Ġconnection": 2117,
      "sample": 2118,
      "fer": 2119,
      "step": 2120,
      "ank": 2121,
      "warning": 2122,
      "Ġapi": 2123,
      "entry": 2124,
      "ĠPro": 2125,
      "ret": 2126,
      "ariant": 2127,
      "Ġlook": 2128,
      "SON": 2129,
      "lice": 2130,
      "Ġext": 2131,
      "Ġexten": 2132,
      "est": 2133,
      "full": 2134,
      "Ġnodes": 2135,
      "Ġtri": 2136,
      "batch": 2137,
      "Ġ'/": 2138,
      "16": 2139,
      "Ġcolumns": 2140,
      "Ġbuild": 2141,
      "parameters": 2142,
      "ular": 2143,
      "cle": 2144,
      "ODO": 2145,
      "ination": 2146,
      "ĠList": 2147,
      "ither": 2148,
      "rop": 2149,
      "lasses": 2150,
      "Ġcom": 2151,
      "layer": 2152,
      "ĊĠĠĠĠĠĠĠĠĠĠĠĠĠĠĠĠĠĠ": 2153,
      "Ġdevice": 2154,
      "conf": 2155,
      "Ġ]": 2156,
      "Add": 2157,
      "labels": 2158,
      "mean": 2159,
      "ful": 2160,
      "matrix": 2161,
      "Ġnetwork": 2162,
      "ob": 2163,
      "Ġthread": 2164,
      "oper": 2165,
      "Ġbin": 2166,
      "difi": 2167,
      "cont": 2168,
      "Ġsequence": 2169,
      "').": 2170,
      "Ġtwo": 2171,
      "Ġwidth": 2172,
      "gex": 2173,
      "Ġsplit": 2174,
      "my": 2175,
      "Not": 2176,
      "extra": 2177,
      "ĠDefault": 2178,
      "(**": 2179,
      "ĠUn": 2180,
      "gest": 2181,
      "ics": 2182,
      "cp": 2183,
      "mber": 2184,
      "network": 2185,
      "Ġsettings": 2186,
      "Ġtitle": 2187,
      "ern": 2188,
      "ĊĠĠĠĠĠĠĠĠĠĠĠĠĠĠĠĠĠĠĠĠĠĠĠĠĠ": 2189,
      "ake": 2190,
      "Ġexists": 2191,
      "Ġbound": 2192,
      "CE": 2193,
      "Ch": 2194,
      "Ġlat": 2195,
      "UN": 2196,
      "ĠAPI": 2197,
      "bool": 2198,
      "container": 2199,
      "PO": 2200,
      "uage": 2201,
      "ens": 2202,
      "ash": 2203,
      "CH": 2204,
      "roll": 2205,
      "anguage": 2206,
      "Ġstep": 2207,
      "ttribute": 2208,
      "Ġdocument": 2209,
      "left": 2210,
      "Ġpassword": 2211,
      "ait": 2212,
      "sup": 2213,
      "section": 2214,
      "indi": 2215,
      ".,": 2216,
      "very": 2217,
      "Ġconfiguration": 2218,
      "ĊĠĠĠĠĠĠĠĠĠĠĠĠĠĠ": 2219,
      "0000": 2220,
      "riter": 2221,
      "issing": 2222,
      "Ġcalled": 2223,
      "Ġbeen": 2224,
      "=[": 2225,
      ".\"": 2226,
      "Col": 2227,
      "ored": 2228,
      "connection": 2229,
      "irs": 2230,
      "Ġrandom": 2231,
      "vices": 2232,
      "ugin": 2233,
      "istr": 2234,
      "derr": 2235,
      "Ġhash": 2236,
      "dered": 2237,
      "rol": 2238,
      "ĠSt": 2239,
      "iple": 2240,
      "Ġzip": 2241,
      "spon": 2242,
      "org": 2243,
      "``.": 2244,
      "zeros": 2245,
      "trie": 2246,
      "comment": 2247,
      "mark": 2248,
      "vironment": 2249,
      "Ġind": 2250,
      "mult": 2251,
      "description": 2252,
      "cade": 2253,
      "Ġpoints": 2254,
      "paths": 2255,
      "orig": 2256,
      "unter": 2257,
      "diff": 2258,
      "hed": 2259,
      "Ġdown": 2260,
      "'][": 2261,
      "Ġ'-": 2262,
      "system": 2263,
      "dist": 2264,
      "11": 2265,
      "pace": 2266,
      "comple": 2267,
      "random": 2268,
      "bound": 2269,
      "sa": 2270,
      "Ġencoding": 2271,
      "ponse": 2272,
      "gin": 2273,
      "objects": 2274,
      "save": 2275,
      "medi": 2276,
      "ĊĠĠĠĠĠĠĠĠĠĠĠĠĠĠĠĠĠĠĠĠĠĠ": 2277,
      "speci": 2278,
      "Ġcomponent": 2279,
      "ĠTODO": 2280,
      "src": 2281,
      "Ġfollow": 2282,
      "ript": 2283,
      "itude": 2284,
      "Ġdescription": 2285,
      "addr": 2286,
      "Ġpi": 2287,
      "Ġsee": 2288,
      "package": 2289,
      "\\\\": 2290,
      "tocol": 2291,
      "Ġstop": 2292,
      "vious": 2293,
      "Ġgo": 2294,
      "ffix": 2295,
      "No": 2296,
      "stop": 2297,
      "tails": 2298,
      "FA": 2299,
      "Ġcalcul": 2300,
      "Ġcli": 2301,
      "buffer": 2302,
      "ĠRa": 2303,
      "DI": 2304,
      "Invalid": 2305,
      "Ġtypes": 2306,
      "Ġsix": 2307,
      "Ġ\"%": 2308,
      "Path": 2309,
      "cate": 2310,
      "first": 2311,
      "Ġlib": 2312,
      "Ġenv": 2313,
      "FF": 2314,
      "MP": 2315,
      "olution": 2316,
      "Ġsave": 2317,
      "Dict": 2318,
      "Ġdiffe": 2319,
      ")),": 2320,
      "Ġtree": 2321,
      "ĠNot": 2322,
      "Ġbatch": 2323,
      "]):": 2324,
      "Ġlambda": 2325,
      "ride": 2326,
      "ATE": 2327,
      "Ġlike": 2328,
      "alog": 2329,
      "extend": 2330,
      "ĠLO": 2331,
      "ush": 2332,
      "dump": 2333,
      "Ġreference": 2334,
      "ĠRun": 2335,
      "Ġopt": 2336,
      "requi": 2337,
      "schema": 2338,
      "Ġcreated": 2339,
      "ĊĠĠĠĠĠĠĠĠĠĠĠĠĠĠĠĠĠĠĠĠĠĠĠĠĠĠ": 2340,
      "Ġextension": 2341,
      "Ġrequests": 2342,
      "reshold": 2343,
      "Ġsuccess": 2344,
      "vate": 2345,
      "Ġ'{": 2346,
      "Fa": 2347,
      "zip": 2348,
      "Ġplt": 2349,
      "abs": 2350,
      "Ġstd": 2351,
      "alid": 2352,
      "SubElement": 2353,
      "Ġright": 2354,
      "Ġdel": 2355,
      "Ġselect": 2356,
      "delta": 2357,
      "wh": 2358,
      "__['": 2359,
      "ĠOption": 2360,
      "groups": 2361,
      "olean": 2362,
      "ined": 2363,
      "ng": 2364,
      "handler": 2365,
      "Ġalso": 2366,
      "position": 2367,
      "Ġshow": 2368,
      "device": 2369,
      "ĠKeyError": 2370,
      "keep": 2371,
      "LA": 2372,
      "ĊĠĠĠĠĠĠĠĠĠĠĠĠĠĠĠĠĠĠĠĠĠĠĠĠĠĠĠĠĠ": 2373,
      "cies": 2374,
      "rows": 2375,
      "Ġhttp": 2376,
      "Ġcharact": 2377,
      "Ġjust": 2378,
      "Class": 2379,
      "alys": 2380,
      "Ġdimension": 2381,
      "Lo": 2382,
      "Ġsa": 2383,
      "Ġview": 2384,
      "scale": 2385,
      "CT": 2386,
      "Ġlayer": 2387,
      "profile": 2388,
      "stats": 2389,
      "Ġ'_": 2390,
      "Ġkeyword": 2391,
      "gress": 2392,
      "brocade": 2393,
      "Config": 2394,
      "olve": 2395,
      "=(": 2396,
      "password": 2397,
      "inst": 2398,
      "Ġlabels": 2399,
      "sys": 2400,
      "igma": 2401,
      "opt": 2402,
      "Ġthem": 2403,
      "ategory": 2404,
      "Ġschema": 2405,
      "Ġwant": 2406,
      "Ġdatabase": 2407,
      "active": 2408,
      "Ġforce": 2409,
      "pc": 2410,
      "thing": 2411,
      "ĠURL": 2412,
      "Ġinteger": 2413,
      "Ġnow": 2414,
      "Ġpayload": 2415,
      "Ġpub": 2416,
      "TYPE": 2417,
      "Ġdir": 2418,
      "Ġsrc": 2419,
      "ators": 2420,
      "CON": 2421,
      "Object": 2422,
      "ĠRaise": 2423,
      "zone": 2424,
      "Ġattributes": 2425,
      "Ġtmp": 2426,
      "access": 2427,
      "Ġmark": 2428,
      "Ġrule": 2429,
      "tf": 2430,
      "Ġotherwise": 2431,
      "pdate": 2432,
      "Ġreplace": 2433,
      "ranch": 2434,
      "tags": 2435,
      "rule": 2436,
      "ĠSee": 2437,
      "ince": 2438,
      "Ġ',": 2439,
      "Ġexc": 2440,
      "Ġfeature": 2441,
      "fl": 2442,
      "ves": 2443,
      "ence": 2444,
      "Ġpython": 2445,
      "ents": 2446,
      "}\".": 2447,
      "directory": 2448,
      "Ġdefined": 2449,
      "samples": 2450,
      "Ġmeta": 2451,
      "Ġglobal": 2452,
      "rans": 2453,
      "Ġob": 2454,
      "helper": 2455,
      "stead": 2456,
      "dataset": 2457,
      "Ġdepend": 2458,
      "clu": 2459,
      "ings": 2460,
      "Request": 2461,
      "aded": 2462,
      "04": 2463,
      "day": 2464,
      "ssible": 2465,
      "ek": 2466,
      "valu": 2467,
      "Ġexisting": 2468,
      "Ġbased": 2469,
      "duct": 2470,
      "entic": 2471,
      "Ġhandler": 2472,
      "Ġvector": 2473,
      "Ġhere": 2474,
      "rec": 2475,
      "itional": 2476,
      "exc": 2477,
      "cell": 2478,
      "crypt": 2479,
      "strib": 2480,
      "rel": 2481,
      "Ġpost": 2482,
      "OT": 2483,
      "select": 2484,
      "','": 2485,
      "Ġleft": 2486,
      "Create": 2487,
      "wd": 2488,
      "pen": 2489,
      "cause": 2490,
      "Ġpattern": 2491,
      "Ġaccess": 2492,
      "ĠLOG": 2493,
      "raph": 2494,
      "ĊĠĠĠĠĠĠĠĠĠĠĠĠĠĠĠĠĠĠĠĠĠĠĠĠĠĠĠĠĠĠĠĠ": 2495,
      "Ġopts": 2496,
      "ero": 2497,
      "sv": 2498,
      "med": 2499,
      "Ġstrings": 2500,
      "make": 2501,
      "Ġelements": 2502,
      "posit": 2503,
      "unit": 2504,
      "normal": 2505,
      "Ġpk": 2506,
      "rm": 2507,
      "pattern": 2508,
      "Ġpd": 2509,
      "direct": 2510,
      "salt": 2511,
      "EL": 2512,
      "NAME": 2513,
      "ias": 2514,
      "rate": 2515,
      "show": 2516,
      "IT": 2517,
      "TION": 2518,
      "Ġeither": 2519,
      "Ġfig": 2520,
      "Node": 2521,
      "dev": 2522,
      "Ġsend": 2523,
      "namespace": 2524,
      "style": 2525,
      "Ġprofile": 2526,
      "Ġoriginal": 2527,
      "Ġwhether": 2528,
      "Ġbyte": 2529,
      "Ġdon": 2530,
      "gor": 2531,
      "atter": 2532,
      "ULT": 2533,
      "eded": 2534,
      "txt": 2535,
      "rough": 2536,
      "ĠPython": 2537,
      "Ġdecor": 2538,
      "total": 2539,
      "fs": 2540,
      "ason": 2541,
      "ices": 2542,
      "alysis": 2543,
      "Ġwindow": 2544,
      "depth": 2545,
      "Ġunicode": 2546,
      "ĠJSON": 2547,
      "02": 2548,
      "chunk": 2549,
      "ĠDi": 2550,
      "gorith": 2551,
      "Ġignore": 2552,
      "height": 2553,
      "hist": 2554,
      "Ġip": 2555,
      "oci": 2556,
      "exit": 2557,
      "Ġrows": 2558,
      "dot": 2559,
      "Ġfin": 2560,
      "Po": 2561,
      "Ġdelete": 2562,
      "ET": 2563,
      "Ġabs": 2564,
      "Ġaccount": 2565,
      "ived": 2566,
      "ndarray": 2567,
      "dest": 2568,
      "Returns": 2569,
      "true": 2570,
      "Ġsection": 2571,
      "ven": 2572,
      "ily": 2573,
      "Ġ'\\": 2574,
      "redential": 2575,
      "Ġparsed": 2576,
      "username": 2577,
      "ww": 2578,
      "ton": 2579,
      "indices": 2580,
      "Ġskip": 2581,
      "ql": 2582,
      "mal": 2583,
      "Ġfn": 2584,
      "Ġcond": 2585,
      "timestamp": 2586,
      "Ġexample": 2587,
      "[:-": 2588,
      "Ġqueue": 2589,
      "Ġloop": 2590,
      "String": 2591,
      "tmp": 2592,
      "Ġcontainer": 2593,
      "Index": 2594,
      "rary": 2595,
      "Ġwarning": 2596,
      "Ġ(\"": 2597,
      "ernel": 2598,
      "Ġinstead": 2599,
      "Ġ\".": 2600,
      "mplemented": 2601,
      "vo": 2602,
      "Ġsi": 2603,
      "her": 2604,
      "requen": 2605,
      "Log": 2606,
      "ĠRes": 2607,
      "Ġconnect": 2608,
      "component": 2609,
      "Check": 2610,
      "Ġresp": 2611,
      "Ite": 2612,
      "window": 2613,
      "ink": 2614,
      "hell": 2615,
      "hot": 2616,
      "ffect": 2617,
      "tect": 2618,
      "upper": 2619,
      "Ġconn": 2620,
      "Ġcorrespon": 2621,
      "Ġdirect": 2622,
      "Ġ[\"": 2623,
      "ĠIt": 2624,
      "Form": 2625,
      "Ġ{}\".": 2626,
      "Ġrepresen": 2627,
      "domain": 2628,
      "models": 2629,
      "sha": 2630,
      "ĠNote": 2631,
      "Ġwait": 2632,
      "conn": 2633,
      "ĠMe": 2634,
      "ites": 2635,
      "Ġmissing": 2636,
      "lative": 2637,
      "verage": 2638,
      "fra": 2639,
      "fit": 2640,
      "Ġpla": 2641,
      "Ġdistance": 2642,
      "Ġsignal": 2643,
      "Ġsystem": 2644,
      "]),": 2645,
      "Ġawait": 2646,
      "AS": 2647,
      "ie": 2648,
      "Ġunit": 2649,
      "Ġvariables": 2650,
      "Ġtags": 2651,
      "Ġmod": 2652,
      "NT": 2653,
      "Ġregion": 2654,
      "State": 2655,
      "Ġthey": 2656,
      "execute": 2657,
      "Ġctx": 2658,
      "stru": 2659,
      "ighb": 2660,
      "Ġcho": 2661,
      "import": 2662,
      "lem": 2663,
      "itch": 2664,
      "Ġalpha": 2665,
      "ĊĠĠĠĠĠĠĠĠĠĠĠĠĠĠĠĠĠĠĠĠĠĠĠĠĠĠĠĠĠĠ": 2666,
      "Ġiss": 2667,
      "Ġcustom": 2668,
      "ĠRaises": 2669,
      "eno": 2670,
      "Ġhttps": 2671,
      "ered": 2672,
      "vider": 2673,
      "Ġfailed": 2674,
      "Ġcoordin": 2675,
      "stdout": 2676,
      "book": 2677,
      "\"],": 2678,
      "methods": 2679,
      "parts": 2680,
      "Response": 2681,
      "Ġremo": 2682,
      "Ġoperation": 2683,
      "Ġmean": 2684,
      "uture": 2685,
      "Ġverbose": 2686,
      "ware": 2687,
      "ĊĊĠĠĠĠĠĠĠĠĠĠĠĠĠĠĠĠĠĠĠ": 2688,
      "attrs": 2689,
      "case": 2690,
      "Ġpol": 2691,
      "FAULT": 2692,
      "Ġreq": 2693,
      "Ġmapping": 2694,
      "arr": 2695,
      "Ġcontains": 2696,
      "lied": 2697,
      "scope": 2698,
      "Ġrel": 2699,
      "Ġge": 2700,
      "Ġmy": 2701,
      "train": 2702,
      "curs": 2703,
      "Ġwrapper": 2704,
      "empty": 2705,
      "sl": 2706,
      "ansp": 2707,
      "Ġsupported": 2708,
      "Ġ{\"": 2709,
      "\"])": 2710,
      "('\\": 2711,
      "Ġmultiple": 2712,
      "Ġdist": 2713,
      "Ġ7": 2714,
      "Ġstack": 2715,
      "Ġstore": 2716,
      "math": 2717,
      "Ġserial": 2718,
      "Ġbecause": 2719,
      "('/": 2720,
      "gorithm": 2721,
      "children": 2722,
      "git": 2723,
      "cast": 2724,
      "Ġunique": 2725,
      "Ġxml": 2726,
      "Ġcent": 2727,
      "Ġdisable": 2728,
      "Ġfail": 2729,
      "Ġpe": 2730,
      "Ġexpected": 2731,
      "Ġmon": 2732,
      "ift": 2733,
      "Ġparts": 2734,
      "Ġprevious": 2735,
      "chain": 2736,
      "cret": 2737,
      "Text": 2738,
      "python": 2739,
      "andard": 2740,
      "Ġremote": 2741,
      "nt": 2742,
      "Ġlong": 2743,
      "aml": 2744,
      "interface": 2745,
      "vars": 2746,
      "au": 2747,
      "account": 2748,
      "ply": 2749,
      "Ġdifferent": 2750,
      "straint": 2751,
      "ctx": 2752,
      "asure": 2753,
      "river": 2754,
      "Ġseconds": 2755,
      "Ġreport": 2756,
      "async": 2757,
      "Ġinvalid": 2758,
      "ĠName": 2759,
      "TER": 2760,
      "poch": 2761,
      "termin": 2762,
      "alled": 2763,
      "latform": 2764,
      "serv": 2765,
      "cols": 2766,
      "ithub": 2767,
      "Ġvis": 2768,
      "Ġgrid": 2769,
      "čĊĠĠĠ": 2770,
      "Ġmatches": 2771,
      "can": 2772,
      "20": 2773,
      "gine": 2774,
      "ency": 2775,
      "Ġheight": 2776,
      "insert": 2777,
      "bits": 2778,
      "istry": 2779,
      "15": 2780,
      "cut": 2781,
      "AB": 2782,
      "__,": 2783,
      "Ġscale": 2784,
      "ĠAttribute": 2785,
      "Ġusername": 2786,
      "fici": 2787,
      "stat": 2788,
      "ier": 2789,
      "US": 2790,
      "ways": 2791,
      "manager": 2792,
      "Ġmain": 2793,
      "Ġest": 2794,
      "Ġsecond": 2795,
      "ĠLo": 2796,
      "initial": 2797,
      ":`~": 2798,
      "known": 2799,
      "ĠGener": 2800,
      "features": 2801,
      "24": 2802,
      "Ġedge": 2803,
      "Comp": 2804,
      "KE": 2805,
      "cores": 2806,
      "errors": 2807,
      "factor": 2808,
      "ian": 2809,
      "(-": 2810,
      "coder": 2811,
      "``,": 2812,
      "Ġdisplay": 2813,
      "'}": 2814,
      "loop": 2815,
      "Ġspec": 2816,
      "Ġregister": 2817,
      "raises": 2818,
      "validate": 2819,
      "andid": 2820,
      "rest": 2821,
      "Ġsamples": 2822,
      "Ġadded": 2823,
      "cc": 2824,
      "mount": 2825,
      "rip": 2826,
      "bl": 2827,
      "angle": 2828,
      "TR": 2829,
      "tach": 2830,
      "sequence": 2831,
      "ĠComp": 2832,
      "Ġtimestamp": 2833,
      "Ġindices": 2834,
      "nan": 2835,
      "actions": 2836,
      "endswith": 2837,
      "any": 2838,
      "tract": 2839,
      "Ġmerge": 2840,
      "ĠHTTP": 2841,
      "way": 2842,
      "Ġinit": 2843,
      "Ġund": 2844,
      "stribution": 2845,
      "warn": 2846,
      "Ġsim": 2847,
      "Ġ((": 2848,
      "Ġpossible": 2849,
      "Ġflag": 2850,
      "_,": 2851,
      "gre": 2852,
      "dims": 2853,
      "Ġgenerate": 2854,
      "where": 2855,
      "non": 2856,
      "Ġproperties": 2857,
      "Array": 2858,
      "Ġextract": 2859,
      "ES": 2860,
      "repo": 2861,
      "Ġsure": 2862,
      "Ġproperty": 2863,
      "Ġcorrect": 2864,
      "sets": 2865,
      "year": 2866,
      "encoding": 2867,
      "Info": 2868,
      "Ġthrough": 2869,
      "feature": 2870,
      "Model": 2871,
      ".'": 2872,
      "numpy": 2873,
      "Ġfit": 2874,
      "Ġcell": 2875,
      "ension": 2876,
      "late": 2877,
      "ĉĉ": 2878,
      "Ġ):": 2879,
      "dt": 2880,
      "ANG": 2881,
      "seconds": 2882,
      "global": 2883,
      "Item": 2884,
      "Ġtrain": 2885,
      "Qu": 2886,
      "Ġcons": 2887,
      "lector": 2888,
      "pository": 2889,
      "Ġtokens": 2890,
      "thread": 2891,
      "Ġtake": 2892,
      "duce": 2893,
      "classes": 2894,
      "folder": 2895,
      "alpha": 2896,
      "()[": 2897,
      "ĊĠĠĠĠĠĠĠĠĠĠĠĠĠĠĠĠĠĠĠĠĠĠĠĠĠĠĠĠĠĠĠĠĠĠĠĠĠĠĠ": 2898,
      "Ġ'*": 2899,
      "Ġdelta": 2900,
      "ater": 2901,
      "Ġrece": 2902,
      "55": 2903,
      "()):": 2904,
      "ĠUse": 2905,
      "transform": 2906,
      "Ġspecify": 2907,
      "lap": 2908,
      "Ġdebug": 2909,
      "Field": 2910,
      "Ġpaths": 2911,
      "Ġtransform": 2912,
      "Event": 2913,
      "mbers": 2914,
      "Parser": 2915,
      "weight": 2916,
      "Ġappro": 2917,
      "head": 2918,
      "Ġren": 2919,
      "Ġcannot": 2920,
      "ĠĠĠĠĠĠĠĠĠĠĠĠĠĠĠĠĠĠĠĠĠĠĠĠĠĠĠĠĠĠĠĠ": 2921,
      "Ġkeep": 2922,
      "properties": 2923,
      "Ġsepar": 2924,
      "Ġ'{}": 2925,
      "*(": 2926,
      "VER": 2927,
      "cheme": 2928,
      "Ġsocket": 2929,
      "pid": 2930,
      "bot": 2931,
      "oid": 2932,
      "IO": 2933,
      "edge": 2934,
      "loads": 2935,
      "Ġ{}'.": 2936,
      "Found": 2937,
      "ely": 2938,
      "Ġcursor": 2939,
      "score": 2940,
      "Ġzero": 2941,
      "Ġendpoint": 2942,
      "bab": 2943,
      "Ġpresent": 2944,
      "Ġdepth": 2945,
      "norm": 2946,
      "hen": 2947,
      "Ġutils": 2948,
      "Ġrest": 2949,
      "Ġwithin": 2950,
      "andas": 2951,
      "site": 2952,
      "lab": 2953,
      "ĠTo": 2954,
      "Ġpop": 2955,
      "50": 2956,
      "Ġfollowing": 2957,
      "Ġrepresent": 2958,
      "ĊĠĠĠĠĠĠĠĠĠĠĠĠĠĠĠĠĠĠĠĠĠĠĠĠĠĠĠĠĠĠĠĠĠ": 2959,
      "Ġexpression": 2960,
      "coded": 2961,
      "adding": 2962,
      "EX": 2963,
      "Py": 2964,
      "Ġcluster": 2965,
      "ured": 2966,
      "cker": 2967,
      "Ġcha": 2968,
      "Ġbot": 2969,
      "Ġinterface": 2970,
      "An": 2971,
      "Ġconf": 2972,
      "board": 2973,
      "Client": 2974,
      "dius": 2975,
      "region": 2976,
      ":%": 2977,
      "GER": 2978,
      "tax": 2979,
      "Ġbit": 2980,
      "Ġus": 2981,
      "reference": 2982,
      "Ġfix": 2983,
      "itive": 2984,
      "80": 2985,
      "Ġweights": 2986,
      "mapping": 2987,
      "/{": 2988,
      "af": 2989,
      "Ġ100": 2990,
      "By": 2991,
      "tokens": 2992,
      "idden": 2993,
      "Bu": 2994,
      "aly": 2995,
      "patch": 2996,
      "ĠRuntime": 2997,
      "ĠOptional": 2998,
      "vec": 2999,
      "Ġ_,": 3000,
      "Ġclean": 3001,
      "gments": 3002,
      "Ġ9": 3003,
      "Ġboth": 3004,
      "greg": 3005,
      "common": 3006,
      "words": 3007,
      "trics": 3008,
      "https": 3009,
      "Ġassoci": 3010,
      "until": 3011,
      "Ġdoesn": 3012,
      "=%": 3013,
      "Ġdomain": 3014,
      "Ġwithout": 3015,
      "uted": 3016,
      "series": 3017,
      "\"))": 3018,
      "convert": 3019,
      "redentials": 3020,
      "Ġfl": 3021,
      "hex": 3022,
      "stderr": 3023,
      "GET": 3024,
      "Ġhist": 3025,
      "curity": 3026,
      "ĠAttributeError": 3027,
      "card": 3028,
      "Ġmaximum": 3029,
      "Ġseq": 3030,
      "201": 3031,
      "uuid": 3032,
      "alle": 3033,
      "proxy": 3034,
      "center": 3035,
      "HE": 3036,
      "vl": 3037,
      "Ġaccept": 3038,
      "Ġtrue": 3039,
      "ross": 3040,
      "ia": 3041,
      "fin": 3042,
      "dified": 3043,
      "Ġweight": 3044,
      "tail": 3045,
      "els": 3046,
      "ynam": 3047,
      "mbed": 3048,
      "tools": 3049,
      "uplic": 3050,
      "times": 3051,
      "Message": 3052,
      "Ġ'--": 3053,
      "Ġsha": 3054,
      "</": 3055,
      "trieve": 3056,
      "Ġevery": 3057,
      "Ġdt": 3058,
      "ATI": 3059,
      "eps": 3060,
      "dirname": 3061,
      "Ġassign": 3062,
      "cursor": 3063,
      "Ġscope": 3064,
      "nly": 3065,
      "Ġsite": 3066,
      "environ": 3067,
      "lim": 3068,
      "Ġcollection": 3069,
      "AP": 3070,
      "Ġtheir": 3071,
      "atio": 3072,
      "Ġwrap": 3073,
      "Ġvert": 3074,
      "distance": 3075,
      "img": 3076,
      "csv": 3077,
      "just": 3078,
      "peri": 3079,
      "QU": 3080,
      "Ġflags": 3081,
      "attributes": 3082,
      "ĠSer": 3083,
      "Ġvalidate": 3084,
      "tom": 3085,
      "payload": 3086,
      "ws": 3087,
      "IP": 3088,
      "Ġ201": 3089,
      "DB": 3090,
      "Ġenvironment": 3091,
      "Ġrunning": 3092,
      "ority": 3093,
      "okup": 3094,
      "User": 3095,
      "izes": 3096,
      "sure": 3097,
      "requency": 3098,
      "__)": 3099,
      "ĊĠĠĠĠĠĠĠĠĠĠĠĠĠĠĠĠĠĠĠĠĠĠĠĠĠĠĠĠĠĠĠĠĠĠ": 3100,
      "Ġidentifier": 3101,
      "Ġnote": 3102,
      "units": 3103,
      "lon": 3104,
      "naps": 3105,
      "NO": 3106,
      "leep": 3107,
      "interval": 3108,
      "SO": 3109,
      "used": 3110,
      "lint": 3111,
      "ire": 3112,
      "Ġallowed": 3113,
      "Read": 3114,
      "Ġcallable": 3115,
      "Ġfinal": 3116,
      "Result": 3117,
      "Ġstats": 3118,
      "esc": 3119,
      "tered": 3120,
      "alk": 3121,
      "ĠExample": 3122,
      "cluster": 3123,
      "Ġ12": 3124,
      "metric": 3125,
      "olver": 3126,
      "depend": 3127,
      "optional": 3128,
      "URL": 3129,
      "umbers": 3130,
      "ground": 3131,
      "sep": 3132,
      "ives": 3133,
      "()))": 3134,
      "Ġtx": 3135,
      "Ġmatching": 3136,
      "Ġmethods": 3137,
      "tc": 3138,
      "Ġscript": 3139,
      "report": 3140,
      "ilter": 3141,
      "BU": 3142,
      "Ġinputs": 3143,
      "period": 3144,
      "ĠZ": 3145,
      "spect": 3146,
      "napshot": 3147,
      "az": 3148,
      "termine": 3149,
      "Ġbeing": 3150,
      "čĊĊĠĠĠĠĠĠĠ": 3151,
      "Ġsuch": 3152,
      "ness": 3153,
      "dr": 3154,
      "reshape": 3155,
      "fname": 3156,
      "email": 3157,
      "Ġstat": 3158,
      "desc": 3159,
      "unique": 3160,
      "wrap": 3161,
      "Ġbest": 3162,
      "ĊĊĉ": 3163,
      "signal": 3164,
      "register": 3165,
      "cfg": 3166,
      "ĠRuntimeError": 3167,
      "TH": 3168,
      "Ġspecific": 3169,
      "}'": 3170,
      "Ġpix": 3171,
      "100": 3172,
      "leg": 3173,
      "Ġabout": 3174,
      "latten": 3175,
      "ĠĠĠĠĠĠĠĠĠ": 3176,
      "serialize": 3177,
      "AM": 3178,
      "pix": 3179,
      "DF": 3180,
      "Ġsince": 3181,
      "prec": 3182,
      "33": 3183,
      "Ġroute": 3184,
      "auto": 3185,
      "Ġyour": 3186,
      "less": 3187,
      "ox": 3188,
      "Ġlon": 3189,
      "ĊĊĠĠĠĠĠ": 3190,
      "DataFrame": 3191,
      "PAT": 3192,
      "licit": 3193,
      "vision": 3194,
      "Ġspace": 3195,
      "('-": 3196,
      "Ġthese": 3197,
      "('%": 3198,
      "Ġmemory": 3199,
      "ision": 3200,
      "Ġtimes": 3201,
      "Ġindent": 3202,
      "ik": 3203,
      "real": 3204,
      "sqrt": 3205,
      "Ġmessages": 3206,
      "vm": 3207,
      "-+": 3208,
      "lish": 3209,
      "Ġcould": 3210,
      "Ġlower": 3211,
      "Ġcorresponding": 3212,
      "Ġwrit": 3213,
      "Ġapply": 3214,
      "Ġbuffer": 3215,
      "Argument": 3216,
      "Ġ\"{": 3217,
      "trace": 3218,
      "ertifi": 3219,
      "Option": 3220,
      "cer": 3221,
      "attribute": 3222,
      "ending": 3223,
      "Ġctypes": 3224,
      "document": 3225,
      "}.": 3226,
      "dimension": 3227,
      "ported": 3228,
      "socket": 3229,
      "Ġang": 3230,
      "entity": 3231,
      "19": 3232,
      "alcul": 3233,
      "Ġannot": 3234,
      "ä¸": 3235,
      "ersion": 3236,
      "yp": 3237,
      "inte": 3238,
      "Ġimg": 3239,
      "ĠĊĠĠĠĠĠĠĠ": 3240,
      "fetch": 3241,
      "Ġhigh": 3242,
      "ivity": 3243,
      "SC": 3244,
      "Ġvolume": 3245,
      "30": 3246,
      "aries": 3247,
      "Ġour": 3248,
      "Ġdefaults": 3249,
      "identifier": 3250,
      "Ġboolean": 3251,
      "Ġfra": 3252,
      "argv": 3253,
      "Ġmetric": 3254,
      "ane": 3255,
      "ilder": 3256,
      "cloud": 3257,
      "asic": 3258,
      "peline": 3259,
      "fast": 3260,
      "force": 3261,
      "ze": 3262,
      "Ġcompute": 3263,
      "chron": 3264,
      "tick": 3265,
      "SP": 3266,
      "Run": 3267,
      "Ġseries": 3268,
      "UR": 3269,
      "Ġunder": 3270,
      "OP": 3271,
      "allow": 3272,
      "variables": 3273,
      "hook": 3274,
      "Ġevents": 3275,
      "Ġequal": 3276,
      "ually": 3277,
      "Ġdone": 3278,
      "-%": 3279,
      "14": 3280,
      "KEY": 3281,
      "Ġcomb": 3282,
      "inputs": 3283,
      "rb": 3284,
      "expected": 3285,
      ".*": 3286,
      "cb": 3287,
      "policy": 3288,
      "required": 3289,
      "ged": 3290,
      "ED": 3291,
      "Ġda": 3292,
      "ategor": 3293,
      "flags": 3294,
      "Ġfeatures": 3295,
      "App": 3296,
      "Ġstyle": 3297,
      "ulation": 3298,
      "unicode": 3299,
      "dumps": 3300,
      "Ġvia": 3301,
      "DEFAULT": 3302,
      "cluded": 3303,
      "At": 3304,
      "Ġinsert": 3305,
      "Ġstructure": 3306,
      "Ġhow": 3307,
      "olute": 3308,
      "zero": 3309,
      "Ġyang": 3310,
      "utom": 3311,
      "added": 3312,
      "/%": 3313,
      "Ġsyn": 3314,
      "Ġrepo": 3315,
      "sec": 3316,
      "################": 3317,
      "Instance": 3318,
      "meth": 3319,
      "layers": 3320,
      "Ġreal": 3321,
      "long": 3322,
      "fill": 3323,
      "Ġrelative": 3324,
      "]+": 3325,
      "mpt": 3326,
      "ĠNo": 3327,
      "Ġclick": 3328,
      "'\\": 3329,
      "Ġcomment": 3330,
      "ERR": 3331,
      "pare": 3332,
      "Ġneeded": 3333,
      "Ġkw": 3334,
      "Ġnd": 3335,
      "Ġperiod": 3336,
      "vers": 3337,
      "ogle": 3338,
      "Ġsm": 3339,
      "sw": 3340,
      "ient": 3341,
      "Ġimp": 3342,
      "}{": 3343,
      "spe": 3344,
      "Ġ'')": 3345,
      "ulate": 3346,
      "Ġindic": 3347,
      "sm": 3348,
      "loy": 3349,
      "collection": 3350,
      "clean": 3351,
      "Ġgroups": 3352,
      "ends": 3353,
      "Ġmath": 3354,
      "Or": 3355,
      "fg": 3356,
      "jobs": 3357,
      "Ġbucket": 3358,
      "API": 3359,
      "ferences": 3360,
      "align": 3361,
      "states": 3362,
      "ometry": 3363,
      "logging": 3364,
      "sn": 3365,
      "press": 3366,
      "Group": 3367,
      "Ġfactor": 3368,
      "Ġ##": 3369,
      "bucket": 3370,
      "parameter": 3371,
      "Ġ-=": 3372,
      "ĠIP": 3373,
      "ration": 3374,
      "Ġscore": 3375,
      "Ġloc": 3376,
      "ole": 3377,
      "čĊĠĠĠĠĠĠĠĠĠĠĠĠĠĠĠ": 3378,
      "Ġstdout": 3379,
      "Ġestim": 3380,
      "Ġpylint": 3381,
      "display": 3382,
      "Size": 3383,
      "Ġalign": 3384,
      "Ġplace": 3385,
      "Ġemail": 3386,
      "Ġcontents": 3387,
      "Le": 3388,
      "byte": 3389,
      "Ġdecorator": 3390,
      "expr": 3391,
      "Ġterm": 3392,
      "Ġclose": 3393,
      "Ġ\"/": 3394,
      "Ġunits": 3395,
      "Ġvariant": 3396,
      "Ġfunctions": 3397,
      "remote": 3398,
      "Ġwarnings": 3399,
      "Ġagain": 3400,
      "IL": 3401,
      "exceptions": 3402,
      "lections": 3403,
      "steps": 3404,
      "Input": 3405,
      "\"),": 3406,
      "mac": 3407,
      "__(": 3408,
      "Ġsegment": 3409,
      "fd": 3410,
      "ĠOr": 3411,
      "Ġow": 3412,
      "coords": 3413,
      "Ġrec": 3414,
      "Ġaxes": 3415,
      "help": 3416,
      "(\"%": 3417,
      "ui": 3418,
      "Ġ\"_": 3419,
      "Out": 3420,
      "ould": 3421,
      "Ġchanges": 3422,
      "ving": 3423,
      "chedule": 3424,
      "}\\": 3425,
      "CK": 3426,
      "Ġwhat": 3427,
      "ĠStr": 3428,
      "Auth": 3429,
      "Ġbinary": 3430,
      "Ġsignature": 3431,
      "ĠConvert": 3432,
      "weights": 3433,
      "Process": 3434,
      "LOG": 3435,
      "ars": 3436,
      "Ġremoved": 3437,
      "docs": 3438,
      "Ġpredi": 3439,
      "Failed": 3440,
      "ATION": 3441,
      "cimal": 3442,
      "Content": 3443,
      "Ġrequire": 3444,
      "storage": 3445,
      "changes": 3446,
      "rf": 3447,
      "verbose": 3448,
      "bed": 3449,
      "ters": 3450,
      "gative": 3451,
      "merge": 3452,
      "symbol": 3453,
      "Ġentity": 3454,
      "(\"\\": 3455,
      "Inter": 3456,
      "ĠFile": 3457,
      "Ġalways": 3458,
      "UP": 3459,
      "stants": 3460,
      "figs": 3461,
      "Ġfolder": 3462,
      "__.": 3463,
      "rence": 3464,
      "kind": 3465,
      "Ġ200": 3466,
      "Ġuri": 3467,
      "cessed": 3468,
      "cii": 3469,
      "custom": 3470,
      "dio": 3471,
      "dat": 3472,
      "Ġplugin": 3473,
      "_{": 3474,
      "Ġarch": 3475,
      "ified": 3476,
      "Ġinterval": 3477,
      "Ġtensor": 3478,
      "'](": 3479,
      "edges": 3480,
      "commit": 3481,
      "Ġfill": 3482,
      "tensor": 3483,
      ":-": 3484,
      "60": 3485,
      "Ġfname": 3486,
      "Per": 3487,
      "ango": 3488,
      "Ġtrace": 3489,
      "Ġcat": 3490,
      "urse": 3491,
      "gy": 3492,
      "cos": 3493,
      "Ġcommon": 3494,
      "ru": 3495,
      "Te": 3496,
      "Ġupdated": 3497,
      "encies": 3498,
      "Ġprivate": 3499,
      ".)": 3500,
      "tries": 3501,
      "ĠEn": 3502,
      "Ġshort": 3503,
      "plotlib": 3504,
      "aved": 3505,
      "Ġbox": 3506,
      "flag": 3507,
      "Ġim": 3508,
      "Ġlanguage": 3509,
      "Session": 3510,
      "(['": 3511,
      "vs": 3512,
      "prop": 3513,
      "Ġentries": 3514,
      "member": 3515,
      "FO": 3516,
      "Ġevalu": 3517,
      "Ġ\",": 3518,
      "github": 3519,
      "basename": 3520,
      "('.": 3521,
      "corre": 3522,
      "ones": 3523,
      "Ġcoordinates": 3524,
      "Ġiterable": 3525,
      "bind": 3526,
      "ignore": 3527,
      "Ġrole": 3528,
      "({'": 3529,
      "fmt": 3530,
      "Ġfmt": 3531,
      "Ġday": 3532,
      "master": 3533,
      "ĊĠĠĠĠĠĠĠĠĠĠĠĠĠĠĠĠĠĠĠĠĠĠĠĠĠĠĠĠĠĠĠĠĠĠĠĠĠĠ": 3534,
      "Ġrepresenting": 3535,
      "freq": 3536,
      "Ġast": 3537,
      "utable": 3538,
      "ĠĠĠĠĠĠĠĠĠĠ": 3539,
      "sql": 3540,
      "Ġinstances": 3541,
      "hes": 3542,
      "Parse": 3543,
      "variant": 3544,
      "_.": 3545,
      "Ġ//": 3546,
      "Gener": 3547,
      "author": 3548,
      "endpoint": 3549,
      "Ġassociated": 3550,
      "ilt": 3551,
      "gb": 3552,
      "win": 3553,
      ">`": 3554,
      "Ġmulti": 3555,
      "extension": 3556,
      "events": 3557,
      "dec": 3558,
      "Ġdetails": 3559,
      "leted": 3560,
      "Ġstorage": 3561,
      "Ġpair": 3562,
      "Ġwould": 3563,
      "defin": 3564,
      "Ġactual": 3565,
      "counts": 3566,
      "application": 3567,
      "Ġleast": 3568,
      ")])": 3569,
      "ams": 3570,
      "xx": 3571,
      "null": 3572,
      "Ġregex": 3573,
      "Image": 3574,
      "Ġ\"\\": 3575,
      "ĠIO": 3576,
      "ariance": 3577,
      "Ġ'*'": 3578,
      "Ġattrs": 3579,
      "defaults": 3580,
      "blem": 3581,
      "pool": 3582,
      "ĠDo": 3583,
      "regex": 3584,
      "{}'.": 3585,
      "Context": 3586,
      "chine": 3587,
      "Ġassume": 3588,
      "Ġexit": 3589,
      "modules": 3590,
      "Sy": 3591,
      "ĠDE": 3592,
      "================": 3593,
      "SH": 3594,
      "Pre": 3595,
      "ĊĠĠĠĠĠĠĠĠĠĠĠĠĠĠĠĠĠĠĠĠĠĠĠĠĠĠĠĠĠĠĠĠĠĠĠĠĠ": 3596,
      "strict": 3597,
      "sig": 3598,
      "sted": 3599,
      "Ġoc": 3600,
      "eric": 3601,
      "Ġactive": 3602,
      "fun": 3603,
      "none": 3604,
      "Reg": 3605,
      "TO": 3606,
      "expand": 3607,
      "Ġprev": 3608,
      "Ġexclude": 3609,
      "ĠMake": 3610,
      "Ġapplication": 3611,
      "ertificate": 3612,
      "gp": 3613,
      "amily": 3614,
      "Ġsuffix": 3615,
      "Valid": 3616,
      "periment": 3617,
      "ength": 3618,
      "Ġdirectly": 3619,
      "Ġmodels": 3620,
      "He": 3621,
      "buf": 3622,
      "slice": 3623,
      "Ġcre": 3624,
      "route": 3625,
      "PRO": 3626,
      "ndim": 3627,
      "codes": 3628,
      "Base": 3629,
      "Ġgre": 3630,
      "ND": 3631,
      "ĠIndex": 3632,
      "FILE": 3633,
      "Ġmag": 3634,
      "Ġ16": 3635,
      "formed": 3636,
      "missions": 3637,
      "Ġchain": 3638,
      "SION": 3639,
      "VAL": 3640,
      "roller": 3641,
      "quences": 3642,
      "Ġrequested": 3643,
      "vide": 3644,
      "compile": 3645,
      "miss": 3646,
      "Ġensure": 3647,
      "rtual": 3648,
      "Trans": 3649,
      "gate": 3650,
      "Ġdownload": 3651,
      "Ġ'',": 3652,
      "Ġnamed": 3653,
      "Ġdistribution": 3654,
      "Ġgenerator": 3655,
      "POST": 3656,
      "gg": 3657,
      "include": 3658,
      "logy": 3659,
      "sens": 3660,
      "ues": 3661,
      "alias": 3662,
      "Ġhtml": 3663,
      "ively": 3664,
      "Ġasyn": 3665,
      "rl": 3666,
      "Ġlock": 3667,
      "role": 3668,
      "Ġcharacters": 3669,
      "Call": 3670,
      "nn": 3671,
      "uting": 3672,
      "Ġrepresentation": 3673,
      "clear": 3674,
      "widget": 3675,
      "spath": 3676,
      "Count": 3677,
      "counter": 3678,
      "Ġcor": 3679,
      "Ġuntil": 3680,
      "Ġretry": 3681,
      "month": 3682,
      "()]": 3683,
      "lear": 3684,
      "je": 3685,
      "DO": 3686,
      "ler": 3687,
      "lack": 3688,
      "Ġselected": 3689,
      "ĠOS": 3690,
      "Ġfp": 3691,
      "transp": 3692,
      "property": 3693,
      "****": 3694,
      "Ġstandard": 3695,
      "suffix": 3696,
      "pter": 3697,
      "elements": 3698,
      "Ġ[(": 3699,
      "Handler": 3700,
      "34": 3701,
      "volume": 3702,
      "ĠValid": 3703,
      "Ġmost": 3704,
      "Ġmedi": 3705,
      "success": 3706,
      "Ġproxy": 3707,
      "Status": 3708,
      "ypes": 3709,
      "filepath": 3710,
      "Ġdestination": 3711,
      "Ġcalling": 3712,
      "Ġ[])": 3713,
      "Ġbl": 3714,
      "ather": 3715,
      "Ġperform": 3716,
      "qa": 3717,
      "sid": 3718,
      "heet": 3719,
      "sorted": 3720,
      "Ġpkg": 3721,
      "Ġjoin": 3722,
      "amma": 3723,
      "Ġauto": 3724,
      "IG": 3725,
      "ĠUpdate": 3726,
      "ĠĠĠĠĠĠĠĠĠĠĠĠĠĠĠĠĠĠĠ": 3727,
      "Ġstored": 3728,
      "Iter": 3729,
      "Ġdesc": 3730,
      "Ġreverse": 3731,
      "pac": 3732,
      "ĠWhen": 3733,
      "tion": 3734,
      "QL": 3735,
      "istered": 3736,
      "Ġfilters": 3737,
      "Ġprop": 3738,
      "Ġadditional": 3739,
      "Ġwere": 3740,
      "mut": 3741,
      "Ġcharacter": 3742,
      "Ġnorm": 3743,
      "Table": 3744,
      "urface": 3745,
      ",)": 3746,
      "als": 3747,
      "fact": 3748,
      "Ġhparams": 3749,
      "Ġbranch": 3750,
      "ĊĠĠĠĠĠĠĠĠĠĠĠĠĠĠĠĠĠĠĠĠĠĠĠĠĠĠĠĠĠĠĠĠĠĠĠĠĠĠĠĠ": 3751,
      "jango": 3752,
      "Version": 3753,
      "lookup": 3754,
      "Ġsw": 3755,
      "bove": 3756,
      "Ġ'__": 3757,
      "ense": 3758,
      "rand": 3759,
      "Ġauthor": 3760,
      "ĠAny": 3761,
      "Ġdim": 3762,
      "span": 3763,
      "ports": 3764,
      "contents": 3765,
      "]*": 3766,
      "ĠInvalid": 3767,
      "Ġhead": 3768,
      "PATH": 3769,
      "setdefault": 3770,
      "Ġoptim": 3771,
      "light": 3772,
      "astype": 3773,
      "Ġutil": 3774,
      "dep": 3775,
      ")*": 3776,
      "obs": 3777,
      "Date": 3778,
      ")/": 3779,
      "ish": 3780,
      "lex": 3781,
      "Ġids": 3782,
      "apply": 3783,
      "install": 3784,
      "Ġimages": 3785,
      "summary": 3786,
      "axes": 3787,
      "ases": 3788,
      "Ġprobab": 3789,
      "ĠRE": 3790,
      "NS": 3791,
      "CS": 3792,
      "language": 3793,
      "multi": 3794,
      "Ġsent": 3795,
      "Ġpool": 3796,
      "Ġsetting": 3797,
      "chronous": 3798,
      "Sh": 3799,
      "Ġ{},": 3800,
      "}\"": 3801,
      "tt": 3802,
      "Dis": 3803,
      "Start": 3804,
      "Ġsymbol": 3805,
      "Ġho": 3806,
      ":])": 3807,
      "ĠAs": 3808,
      "MO": 3809,
      "Ġpick": 3810,
      "Ġmu": 3811,
      "Man": 3812,
      "Graph": 3813,
      "served": 3814,
      "voc": 3815,
      "Ġupper": 3816,
      "come": 3817,
      "Ġyear": 3818,
      "ĠApp": 3819,
      "threshold": 3820,
      "Ġrecords": 3821,
      "loaded": 3822,
      "Ġdep": 3823,
      "ERROR": 3824,
      "ga": 3825,
      "Ġneeds": 3826,
      "Ġcp": 3827,
      "Ġlar": 3828,
      "Number": 3829,
      "release": 3830,
      "secret": 3831,
      "Ġbits": 3832,
      "Ġdirection": 3833,
      "osition": 3834,
      "uring": 3835,
      "tab": 3836,
      "HTTP": 3837,
      "Query": 3838,
      "Ġmeans": 3839,
      "yg": 3840,
      "ene": 3841,
      "SET": 3842,
      "cessary": 3843,
      "Ġinstall": 3844,
      "Ġcenter": 3845,
      "13": 3846,
      "Ġappend": 3847,
      "Ġ\"{}": 3848,
      "Ġslice": 3849,
      "This": 3850,
      "Ġ[],": 3851,
      "Ġpacket": 3852,
      "gger": 3853,
      "sim": 3854,
      "ower": 3855,
      "Ġedges": 3856,
      "phi": 3857,
      "Ġthreshold": 3858,
      "ĊĠĠĠĠĠĠĠĠĠĠĠĠĠĠĠĠĠĠĠĠĠĠĠĠĠĠĠĠĠĠĠĠĠĠĠĠĠĠĠĠĠĠĠ": 3859,
      "ĠUser": 3860,
      "complete": 3861,
      "maining": 3862,
      "Update": 3863,
      "ĠOther": 3864,
      "fail": 3865,
      "effici": 3866,
      "-+-+": 3867,
      "Ġlists": 3868,
      "uint": 3869,
      "tic": 3870,
      "Ġpairs": 3871,
      "ĠCh": 3872,
      "tz": 3873,
      "utomatic": 3874,
      "isfile": 3875,
      "resources": 3876,
      "UM": 3877,
      "56": 3878,
      "lt": 3879,
      "mu": 3880,
      "Ġsubject": 3881,
      "links": 3882,
      "Code": 3883,
      "ĠPath": 3884,
      "arm": 3885,
      "Ġway": 3886,
      "gene": 3887,
      "Ġcompat": 3888,
      "channels": 3889,
      "Ġnoqa": 3890,
      "assign": 3891,
      "Ġgene": 3892,
      "memory": 3893,
      "18": 3894,
      "PC": 3895,
      "Ġfont": 3896,
      "For": 3897,
      "iteritems": 3898,
      "mpling": 3899,
      "Ġcalculate": 3900,
      "Ġextensions": 3901,
      "Ġder": 3902,
      "database": 3903,
      "Ġmember": 3904,
      "Ġattemp": 3905,
      "safe": 3906,
      "Ġprotocol": 3907,
      "Obj": 3908,
      "dic": 3909,
      "cipy": 3910,
      "Ġimplement": 3911,
      "Ġchildren": 3912,
      "Loc": 3913,
      "tact": 3914,
      "ling": 3915,
      "Ġalgorithm": 3916,
      "eff": 3917,
      "ATA": 3918,
      "Ġsig": 3919,
      "entication": 3920,
      "Ġwidget": 3921,
      "AGE": 3922,
      "Ġgenerated": 3923,
      "sleep": 3924,
      "Ġsigma": 3925,
      "Ġoverride": 3926,
      "Ġdisk": 3927,
      "Ġ},": 3928,
      "Ġtrack": 3929,
      "ressed": 3930,
      "tore": 3931,
      "Map": 3932,
      "arguments": 3933,
      "ynamic": 3934,
      "From": 3935,
      "Ġdraw": 3936,
      "lineno": 3937,
      "Ġ\"-": 3938,
      "okie": 3939,
      "after": 3940,
      "public": 3941,
      "Ġprogress": 3942,
      "andlers": 3943,
      "imer": 3944,
      "Ġsql": 3945,
      "rag": 3946,
      "'re": 3947,
      "history": 3948,
      "defined": 3949,
      "partition": 3950,
      "mid": 3951,
      "Ġrot": 3952,
      "ĠDataFrame": 3953,
      "andidate": 3954,
      "fic": 3955,
      "ops": 3956,
      "gt": 3957,
      "ĠPer": 3958,
      "ĠCol": 3959,
      "days": 3960,
      "sym": 3961,
      "Ġsubprocess": 3962,
      "filters": 3963,
      "Ġprovide": 3964,
      "Ġmany": 3965,
      "pad": 3966,
      "Ġanalysis": 3967,
      "Ġdefinition": 3968,
      "ĠYANG": 3969,
      "Ġinspect": 3970,
      "cesses": 3971,
      "ended": 3972,
      "bins": 3973,
      "Ġcondition": 3974,
      "rain": 3975,
      "cla": 3976,
      "Ġpartic": 3977,
      "={}": 3978,
      "Ġcfg": 3979,
      "Ġpolicy": 3980,
      "Convert": 3981,
      "03": 3982,
      "iew": 3983,
      "Exec": 3984,
      "missing": 3985,
      "17": 3986,
      "\"]:": 3987,
      "Ġamount": 3988,
      "uce": 3989,
      "Ġvm": 3990,
      "Ġchanged": 3991,
      "indent": 3992,
      "ilar": 3993,
      "(__": 3994,
      "WS": 3995,
      "=_": 3996,
      "download": 3997,
      "Tree": 3998,
      "short": 3999,
      "ished": 4000,
      "Ġkernel": 4001,
      "category": 4002,
      "Line": 4003,
      "writ": 4004,
      "Ġlookup": 4005,
      "Ġarrays": 4006,
      "generate": 4007,
      "Ġbackend": 4008,
      "ĠĠĠĠĠĠĠĠĠĠĠĠ": 4009,
      "details": 4010,
      ")).": 4011,
      "Ġsuccessful": 4012,
      "ĠAl": 4013,
      "IM": 4014,
      "pkg": 4015,
      "Ġcomponents": 4016,
      "velo": 4017,
      "Ġ(%": 4018,
      "DS": 4019,
      "faces": 4020,
      "Ġ{})": 4021,
      "sired": 4022,
      "cording": 4023,
      "scriptor": 4024,
      "Ġfuture": 4025,
      "Th": 4026,
      "Ġrate": 4027,
      "reset": 4028,
      "login": 4029,
      "ascii": 4030,
      "Ġdat": 4031,
      "raps": 4032,
      "Ġexceptions": 4033,
      "Ġkind": 4034,
      "Ġcomplete": 4035,
      "operation": 4036,
      "cd": 4037,
      "ons": 4038,
      "components": 4039,
      "Ġinternal": 4040,
      "Ġnumbers": 4041,
      "\"].": 4042,
      "colors": 4043,
      "inf": 4044,
      "Ġarr": 4045,
      "cursive": 4046,
      "Ġndarray": 4047,
      "200": 4048,
      "changed": 4049,
      "Ġrender": 4050,
      "RA": 4051,
      "ĠConfig": 4052,
      "pair": 4053,
      "Ġminimum": 4054,
      "ĠRemove": 4055,
      "arange": 4056,
      "utton": 4057,
      "IS": 4058,
      "ĠQu": 4059,
      "ĠNumber": 4060,
      "mbols": 4061,
      "Ġbuf": 4062,
      "ĠOnly": 4063,
      "hs": 4064,
      "agent": 4065,
      "eval": 4066,
      "Ġcategory": 4067,
      "ker": 4068,
      "sole": 4069,
      "Ġorigin": 4070,
      "sigma": 4071,
      "FOR": 4072,
      "ĠTime": 4073,
      "Ġalias": 4074,
      "Oper": 4075,
      "segment": 4076,
      "ugins": 4077,
      "Ġcommands": 4078,
      "ABLE": 4079,
      "extract": 4080,
      "MS": 4081,
      "Connection": 4082,
      "tty": 4083,
      "Ġelem": 4084,
      "Ġoperator": 4085,
      "Ġwords": 4086,
      "Ġcy": 4087,
      "Ġexpi": 4088,
      "acy": 4089,
      "Service": 4090,
      "Ġmonth": 4091,
      "Ġzone": 4092,
      "cr": 4093,
      "oms": 4094,
      "enum": 4095,
      "Ġstates": 4096,
      "deredDict": 4097,
      "Ġ,": 4098,
      "percent": 4099,
      "Ġstderr": 4100,
      "dirs": 4101,
      "protocol": 4102,
      "tence": 4103,
      "images": 4104,
      "invalid": 4105,
      "Ġgot": 4106,
      "sca": 4107,
      "mgmt": 4108,
      "ibility": 4109,
      "erature": 4110,
      "font": 4111,
      "Ġdimensions": 4112,
      "]])": 4113,
      "Ġdetect": 4114,
      "abel": 4115,
      "ti": 4116,
      "atterns": 4117,
      "ife": 4118,
      "ĠArgument": 4119,
      "ogram": 4120,
      "ĠBu": 4121,
      "Ġpad": 4122,
      "subject": 4123,
      "Point": 4124,
      "repr": 4125,
      "this": 4126,
      "Ġ%(": 4127,
      "Ġangle": 4128,
      "Ġabove": 4129,
      "sd": 4130,
      "=-": 4131,
      "Ġ')": 4132,
      "best": 4133,
      "matches": 4134,
      "expression": 4135,
      "Ġtransaction": 4136,
      ")\"": 4137,
      "05": 4138,
      "Ġuses": 4139,
      "unpack": 4140,
      "Ġbasestring": 4141,
      "Ġspe": 4142,
      "Desc": 4143,
      "Warning": 4144,
      "Ġclasses": 4145,
      "ands": 4146,
      "ĠIOError": 4147,
      "Ġcounter": 4148,
      "Ġverify": 4149,
      "atches": 4150,
      "ĠFind": 4151,
      "Ġencoded": 4152,
      "Ġtyp": 4153,
      "Ġweb": 4154,
      "skip": 4155,
      "Ġtoo": 4156,
      "binary": 4157,
      "straints": 4158,
      "branch": 4159,
      "draw": 4160,
      "ĠRead": 4161,
      "ĠXML": 4162,
      "istics": 4163,
      "Rec": 4164,
      "Ġproduct": 4165,
      "precated": 4166,
      "lev": 4167,
      "Ġ})": 4168,
      "found": 4169,
      "icro": 4170,
      "www": 4171,
      "before": 4172,
      "sts": 4173,
      "(',": 4174,
      "comb": 4175,
      "Ġfetch": 4176,
      "admin": 4177,
      "')[": 4178,
      "Ġns": 4179,
      "Ġ$": 4180,
      "concat": 4181,
      "}/": 4182,
      "Series": 4183,
      "plugin": 4184,
      "As": 4185,
      "Ġnecessary": 4186,
      "Ġcommit": 4187,
      "Ġpublic": 4188,
      "ĠExamples": 4189,
      "ĠĊĠĠĠ": 4190,
      "cons": 4191,
      "Cannot": 4192,
      "Ġreason": 4193,
      "abspath": 4194,
      "alg": 4195,
      "drop": 4196,
      "blocks": 4197,
      "compute": 4198,
      "condition": 4199,
      "fp": 4200,
      "Ġtermin": 4201,
      "Ġdst": 4202,
      "ĠString": 4203,
      "layout": 4204,
      "Ġsetattr": 4205,
      "ĠNO": 4206,
      "neighb": 4207,
      "Record": 4208,
      "seed": 4209,
      "Ġrelation": 4210,
      "Ġside": 4211,
      "olved": 4212,
      "Ġsupp": 4213,
      "Cur": 4214,
      "tk": 4215,
      "Ġpandas": 4216,
      "utor": 4217,
      "22": 4218,
      "rep": 4219,
      "ells": 4220,
      "area": 4221,
      "']))": 4222,
      "mass": 4223,
      "uter": 4224,
      "resses": 4225,
      "Of": 4226,
      "ensity": 4227,
      "nections": 4228,
      "etwork": 4229,
      "structure": 4230,
      "Ġbro": 4231,
      "Ġavoid": 4232,
      "Do": 4233,
      "jection": 4234,
      "factory": 4235,
      "Ġut": 4236,
      "ĠParse": 4237,
      "rer": 4238,
      "Ġshell": 4239,
      "Ġsummary": 4240,
      "dx": 4241,
      "scribe": 4242,
      "running": 4243,
      "tool": 4244,
      "Resource": 4245,
      "rank": 4246,
      "ric": 4247,
      "entries": 4248,
      "proc": 4249,
      "spaces": 4250,
      "ancel": 4251,
      "Ġthose": 4252,
      "('--": 4253,
      "Ġnb": 4254,
      "TIME": 4255,
      "undle": 4256,
      "NotFound": 4257,
      "Ġcached": 4258,
      "note": 4259,
      "syn": 4260,
      "Ġsym": 4261,
      "TS": 4262,
      "ategories": 4263,
      "ZE": 4264,
      "OL": 4265,
      "Ġfinally": 4266,
      "Ġaccording": 4267,
      "ĊĊĊĠĠĠ": 4268,
      "AG": 4269,
      "Ġcurrently": 4270,
      "Ġlibrary": 4271,
      "Ġsetup": 4272,
      "Al": 4273,
      "ationError": 4274,
      "ACK": 4275,
      "Ġbash": 4276,
      "lip": 4277,
      "otential": 4278,
      "ips": 4279,
      "nb": 4280,
      "Ġseed": 4281,
      "çļ": 4282,
      "ĠBy": 4283,
      "ctories": 4284,
      "Ġduration": 4285,
      "enabled": 4286,
      "(\\": 4287,
      "ropy": 4288,
      "Ġpercent": 4289,
      "Ġetc": 4290,
      "prob": 4291,
      "Ġcontrol": 4292,
      "retry": 4293,
      "çļĦ": 4294,
      "Ġflow": 4295,
      "Ġmaster": 4296,
      "Ġpadding": 4297,
      "ï¼": 4298,
      "ĠDefaults": 4299,
      "}}": 4300,
      "loss": 4301,
      "Load": 4302,
      "Ġanother": 4303,
      "Ġreset": 4304,
      "commands": 4305,
      "isinstance": 4306,
      "control": 4307,
      "Ġeffect": 4308,
      "BUG": 4309,
      "Ġpositive": 4310,
      "Ġinner": 4311,
      "Lay": 4312,
      "members": 4313,
      "Ġfast": 4314,
      "bounds": 4315,
      "ĠCLI": 4316,
      "Ġcolors": 4317,
      "\").": 4318,
      "allel": 4319,
      "Ġ[[": 4320,
      "clus": 4321,
      "jor": 4322,
      "Ġput": 4323,
      "single": 4324,
      "ĠOtherwise": 4325,
      "ĠTrans": 4326,
      "cu": 4327,
      "records": 4328,
      "Ġvalidation": 4329,
      "grade": 4330,
      ":\\": 4331,
      "duration": 4332,
      "deg": 4333,
      "track": 4334,
      "tile": 4335,
      "firm": 4336,
      "UB": 4337,
      "Ġcsv": 4338,
      "Ġrank": 4339,
      "Ġbind": 4340,
      "(':": 4341,
      "vas": 4342,
      "Ġstarting": 4343,
      "Ġap": 4344,
      "OK": 4345,
      "Ġsimple": 4346,
      "ĊĠĠĠĠĠĠĠĠĠĠĠĠĠĠĠĠĠĠĠĠĠĠĠĠĠĠĠĠĠĠĠĠĠĠĠĠĠĠĠĠĠ": 4347,
      "product": 4348,
      "Ġwin": 4349,
      "Ġ\"--": 4350,
      "Ġhex": 4351,
      "Ġusers": 4352,
      "Ġrelease": 4353,
      "ĠQt": 4354,
      "Token": 4355,
      "setup": 4356,
      "Ġneighb": 4357,
      "(?": 4358,
      "ines": 4359,
      "Ġautomatic": 4360,
      "\"][\"": 4361,
      "ality": 4362,
      "wrapper": 4363,
      "oom": 4364,
      "66": 4365,
      "Ġbegin": 4366,
      "Ġmeasure": 4367,
      "TypeError": 4368,
      "alculate": 4369,
      "Ġbounds": 4370,
      "Ġrequires": 4371,
      "Ġfalse": 4372,
      "ASE": 4373,
      "rot": 4374,
      "home": 4375,
      "vidual": 4376,
      "signature": 4377,
      "untry": 4378,
      "conv": 4379,
      "verify": 4380,
      "hostname": 4381,
      "Ġwrapped": 4382,
      "oot": 4383,
      "priate": 4384,
      "dst": 4385,
      "bet": 4386,
      "Ġcalls": 4387,
      "provider": 4388,
      "Ġinstalled": 4389,
      "PAR": 4390,
      "ĊĠĠĠĠĠĠĠĠĠĠĠĠĠĠĠĠĠĠĠĠĠĠĠĠĠĠĠĠĠĠĠĠĠĠĠĠĠĠĠĠĠĠ": 4391,
      "Ġresources": 4392,
      "TML": 4393,
      "platform": 4394,
      "utype": 4395,
      "digest": 4396,
      "second": 4397,
      "Filter": 4398,
      "ĠWhether": 4399,
      "ĠLog": 4400,
      "('_": 4401,
      "__.__": 4402,
      "foo": 4403,
      "ridge": 4404,
      "dient": 4405,
      "pars": 4406,
      "iki": 4407,
      "Ġrepository": 4408,
      "Clo": 4409,
      "Ġtuples": 4410,
      "_)": 4411,
      "isdir": 4412,
      "lies": 4413,
      "rect": 4414,
      "Ġdetermine": 4415,
      "rece": 4416,
      "('.')": 4417,
      "backend": 4418,
      ")}": 4419,
      "Def": 4420,
      "tasks": 4421,
      "ava": 4422,
      "high": 4423,
      "assert": 4424,
      "--------------------------------": 4425,
      "VE": 4426,
      "Ġspecial": 4427,
      "Ġmove": 4428,
      "tw": 4429,
      "Ġradius": 4430,
      "final": 4431,
      "ural": 4432,
      "users": 4433,
      "ĠLOGGER": 4434,
      "Ġcut": 4435,
      "cum": 4436,
      "Ġsl": 4437,
      "Ġexecute": 4438,
      "epoch": 4439,
      "cert": 4440,
      "Ġpartition": 4441,
      "beta": 4442,
      "imp": 4443,
      "targets": 4444,
      "mooth": 4445,
      "Ġlow": 4446,
      "reader": 4447,
      "Ġbelow": 4448,
      "kernel": 4449,
      "Ġ''.": 4450,
      "reduce": 4451,
      "Ġlet": 4452,
      "ĠImport": 4453,
      "ked": 4454,
      "Ġloaded": 4455,
      "hood": 4456,
      "Ġstrip": 4457,
      "integer": 4458,
      "Ca": 4459,
      "ours": 4460,
      "Ġbar": 4461,
      "strings": 4462,
      "dl": 4463,
      "Manager": 4464,
      "Ġupload": 4465,
      "engine": 4466,
      "messages": 4467,
      "Ġexpr": 4468,
      "Could": 4469,
      "Ġignored": 4470,
      "Ġdot": 4471,
      "usters": 4472,
      "uff": 4473,
      "exclude": 4474,
      "PRE": 4475,
      ",'": 4476,
      "Ġstri": 4477,
      "uplicate": 4478,
      "Function": 4479,
      "Attribute": 4480,
      "Ġpid": 4481,
      "Ġappropriate": 4482,
      "%(": 4483,
      "mediate": 4484,
      "servation": 4485,
      "inv": 4486,
      "Ġdesired": 4487,
      "ront": 4488,
      "diag": 4489,
      ".\",": 4490,
      "quote": 4491,
      "Ġwell": 4492,
      "Ġprogram": 4493,
      "Ġnormalize": 4494,
      "ĠPre": 4495,
      "Ġexpect": 4496,
      "asarray": 4497,
      "scheme": 4498,
      "Ġphase": 4499,
      "LIN": 4500,
      "pb": 4501,
      "ks": 4502,
      "Ġcollections": 4503,
      "Ġ))": 4504,
      "ants": 4505,
      "23": 4506,
      "Ġyet": 4507,
      "sin": 4508,
      "dify": 4509,
      "SER": 4510,
      "catalog": 4511,
      "uous": 4512,
      "theta": 4513,
      "ilities": 4514,
      "ulti": 4515,
      "atom": 4516,
      "mplates": 4517,
      "origin": 4518,
      "Ġ),": 4519,
      "View": 4520,
      "Command": 4521,
      "epcopy": 4522,
      "pd": 4523,
      "Ġincre": 4524,
      "256": 4525,
      "ada": 4526,
      "Ġround": 4527,
      "ouble": 4528,
      "['_": 4529,
      "iterable": 4530,
      "metrics": 4531,
      "Ġoccur": 4532,
      "unch": 4533,
      "sources": 4534,
      "web": 4535,
      "Action": 4536,
      "cm": 4537,
      "opy": 4538,
      "js": 4539,
      "scan": 4540,
      "Ġfrequency": 4541,
      "stit": 4542,
      "Ġdrop": 4543,
      "clip": 4544,
      "MM": 4545,
      "Implemented": 4546,
      "Ġexact": 4547,
      "Ġatom": 4548,
      "Ġfigure": 4549,
      "quare": 4550,
      "Ġmight": 4551,
      "Ġasync": 4552,
      "Ġreduce": 4553,
      "shell": 4554,
      "Tra": 4555,
      "Ġcounts": 4556,
      "rong": 4557,
      "Ġsafe": 4558,
      "Ġmodified": 4559,
      "istent": 4560,
      "pred": 4561,
      ")'": 4562,
      "Ġcredentials": 4563,
      "ENT": 4564,
      "Stream": 4565,
      "sess": 4566,
      "resp": 4567,
      "501": 4568,
      "pan": 4569,
      "Ġrep": 4570,
      "Ġnegative": 4571,
      "ratio": 4572,
      "sync": 4573,
      "VI": 4574,
      "Widget": 4575,
      "ĠHe": 4576,
      "ĠIN": 4577,
      "sidered": 4578,
      "crypted": 4579,
      "Method": 4580,
      "ough": 4581,
      "Ġtab": 4582,
      "struction": 4583,
      "wraps": 4584,
      "27": 4585,
      "Ġcir": 4586,
      "Ġsets": 4587,
      "Ġdump": 4588,
      "ĠCommand": 4589,
      "Box": 4590,
      "Ġfd": 4591,
      "ĠAll": 4592,
      "ĠYou": 4593,
      "ited": 4594,
      "Ġmac": 4595,
      "available": 4596,
      "UE": 4597,
      "ĊĊ": 4598,
      "']]": 4599,
      "driver": 4600,
      "cov": 4601,
      "Ac": 4602,
      "|'": 4603,
      "ools": 4604,
      "echo": 4605,
      "ression": 4606,
      "Mo": 4607,
      "'\"": 4608,
      "static": 4609,
      "expi": 4610,
      "definition": 4611,
      "dle": 4612,
      "render": 4613,
      "Ġsupplied": 4614,
      "Ġincluded": 4615,
      ")**": 4616,
      "mesh": 4617,
      "indows": 4618,
      "private": 4619,
      "SA": 4620,
      "otes": 4621,
      "Ġredirect": 4622,
      "}:": 4623,
      "orary": 4624,
      "Ġonce": 4625,
      "Ġ<<": 4626,
      "Ġconsidered": 4627,
      "esca": 4628,
      "Ġclear": 4629,
      "We": 4630,
      "Ġalong": 4631,
      "Format": 4632,
      "Ġduring": 4633,
      "Fe": 4634,
      "separ": 4635,
      "hidden": 4636,
      "Ġmesh": 4637,
      "Ġabsolute": 4638,
      "Ġreceived": 4639,
      "ĠPo": 4640,
      "limiter": 4641,
      "example": 4642,
      ")\\": 4643,
      "ĠSpeci": 4644,
      "Ġoutputs": 4645,
      "yaml": 4646,
      "glob": 4647,
      "Ġ20": 4648,
      "40": 4649,
      "ii": 4650,
      "Ġ':": 4651,
      "ĠUni": 4652,
      "Tensor": 4653,
      "IC": 4654,
      "Ġenabled": 4655,
      "ĠTh": 4656,
      "åı": 4657,
      "FIG": 4658,
      "Ġcols": 4659,
      "cluding": 4660,
      "Ġmodules": 4661,
      "frac": 4662,
      "Ġepoch": 4663,
      "Cont": 4664,
      "sem": 4665,
      "={'": 4666,
      "Ġraised": 4667,
      "Ġsn": 4668,
      "mk": 4669,
      "Default": 4670,
      "Ġ1000": 4671,
      "cing": 4672,
      "Ġhy": 4673,
      "chan": 4674,
      "Ġplatform": 4675,
      "Ġfailure": 4676,
      "XX": 4677,
      "Ġdecode": 4678,
      "Ġaddr": 4679,
      "shift": 4680,
      "progress": 4681,
      "generator": 4682,
      "Ġcurr": 4683,
      "require": 4684,
      "Ġsteps": 4685,
      "Ġinside": 4686,
      "irst": 4687,
      "Ġexecution": 4688,
      "reat": 4689,
      "Met": 4690,
      "Ġds": 4691,
      "90": 4692,
      "delay": 4693,
      "Ġformatted": 4694,
      "Link": 4695,
      "Ġconverted": 4696,
      "Ġchecks": 4697,
      "Ġprec": 4698,
      "original": 4699,
      "begin": 4700,
      "Source": 4701,
      "configuration": 4702,
      "flatten": 4703,
      "ĠFI": 4704,
      "iso": 4705,
      "ĠTe": 4706,
      ".',": 4707,
      "ĠBo": 4708,
      "STR": 4709,
      "Block": 4710,
      ")-": 4711,
      "Ġsmall": 4712,
      "ĠDict": 4713,
      "pacity": 4714,
      "Mode": 4715,
      "Ġsaved": 4716,
      "Ġ'<": 4717,
      "registry": 4718,
      "attrib": 4719,
      "Ġscipy": 4720,
      "SIZE": 4721,
      "ĠAt": 4722,
      "86": 4723,
      "ription": 4724,
      "Ġoverwrite": 4725,
      "ĠNotImplemented": 4726,
      "Ġless": 4727,
      "done": 4728,
      "ĠCode": 4729,
      "ORD": 4730,
      "Ġio": 4731,
      "Ġknown": 4732,
      "rr": 4733,
      "ĠBase": 4734,
      "Ġchannels": 4735,
      "predi": 4736,
      "Ġmd": 4737,
      "75": 4738,
      "OS": 4739,
      "ĠOSError": 4740,
      "Ġtasks": 4741,
      "INT": 4742,
      "CP": 4743,
      "cpu": 4744,
      "Ġdeleted": 4745,
      "Ġalt": 4746,
      "Ġscan": 4747,
      "Ġfeed": 4748,
      "ĠLoad": 4749,
      "lis": 4750,
      "activ": 4751,
      "Ġmid": 4752,
      "Ġleg": 4753,
      "Ġcb": 4754,
      "Ġgit": 4755,
      "writer": 4756,
      "oriz": 4757,
      "quival": 4758,
      "internal": 4759,
      "Ġfilepath": 4760,
      "elem": 4761,
      ",))": 4762,
      "Tag": 4763,
      "{}\".": 4764,
      "Ġtraining": 4765,
      "ĠIndexError": 4766,
      "Ġcla": 4767,
      "Ġmetrics": 4768,
      "getattr": 4769,
      "measure": 4770,
      "Ġeven": 4771,
      "Ġregistered": 4772,
      "Ġenable": 4773,
      "ALL": 4774,
      "seek": 4775,
      "Ġactions": 4776,
      "allback": 4777,
      "processing": 4778,
      "direction": 4779,
      "auss": 4780,
      "structor": 4781,
      "splitext": 4782,
      "cn": 4783,
      "compat": 4784,
      "Ġverb": 4785,
      "antity": 4786,
      "Ġlogin": 4787,
      "grees": 4788,
      "aving": 4789,
      "ĠIter": 4790,
      "power": 4791,
      "Ġmatplotlib": 4792,
      "ssl": 4793,
      "Ġans": 4794,
      "rstrip": 4795,
      "COL": 4796,
      "inc": 4797,
      "Ġtile": 4798,
      "orld": 4799,
      "`:": 4800,
      "mer": 4801,
      "radius": 4802,
      "Ġscalar": 4803,
      "Ġtargets": 4804,
      "div": 4805,
      "Server": 4806,
      "lan": 4807,
      "Ġfreq": 4808,
      "lso": 4809,
      "Ġusage": 4810,
      "Ġreply": 4811,
      ".'''": 4812,
      "\\'": 4813,
      "System": 4814,
      "Ġ~": 4815,
      "Ġconver": 4816,
      "Ġarchive": 4817,
      "ifiers": 4818,
      "Ġexplicit": 4819,
      "Ġsens": 4820,
      "Ġautomatically": 4821,
      "outputs": 4822,
      "asis": 4823,
      "Ġnested": 4824,
      "sumer": 4825,
      "ifest": 4826,
      "correct": 4827,
      "Ġprovider": 4828,
      "created": 4829,
      "Ġaggreg": 4830,
      "estim": 4831,
      "Ġve": 4832,
      "Ġcover": 4833,
      "84": 4834,
      "Ġexport": 4835,
      "Ġmarker": 4836,
      ")',": 4837,
      "pdf": 4838,
      "Params": 4839,
      "onal": 4840,
      "enu": 4841,
      "mem": 4842,
      "rules": 4843,
      "GS": 4844,
      "upload": 4845,
      "media": 4846,
      "riteria": 4847,
      "ĠOrderedDict": 4848,
      "HO": 4849,
      "Ġdid": 4850,
      "Ġlater": 4851,
      "cwd": 4852,
      "gz": 4853,
      "Ġpositions": 4854,
      "Ġagainst": 4855,
      "ector": 4856,
      "transaction": 4857,
      "Ġstatement": 4858,
      "Ġdefining": 4859,
      "Level": 4860,
      "walk": 4861,
      "Ċĉĉĉĉ": 4862,
      "Ġdig": 4863,
      "Ġselection": 4864,
      "Ġscheme": 4865,
      "Ġrepe": 4866,
      "Ġbins": 4867,
      "Ġsep": 4868,
      "ber": 4869,
      "EM": 4870,
      "Store": 4871,
      "present": 4872,
      "Ġknow": 4873,
      "Ġsources": 4874,
      "Spec": 4875,
      "Ġps": 4876,
      "Ġembed": 4877,
      "sock": 4878,
      "functions": 4879,
      "Ġblocks": 4880,
      "Ġyaml": 4881,
      "Ġbeta": 4882,
      "Ġcoords": 4883,
      "MAX": 4884,
      "Ġ'':": 4885,
      "ube": 4886,
      "Address": 4887,
      "ender": 4888,
      "del": 4889,
      "zen": 4890,
      "ĠRequest": 4891,
      "packet": 4892,
      "Color": 4893,
      "Parameter": 4894,
      "AND": 4895,
      "....": 4896,
      "]],": 4897,
      "Ġchunks": 4898,
      "END": 4899,
      "Hel": 4900,
      "boot": 4901,
      "holder": 4902,
      "coordin": 4903,
      "Ġfixed": 4904,
      "accept": 4905,
      "Ġinv": 4906,
      "Ġmanager": 4907,
      "Ġretrieve": 4908,
      "PS": 4909,
      "hing": 4910,
      "95": 4911,
      "operator": 4912,
      "havi": 4913,
      "ĠDis": 4914,
      "ygon": 4915,
      "End": 4916,
      "ptr": 4917,
      "Ġimplemented": 4918,
      "ROM": 4919,
      "rupt": 4920,
      "ferred": 4921,
      "ĠAlso": 4922,
      "otype": 4923,
      "topic": 4924,
      "Ġts": 4925,
      "Ġpr": 4926,
      "Ġworker": 4927,
      "Ġconv": 4928,
      "Ġarea": 4929,
      "Ġissue": 4930,
      "Ġversions": 4931,
      "Sign": 4932,
      "Ġpers": 4933,
      "rowser": 4934,
      "equal": 4935,
      "Ġproblem": 4936,
      "utc": 4937,
      "ula": 4938,
      "ral": 4939,
      "pm": 4940,
      "Ġ*=": 4941,
      "Ġiterator": 4942,
      "Ġagent": 4943,
      "Ġregistry": 4944,
      "partial": 4945,
      "Row": 4946,
      "Ġspa": 4947,
      "asset": 4948,
      "Ġworks": 4949,
      "uess": 4950,
      "35": 4951,
      "Ġmatched": 4952,
      "ĠError": 4953,
      "GB": 4954,
      "logical": 4955,
      "Ġorg": 4956,
      "DIR": 4957,
      "ĠObject": 4958,
      "Ġstill": 4959,
      "DATA": 4960,
      "'|'": 4961,
      "ĠBuild": 4962,
      "td": 4963,
      "prev": 4964,
      "pick": 4965,
      "Ġnone": 4966,
      ")+": 4967,
      "Ġreader": 4968,
      "Ġfiltered": 4969,
      "Ad": 4970,
      "Ġtopic": 4971,
      "lihood": 4972,
      "xim": 4973,
      "Ġprocessed": 4974,
      "Ġengine": 4975,
      "lst": 4976,
      "Ġpartial": 4977,
      "INFO": 4978,
      "ĊĠĠĠĠĠĠĠĠĠĠĠĠĠĠĠĠĠĠĠĠĠĠĠĠĠĠĠĠĠĠĠĠĠĠĠĠĠĠĠĠĠĠĠĠĠĠĠ": 4979,
      "Ġmut": 4980,
      "Ġsnapshot": 4981,
      "br": 4982,
      "Ġpipe": 4983,
      "Ġcov": 4984,
      "Ġiteration": 4985,
      "tack": 4986,
      "Ġcoeffici": 4987,
      "ĠImage": 4988,
      "Ġimplementation": 4989,
      "Ġremaining": 4990,
      "ocument": 4991,
      "const": 4992,
      "seg": 4993,
      "ĠId": 4994,
      "/'": 4995,
      "Ġpower": 4996,
      "Ġhapp": 4997,
      "Output": 4998,
      "Ġvals": 4999,
      "sto": 5000,
      "Ġglob": 5001,
      "Ġhook": 5002,
      "ĠSh": 5003,
      "Proper": 5004,
      "Ġhelper": 5005,
      "google": 5006,
      "free": 5007,
      "Ġtool": 5008,
      "Ġsequences": 5009,
      "serve": 5010,
      "parsed": 5011,
      "Ġtransp": 5012,
      "owner": 5013,
      "rency": 5014,
      "Ġcert": 5015,
      "tables": 5016,
      "andidates": 5017,
      "Ġrepr": 5018,
      "ĠĊĠĠĠĠĠĠĠĠĠĠĠ": 5019,
      "inner": 5020,
      "]).": 5021,
      "resolve": 5022,
      "tention": 5023,
      ".'.": 5024,
      "normalize": 5025,
      "ĠCompute": 5026,
      "Job": 5027,
      "frames": 5028,
      "dence": 5029,
      "lier": 5030,
      "Ġrules": 5031,
      "96": 5032,
      "ssh": 5033,
      "proto": 5034,
      "ĠĠĠĠĠĠĠĠĠĠĠĠĠ": 5035,
      "worker": 5036,
      "em": 5037,
      "services": 5038,
      "85": 5039,
      "Ġbackground": 5040,
      "uler": 5041,
      "MAT": 5042,
      "mar": 5043,
      "archive": 5044,
      "Ġgreater": 5045,
      "choice": 5046,
      "Ġpixel": 5047,
      "Entry": 5048,
      "\"\\": 5049,
      "Pa": 5050,
      "Ġcourse": 5051,
      "Ġdelay": 5052,
      "[:]": 5053,
      "Ġ60": 5054,
      "ierarch": 5055,
      "reen": 5056,
      "Unknown": 5057,
      "zy": 5058,
      "ond": 5059,
      "Ġattach": 5060,
      "=\"\"": 5061,
      "keyword": 5062,
      "osity": 5063,
      "Ġtakes": 5064,
      "ragma": 5065,
      "ĠHandle": 5066,
      "predict": 5067,
      "loader": 5068,
      "Ġapplied": 5069,
      "Auto": 5070,
      "ili": 5071,
      "edit": 5072,
      "selected": 5073,
      "lag": 5074,
      "alance": 5075,
      "chor": 5076,
      "tol": 5077,
      "Range": 5078,
      "(\"-": 5079,
      "most": 5080,
      "Ġdetermin": 5081,
      "_(": 5082,
      "apping": 5083,
      "Ġanaly": 5084,
      "Ġlayout": 5085,
      "Ġdev": 5086,
      "Ġconstruct": 5087,
      "ttp": 5088,
      "Unable": 5089,
      "usage": 5090,
      "36": 5091,
      "specimen": 5092,
      "escape": 5093,
      "hy": 5094,
      "Ġasynchronous": 5095,
      "identity": 5096,
      "Ġactiv": 5097,
      "Ġwritten": 5098,
      "Ġinterpol": 5099,
      "')]": 5100,
      "tainer": 5101,
      "Ġrv": 5102,
      "Ġhostname": 5103,
      "/(": 5104,
      "=['": 5105,
      "PA": 5106,
      "dn": 5107,
      "pointer": 5108,
      "flux": 5109,
      "Ġsat": 5110,
      "Sc": 5111,
      "Ġgr": 5112,
      "Dir": 5113,
      "MENT": 5114,
      "VERSION": 5115,
      "ĠSub": 5116,
      "Ġpackages": 5117,
      "LECT": 5118,
      "flush": 5119,
      "Ġworking": 5120,
      "Part": 5121,
      "On": 5122,
      "ĠBe": 5123,
      "ARN": 5124,
      ");": 5125,
      "Num": 5126,
      "Ġbad": 5127,
      "strument": 5128,
      "Ġlayers": 5129,
      "Ġrelated": 5130,
      "ĠĠĠĠĠĠĠĠĠĠĠĠĠĠ": 5131,
      "packages": 5132,
      "Ġhistory": 5133,
      "Ġesca": 5134,
      "ĊĠĠĠĠĠĠĠĠĠĠĠĠĠĠĠĠĠĠĠĠĠĠĠĠĠĠĠĠĠĠĠĠĠĠĠĠĠĠĠĠĠĠĠĠĠ": 5135,
      "fied": 5136,
      ">>": 5137,
      "Ġlate": 5138,
      "Ġdec": 5139,
      "bam": 5140,
      "Ġtar": 5141,
      "oo": 5142,
      "Ġeps": 5143,
      "refresh": 5144,
      "creen": 5145,
      "ount": 5146,
      "Ġnull": 5147,
      "emon": 5148,
      "Ġå": 5149,
      "Ġ\\'": 5150,
      "Ġ32": 5151,
      "slug": 5152,
      "magic": 5153,
      "ĠNotImplementedError": 5154,
      "feed": 5155,
      "uses": 5156,
      "png": 5157,
      "Ġprocessing": 5158,
      "findall": 5159,
      "Ġpipeline": 5160,
      "Ġlinks": 5161,
      "ĠNode": 5162,
      "Ġaverage": 5163,
      "ij": 5164,
      "ĠOper": 5165,
      "Ġnotification": 5166,
      "ValueError": 5167,
      "Ġasset": 5168,
      "Ġvirtual": 5169,
      "Ġintegr": 5170,
      "ĠInitial": 5171,
      "relation": 5172,
      "Ref": 5173,
      "pal": 5174,
      "oring": 5175,
      "aa": 5176,
      "embed": 5177,
      "ĠCan": 5178,
      "ĠArguments": 5179,
      "calc": 5180,
      "Ġtick": 5181,
      "SIG": 5182,
      "ACE": 5183,
      "mitted": 5184,
      "Ġproc": 5185,
      "PY": 5186,
      "roid": 5187,
      "calcul": 5188,
      "versed": 5189,
      "Ġindexes": 5190,
      "Ġpredict": 5191,
      "ship": 5192,
      "Ġfilenames": 5193,
      "optim": 5194,
      "Ġprior": 5195,
      "LL": 5196,
      "figure": 5197,
      "requests": 5198,
      "Handle": 5199,
      "reverse": 5200,
      "Ġsimp": 5201,
      "Ġvari": 5202,
      "Ġ[-": 5203,
      "ĠInput": 5204,
      "detail": 5205,
      "quivalent": 5206,
      "rev": 5207,
      "iling": 5208,
      "Ġmachine": 5209,
      "____": 5210,
      "cogn": 5211,
      "Ġnothing": 5212,
      "Write": 5213,
      "stract": 5214,
      "ceed": 5215,
      "Ġrect": 5216,
      "inds": 5217,
      "refs": 5218,
      "Ġada": 5219,
      "Ġspecification": 5220,
      "analysis": 5221,
      "constants": 5222,
      "Ġnormalized": 5223,
      "Ġsolution": 5224,
      "Ed": 5225,
      "pg": 5226,
      ")(": 5227,
      "Python": 5228,
      "Ġmembers": 5229,
      "(\"/": 5230,
      "olds": 5231,
      "splitlines": 5232,
      "Ġconversion": 5233,
      "see": 5234,
      "Ġconnected": 5235,
      "band": 5236,
      "Ġcurve": 5237,
      "pairs": 5238,
      "Ġcompar": 5239,
      "77": 5240,
      "TED": 5241,
      "Ġprimary": 5242,
      "attach": 5243,
      "Ġcases": 5244,
      "Ġsec": 5245,
      "Ġdeprecated": 5246,
      "NG": 5247,
      "terms": 5248,
      "Ġown": 5249,
      ".\\": 5250,
      "tl": 5251,
      "ied": 5252,
      "decor": 5253,
      "Qt": 5254,
      "ĠForm": 5255,
      "CM": 5256,
      "PER": 5257,
      "scores": 5258,
      "subplot": 5259,
      "ĠOpen": 5260,
      "wb": 5261,
      "big": 5262,
      "ailf": 5263,
      "][\"": 5264,
      "indexes": 5265,
      "atype": 5266,
      "Ġreci": 5267,
      "('{": 5268,
      "Ġcore": 5269,
      "failed": 5270,
      "aggreg": 5271,
      "aw": 5272,
      "Ġfun": 5273,
      "lict": 5274,
      "='',": 5275,
      "family": 5276,
      "Ġloss": 5277,
      "Ġproto": 5278,
      "gers": 5279,
      "argin": 5280,
      "blob": 5281,
      "eries": 5282,
      "lyph": 5283,
      "linear": 5284,
      "aut": 5285,
      "udio": 5286,
      "Ġlineno": 5287,
      "ftime": 5288,
      "alf": 5289,
      "chars": 5290,
      "cryption": 5291,
      "Ġobs": 5292,
      "quire": 5293,
      "signed": 5294,
      "Ġord": 5295,
      "prompt": 5296,
      "hosts": 5297,
      "wards": 5298,
      "cio": 5299,
      "ĠSy": 5300,
      "Ġspan": 5301,
      "CONFIG": 5302,
      "security": 5303,
      "AX": 5304,
      "NE": 5305,
      "Ġregular": 5306,
      "actor": 5307,
      "ĠReg": 5308,
      "ĠHTML": 5309,
      "shut": 5310,
      "pology": 5311,
      "Length": 5312,
      "[(": 5313,
      "Ġversionadded": 5314,
      "tein": 5315,
      "Ġdiag": 5316,
      "peak": 5317,
      "posure": 5318,
      "ĠOut": 5319,
      "vol": 5320,
      "Ġcatalog": 5321,
      "HER": 5322,
      "Build": 5323,
      "ĠNe": 5324,
      "selection": 5325,
      "ĠStart": 5326,
      "Ġstrict": 5327,
      "Device": 5328,
      "If": 5329,
      "instances": 5330,
      "Ġdriver": 5331,
      "Ġtheta": 5332,
      "lices": 5333,
      "phase": 5334,
      "Ġ:]": 5335,
      "istic": 5336,
      "Sp": 5337,
      "rpc": 5338,
      "DEBUG": 5339,
      "amount": 5340,
      "sence": 5341,
      "illar": 5342,
      "Ġmass": 5343,
      "orter": 5344,
      "Ġparsing": 5345,
      "1000": 5346,
      "Ġtor": 5347,
      "voke": 5348,
      "tar": 5349,
      "break": 5350,
      "Ġcollect": 5351,
      "Label": 5352,
      "handlers": 5353,
      "disk": 5354,
      "radi": 5355,
      "menu": 5356,
      "ring": 5357,
      "pture": 5358,
      "cached": 5359,
      "Search": 5360,
      "Ġsimilar": 5361,
      "ï¼Į": 5362,
      "Ġisn": 5363,
      "\"'": 5364,
      "rypt": 5365,
      "Ġclosed": 5366,
      "ORT": 5367,
      "false": 5368,
      "Ġ[{": 5369,
      "Ġaround": 5370,
      "Max": 5371,
      "slot": 5372,
      "lists": 5373,
      "ĠEach": 5374,
      "Ġblob": 5375,
      "ipv": 5376,
      "Ġresolve": 5377,
      "Ġsomething": 5378,
      "UID": 5379,
      "ĠImportError": 5380,
      "sr": 5381,
      "Su": 5382,
      "Ġdescri": 5383,
      "Ġ?": 5384,
      "ĠCall": 5385,
      "Ġrespect": 5386,
      "Ġprecision": 5387,
      "plan": 5388,
      "Ġnoise": 5389,
      "priority": 5390,
      "question": 5391,
      "linalg": 5392,
      "Ġtz": 5393,
      "gnitude": 5394,
      "Ġitself": 5395,
      "grad": 5396,
      "iler": 5397,
      "quired": 5398,
      "bad": 5399,
      "ĠModel": 5400,
      "clar": 5401,
      "Ġuuid": 5402,
      "Ġcandidate": 5403,
      "wiki": 5404,
      "environment": 5405,
      "notification": 5406,
      "Ġindividual": 5407,
      "digit": 5408,
      "Ġstage": 5409,
      "Ġ\"'": 5410,
      ".\".": 5411,
      "Ġeval": 5412,
      "sections": 5413,
      "Ġstatic": 5414,
      "Ġpack": 5415,
      "Ġexperiment": 5416,
      "override": 5417,
      "Ġdays": 5418,
      "70": 5419,
      "export": 5420,
      "Ġseen": 5421,
      "cover": 5422,
      "upported": 5423,
      "enate": 5424,
      "Task": 5425,
      "Ġcoordinate": 5426,
      "Ġannotation": 5427,
      "+'": 5428,
      "Ġtables": 5429,
      "unknown": 5430,
      "connected": 5431,
      "editor": 5432,
      "Ġmedia": 5433,
      "Ġden": 5434,
      "reason": 5435,
      "Ġratio": 5436,
      "allowed": 5437,
      "ipping": 5438,
      "Ġsto": 5439,
      "ä»": 5440,
      "Ġequ": 5441,
      "Ġpragma": 5442,
      "des": 5443,
      "ONE": 5444,
      "Ġturn": 5445,
      "oto": 5446,
      "HEAD": 5447,
      "ĠResponse": 5448,
      "maked": 5449,
      "ĊĠĠĠĠĠĠĠĠĠĠĠĠĠĠĠĠĠĠĠĠĠĠĠĠĠĠĠĠĠĠĠĠĠĠĠĠĠĠĠĠĠĠĠĠĠĠ": 5450,
      "flat": 5451,
      "26": 5452,
      "tour": 5453,
      "px": 5454,
      "Ġscores": 5455,
      "Ġ15": 5456,
      "bus": 5457,
      "ptime": 5458,
      "Ġtran": 5459,
      "PIPE": 5460,
      "icle": 5461,
      "dc": 5462,
      "Ġxrange": 5463,
      "ĠGenerate": 5464,
      "Ġoutfile": 5465,
      "*.": 5466,
      "Logger": 5467,
      "Ġadmin": 5468,
      "Ġmerged": 5469,
      "Ġ255": 5470,
      "Ġfore": 5471,
      "ysical": 5472,
      "Ċĉĉĉĉĉ": 5473,
      "geo": 5474,
      "ĠST": 5475,
      "Ġactually": 5476,
      "levels": 5477,
      "ueue": 5478,
      "Work": 5479,
      "ared": 5480,
      "ĊĊĠĠĠĠĠĠĠĠĠĠĠĠĠĠĠĠĠĠĠĠĠĠĠ": 5481,
      "quiet": 5482,
      "ongo": 5483,
      "destination": 5484,
      "Ġuid": 5485,
      "ĠGiven": 5486,
      "ĠSalt": 5487,
      "iver": 5488,
      ".%": 5489,
      "hi": 5490,
      "Ġreturning": 5491,
      "BO": 5492,
      "ĠDB": 5493,
      "nu": 5494,
      "Ġsecret": 5495,
      "urls": 5496,
      "Ġsock": 5497,
      "IST": 5498,
      "ĠThere": 5499,
      "âĶ": 5500,
      "unic": 5501,
      "Ġunpack": 5502,
      "IF": 5503,
      "Ġener": 5504,
      "olders": 5505,
      "Ġep": 5506,
      "ummy": 5507,
      "All": 5508,
      "Ġresid": 5509,
      "monitor": 5510,
      "Ġdependencies": 5511,
      "Ġrecursive": 5512,
      "\"][": 5513,
      "semb": 5514,
      "else": 5515,
      "Page": 5516,
      "Ġfh": 5517,
      "arc": 5518,
      "Column": 5519,
      "clusive": 5520,
      "CL": 5521,
      "ider": 5522,
      "bi": 5523,
      "aves": 5524,
      "Ġoperations": 5525,
      "Ġlooking": 5526,
      "soft": 5527,
      "nr": 5528,
      "rase": 5529,
      "Ġdocumentation": 5530,
      "Ġforward": 5531,
      "ULL": 5532,
      "9999": 5533,
      "hat": 5534,
      "Ġdataframe": 5535,
      "MAP": 5536,
      "adcast": 5537,
      "crete": 5538,
      "Ġmodifi": 5539,
      "Can": 5540,
      "rad": 5541,
      "fasta": 5542,
      "Ġattempt": 5543,
      "Ġjobs": 5544,
      "trip": 5545,
      "ĠMessage": 5546,
      "anded": 5547,
      "ritical": 5548,
      "Ġfs": 5549,
      "Ġencode": 5550,
      "Ġsecurity": 5551,
      "subprocess": 5552,
      "itespace": 5553,
      "Ġwriter": 5554,
      "ĠIDs": 5555,
      "Ġdirectories": 5556,
      "Ġbutton": 5557,
      "strftime": 5558,
      "Ġdue": 5559,
      "FIX": 5560,
      "You": 5561,
      "Ġmx": 5562,
      "Ġ'.'": 5563,
      "Dyn": 5564,
      "ever": 5565,
      "park": 5566,
      "visible": 5567,
      "algorithm": 5568,
      "lang": 5569,
      "fc": 5570,
      "Ġ'#": 5571,
      "Ġmultip": 5572,
      "joint": 5573,
      "Ġlinear": 5574,
      "Optional": 5575,
      "_%": 5576,
      "relative": 5577,
      "AF": 5578,
      "enable": 5579,
      "Ġbehavi": 5580,
      "closed": 5581,
      "Open": 5582,
      "ticks": 5583,
      "78": 5584,
      "snapshot": 5585,
      "čĊĠĠĠĠĠĠĠĠĠĠĠĠĠĠĠĠĠĠĠ": 5586,
      "ĠFirst": 5587,
      "Ġunknown": 5588,
      "suppress": 5589,
      "semble": 5590,
      "ading": 5591,
      "arest": 5592,
      "button": 5593,
      "pose": 5594,
      "Ġdeploy": 5595,
      "ctools": 5596,
      "Ġflux": 5597,
      "selector": 5598,
      "Ġbuilt": 5599,
      "RED": 5600,
      "Ġ'{}'": 5601,
      "()),": 5602,
      "props": 5603,
      "Ġæ": 5604,
      ">'": 5605,
      "Ġdeg": 5606,
      "!\")": 5607,
      "ĊĊĊĠĠĠĠĠĠĠ": 5608,
      "Ġdx": 5609,
      "Ġaltern": 5610,
      "forward": 5611,
      "simple": 5612,
      "uble": 5613,
      "ategy": 5614,
      "Ġspect": 5615,
      "ĠWrite": 5616,
      "fft": 5617,
      "Ġexternal": 5618,
      "Ġterms": 5619,
      "Ġ'/'": 5620,
      "scalar": 5621,
      "Ġconfigured": 5622,
      "CF": 5623,
      "sage": 5624,
      "Ġshutil": 5625,
      "ĠNOTE": 5626,
      "modified": 5627,
      "configs": 5628,
      "resid": 5629,
      "Ġshift": 5630,
      "pages": 5631,
      "ĠCO": 5632,
      "tage": 5633,
      "Min": 5634,
      "FIEL": 5635,
      "ĠCalculate": 5636,
      "PTION": 5637,
      "ilon": 5638,
      "Ġflatten": 5639,
      "Ġsegments": 5640,
      "Ġslot": 5641,
      "Ġmime": 5642,
      "CTION": 5643,
      "inder": 5644,
      "Ġtemperature": 5645,
      "Ġsurface": 5646,
      "Change": 5647,
      "Variable": 5648,
      "Ġservices": 5649,
      "week": 5650,
      "Ġcreating": 5651,
      "ĠWindows": 5652,
      "Parameters": 5653,
      "Layer": 5654,
      "=='": 5655,
      "Ġbottom": 5656,
      "marker": 5657,
      "ract": 5658,
      "switch": 5659,
      "CI": 5660,
      "ically": 5661,
      "Is": 5662,
      "devices": 5663,
      "Ġupdates": 5664,
      "ĠFunction": 5665,
      "ĠCreates": 5666,
      "Ġms": 5667,
      "kit": 5668,
      "Ġseparate": 5669,
      "push": 5670,
      "PUT": 5671,
      "segments": 5672,
      "library": 5673,
      "onical": 5674,
      "many": 5675,
      "derer": 5676,
      "Ġcomments": 5677,
      "Pri": 5678,
      "Ġmis": 5679,
      "Ġidentity": 5680,
      "DynClass": 5681,
      "Ġ).": 5682,
      "Ġpatch": 5683,
      "credentials": 5684,
      "transport": 5685,
      "extmethods": 5686,
      "Ġextmethods": 5687,
      ",),": 5688,
      "Ġflat": 5689,
      "eq": 5690,
      "course": 5691,
      "bg": 5692,
      "Ġreading": 5693,
      "lc": 5694,
      "Ġpur": 5695,
      "lar": 5696,
      "ĠAc": 5697,
      "Ġvertex": 5698,
      "Ġcertificate": 5699,
      "ĠPO": 5700,
      "evalu": 5701,
      "prepare": 5702,
      "ubclass": 5703,
      "orizont": 5704,
      "versions": 5705,
      "Act": 5706,
      "Ġquote": 5707,
      "']):": 5708,
      "ĠBack": 5709,
      "repository": 5710,
      "Ġmapped": 5711,
      "pipeline": 5712,
      "_:": 5713,
      "minion": 5714,
      "sizes": 5715,
      "aussian": 5716,
      "ĠSo": 5717,
      "JSON": 5718,
      "Ġpriority": 5719,
      "ĠAss": 5720,
      "sessment": 5721,
      "28": 5722,
      "29": 5723,
      "builder": 5724,
      "Ġexpand": 5725,
      "Ġ-----": 5726,
      "forms": 5727,
      "atrix": 5728,
      "redirect": 5729,
      "74": 5730,
      "deepcopy": 5731,
      "ierarchy": 5732,
      "Ġauthentication": 5733,
      "Ġallows": 5734,
      "supported": 5735,
      "rum": 5736,
      "listdir": 5737,
      "uman": 5738,
      "Ġcompare": 5739,
      "repe": 5740,
      "Ġtrigger": 5741,
      "Network": 5742,
      "reply": 5743,
      "geometry": 5744,
      "Down": 5745,
      "ĠNotes": 5746,
      "Ġ30": 5747,
      "Ġargparse": 5748,
      "cred": 5749,
      "255": 5750,
      "Ġcells": 5751,
      "Ġpretty": 5752,
      "Int": 5753,
      "ĠURI": 5754,
      "Ġchoice": 5755,
      "padding": 5756,
      "star": 5757,
      "named": 5758,
      "nsure": 5759,
      "stage": 5760,
      "Ġsentence": 5761,
      "which": 5762,
      "Ġsubset": 5763,
      "ado": 5764,
      "ĠTry": 5765,
      "Ġpred": 5766,
      "external": 5767,
      "pus": 5768,
      "poly": 5769,
      "Ġpeak": 5770,
      "Ġuseful": 5771,
      "`)": 5772,
      "Ġrho": 5773,
      "screen": 5774,
      "Ġworkflow": 5775,
      "Ġordered": 5776,
      "XT": 5777,
      "double": 5778,
      "Ġwx": 5779,
      "ouse": 5780,
      "vlan": 5781,
      "ordered": 5782,
      "Ġswitch": 5783,
      "Ġbig": 5784,
      "viation": 5785,
      "plugins": 5786,
      "Ġkeywords": 5787,
      "ĠClo": 5788,
      "(%": 5789,
      "Ġpermission": 5790,
      "USER": 5791,
      "era": 5792,
      "Ġ\"\")": 5793,
      "gent": 5794,
      "CA": 5795,
      "enter": 5796,
      "Ġcalculated": 5797,
      "Ġrefresh": 5798,
      "(\"--": 5799,
      "Ġsparse": 5800,
      "Ġ(-": 5801,
      "Ġpickle": 5802,
      "pat": 5803,
      "Ġedit": 5804,
      "uation": 5805,
      "leaf": 5806,
      "ĠFilter": 5807,
      "Ġcomplex": 5808,
      "lished": 5809,
      "21": 5810,
      "tod": 5811,
      "ational": 5812,
      "Ġconstant": 5813,
      "Ġfails": 5814,
      "('/')": 5815,
      "atory": 5816,
      "Ġgood": 5817,
      "rd": 5818,
      "Ġinterpre": 5819,
      "ison": 5820,
      "rgb": 5821,
      "program": 5822,
      "Names": 5823,
      "compress": 5824,
      "ced": 5825,
      "ĠText": 5826,
      "Ġdefine": 5827,
      "ĠQuery": 5828,
      "keywords": 5829,
      "igen": 5830,
      "Ġtransition": 5831,
      "CODE": 5832,
      "Exist": 5833,
      "rho": 5834,
      "Match": 5835,
      "Ġpopulate": 5836,
      "ims": 5837,
      "stanti": 5838,
      "Only": 5839,
      "Ġboot": 5840,
      "Values": 5841,
      "Ġretrie": 5842,
      "Ġderiv": 5843,
      "Ġgeometry": 5844,
      "Ġtraceback": 5845,
      "Ġcast": 5846,
      "Over": 5847,
      "maps": 5848,
      "orth": 5849,
      "Ġowner": 5850,
      "makedirs": 5851,
      "allet": 5852,
      "Ġurllib": 5853,
      "lastic": 5854,
      "super": 5855,
      "Header": 5856,
      "istration": 5857,
      "Ġband": 5858,
      "erred": 5859,
      "circ": 5860,
      "future": 5861,
      "distribution": 5862,
      "Ġappe": 5863,
      "Ġpermissions": 5864,
      "publish": 5865,
      "ail": 5866,
      "Ġcalc": 5867,
      "dp": 5868,
      "ĠCur": 5869,
      "DD": 5870,
      "ulk": 5871,
      "machine": 5872,
      "ĠMo": 5873,
      "Ġschedule": 5874,
      "complex": 5875,
      "chrom": 5876,
      "dependencies": 5877,
      "OF": 5878,
      "typ": 5879,
      "lapsed": 5880,
      "Ġdouble": 5881,
      "NOT": 5882,
      "wn": 5883,
      "inger": 5884,
      "Ġpixels": 5885,
      "{})": 5886,
      "Ġphi": 5887,
      "Ġshared": 5888,
      "Ġ\")": 5889,
      "omial": 5890,
      "Ġscreen": 5891,
      "Ġ(:": 5892,
      "Ġreads": 5893,
      "schedule": 5894,
      "Ġnumeric": 5895,
      "Ġmakes": 5896,
      "ĠGenerated": 5897,
      "ired": 5898,
      "multip": 5899,
      "major": 5900,
      "andling": 5901,
      "Remove": 5902,
      "Ġrecur": 5903,
      "wt": 5904,
      "Ġmade": 5905,
      "ĠClient": 5906,
      "Ġcross": 5907,
      "Ġprompt": 5908,
      "PU": 5909,
      "Red": 5910,
      "price": 5911,
      "LETE": 5912,
      "Ġframes": 5913,
      "Ġparticular": 5914,
      "lv": 5915,
      "~~": 5916,
      "based": 5917,
      "azure": 5918,
      "Ġchecked": 5919,
      "ocab": 5920,
      "Ġsync": 5921,
      "anner": 5922,
      "runtime": 5923,
      "Ġhidden": 5924,
      "ĠOne": 5925,
      "orizontal": 5926,
      "Ġgu": 5927,
      "Ġ24": 5928,
      "06": 5929,
      "ram": 5930,
      ":],": 5931,
      "Ġrc": 5932,
      "Ġtimezone": 5933,
      "SD": 5934,
      "emit": 5935,
      "alth": 5936,
      "Exit": 5937,
      "Ne": 5938,
      "ior": 5939,
      "Ġpmag": 5940,
      "ĠInter": 5941,
      "Ġvol": 5942,
      "ĠNew": 5943,
      "timedelta": 5944,
      "frequency": 5945,
      "jac": 5946,
      "transpose": 5947,
      "Ġseg": 5948,
      "stmt": 5949,
      "Ġdevices": 5950,
      "ĠProcess": 5951,
      "Ġxy": 5952,
      "ĠTra": 5953,
      "Up": 5954,
      "Ġnx": 5955,
      "YY": 5956,
      "ĠCON": 5957,
      "ĠArray": 5958,
      "Ġbasic": 5959,
      "ĊĠĠĠĠĠĠĠĠĠĠĠĠĠĠĠĠĠĠĠĠĠĠĠĠĠĠĠĠĠĠĠĠĠĠĠĠĠĠĠĠĠĠĠĠĠĠĠĠĠĠĠ": 5960,
      "Ġmanage": 5961,
      "finite": 5962,
      "Execution": 5963,
      "ĠUT": 5964,
      ">\\": 5965,
      "recv": 5966,
      "threads": 5967,
      "reads": 5968,
      "Ġenviron": 5969,
      "Ġsur": 5970,
      "xs": 5971,
      "roy": 5972,
      "pending": 5973,
      "bra": 5974,
      "))]": 5975,
      "Ġadjust": 5976,
      "cap": 5977,
      "ĠOn": 5978,
      "tached": 5979,
      "extensions": 5980,
      "åĪ": 5981,
      "enticated": 5982,
      "('<": 5983,
      "FS": 5984,
      "ĠStop": 5985,
      "Bo": 5986,
      "Ġgate": 5987,
      "ranches": 5988,
      "^{": 5989,
      "Ġlatest": 5990,
      "Sequence": 5991,
      "except": 5992,
      "Ġparallel": 5993,
      "CESS": 5994,
      "existing": 5995,
      "disable": 5996,
      "mains": 5997,
      "ĠTuple": 5998,
      "ulated": 5999,
      "osid": 6000,
      "Ġcpu": 6001,
      "virtual": 6002,
      "-+-+-+-+": 6003,
      "cheduler": 6004,
      "Ġchoices": 6005,
      "ffici": 6006,
      "TA": 6007,
      "čĊĊĠĠĠ": 6008,
      "chr": 6009,
      "ĠMax": 6010,
      "rectory": 6011,
      "zon": 6012,
      "MIN": 6013,
      "Api": 6014,
      "analy": 6015,
      "tle": 6016,
      "dependent": 6017,
      "Ġlevels": 6018,
      "cale": 6019,
      "bottom": 6020,
      "gamma": 6021,
      "PL": 6022,
      "Ġev": 6023,
      "ctionaries": 6024,
      "updated": 6025,
      "Ġfree": 6026,
      "REQU": 6027,
      "Ġequivalent": 6028,
      "Ġlst": 6029,
      "Ġdelimiter": 6030,
      "Ġissubclass": 6031,
      "cursively": 6032,
      "aN": 6033,
      "08": 6034,
      "cha": 6035,
      "WN": 6036,
      "basic": 6037,
      "Ġdescriptor": 6038,
      "Ġincluding": 6039,
      "Ġsampling": 6040,
      "Ġlarge": 6041,
      "39": 6042,
      "Ġlimits": 6043,
      "Ġindicating": 6044,
      "MODE": 6045,
      "ĠTensor": 6046,
      "ĠĠĠĠĠĠĠĠĠĠĠĠĠĠĠĠĠĠĠĠĠĠĠ": 6047,
      "ĠLoc": 6048,
      "pipe": 6049,
      "Ġselector": 6050,
      "Ġwhose": 6051,
      "Ġspeed": 6052,
      "roles": 6053,
      "readline": 6054,
      "Results": 6055,
      "ially": 6056,
      "Ġresulting": 6057,
      ").__": 6058,
      "ette": 6059,
      "Ġbel": 6060,
      "ffset": 6061,
      "Ġmix": 6062,
      "Ġ],": 6063,
      "AME": 6064,
      "using": 6065,
      "Ġlc": 6066,
      "Ġdocstring": 6067,
      "gl": 6068,
      "Ġ\"\",": 6069,
      "docker": 6070,
      "LOGGER": 6071,
      "ĠMethod": 6072,
      "([\"": 6073,
      "ilent": 6074,
      "('{}": 6075,
      "mpler": 6076,
      "Ġface": 6077,
      "related": 6078,
      "Ġassigned": 6079,
      "With": 6080,
      "Ġ{}).": 6081,
      "Ġlang": 6082,
      "Access": 6083,
      "ĠHow": 6084,
      "%%": 6085,
      "Ġnu": 6086,
      "Ġvectors": 6087,
      "limits": 6088,
      "ony": 6089,
      "Ġvec": 6090,
      "pers": 6091,
      "diffe": 6092,
      "mes": 6093,
      "********": 6094,
      "previous": 6095,
      "Ġobtain": 6096,
      "Ġsender": 6097,
      "sites": 6098,
      "')):": 6099,
      "sparse": 6100,
      "Ġones": 6101,
      "covery": 6102,
      "positions": 6103,
      "Ġruntime": 6104,
      "strap": 6105,
      "descriptor": 6106,
      "Ġpotential": 6107,
      "Ġsubclass": 6108,
      "endar": 6109,
      "Ġcompatible": 6110,
      "ORY": 6111,
      "annotation": 6112,
      "Ġes": 6113,
      "getter": 6114,
      "noise": 6115,
      "Be": 6116,
      "ĠFROM": 6117,
      "Ġwrong": 6118,
      "ĠElement": 6119,
      "Find": 6120,
      "Ġdecimal": 6121,
      "Ġchrom": 6122,
      "']),": 6123,
      "encoded": 6124,
      "chunks": 6125,
      "vocab": 6126,
      "Ġdd": 6127,
      "workflow": 6128,
      "HERE": 6129,
      "Ġpoly": 6130,
      "ĠState": 6131,
      "moves": 6132,
      ")],": 6133,
      "need": 6134,
      "Ġmot": 6135,
      "Func": 6136,
      "ĊĠĠĠĠĠĠĠĠĠĠĠĠĠĠĠĠĠĠĠĠĠĠĠĠĠĠĠĠĠĠĠĠĠĠĠĠĠĠĠĠĠĠĠĠĠĠĠĠ": 6137,
      "contin": 6138,
      "ike": 6139,
      "Ġthree": 6140,
      "game": 6141,
      "Ġenergy": 6142,
      "Ġprocesses": 6143,
      "statement": 6144,
      "Ġentire": 6145,
      "SELECT": 6146,
      "effs": 6147,
      "EST": 6148,
      "boolean": 6149,
      "âĢ": 6150,
      "hour": 6151,
      "logs": 6152,
      "MI": 6153,
      "Container": 6154,
      "charact": 6155,
      "coming": 6156,
      "SL": 6157,
      "ARNING": 6158,
      "car": 6159,
      "ĠAuth": 6160,
      "ART": 6161,
      "grams": 6162,
      "Ġok": 6163,
      "aff": 6164,
      "coordinates": 6165,
      "nl": 6166,
      "uplicates": 6167,
      "################################": 6168,
      "DATE": 6169,
      "lying": 6170,
      "CRE": 6171,
      "ĠMust": 6172,
      "mot": 6173,
      "neighbors": 6174,
      "Ġresolution": 6175,
      "_'": 6176,
      "sect": 6177,
      "plus": 6178,
      "Ġreferences": 6179,
      "Ġmount": 6180,
      "aws": 6181,
      "Ġdensity": 6182,
      "click": 6183,
      "Speci": 6184,
      "Ġconcat": 6185,
      "Ġescape": 6186,
      "Ġssh": 6187,
      "fidence": 6188,
      "Ġcaller": 6189,
      "Ġpeer": 6190,
      "Ġwarn": 6191,
      "blems": 6192,
      "ĠNOT": 6193,
      "(('": 6194,
      "kip": 6195,
      "Ġsv": 6196,
      "GR": 6197,
      "Ġpatterns": 6198,
      "FFFF": 6199,
      "servations": 6200,
      "maximum": 6201,
      "categories": 6202,
      "Ġpan": 6203,
      "Ġvide": 6204,
      "Ġchecking": 6205,
      "tor": 6206,
      "ĠOver": 6207,
      "attemp": 6208,
      "SV": 6209,
      "Ġvs": 6210,
      "Child": 6211,
      "Ġfraction": 6212,
      "Collection": 6213,
      "tep": 6214,
      "pixel": 6215,
      "fixed": 6216,
      "Ġradi": 6217,
      "perm": 6218,
      "ĠDEFAULT": 6219,
      "nc": 6220,
      "Ġ])": 6221,
      "[::-": 6222,
      "ĠResource": 6223,
      "ĠDictionary": 6224,
      "Ġdefinitions": 6225,
      "([[": 6226,
      "latest": 6227,
      "prior": 6228,
      "Delete": 6229,
      "lour": 6230,
      "locations": 6231,
      "è¿": 6232,
      "rozen": 6233,
      "cod": 6234,
      "unset": 6235,
      "Reference": 6236,
      "Ġ\\\\": 6237,
      "ĠUnicode": 6238,
      "Meta": 6239,
      "Ġinitialize": 6240,
      "Ġgeo": 6241,
      "ital": 6242,
      "Ġrev": 6243,
      "Keys": 6244,
      "Ġcodes": 6245,
      "Ġ19": 6246,
      "Ġwalk": 6247,
      "ism": 6248,
      "RC": 6249,
      "Ġdirs": 6250,
      "(\"{": 6251,
      "ĠGraph": 6252,
      "sertion": 6253,
      "Ġinplace": 6254,
      "Ġmp": 6255,
      "Ġdjango": 6256,
      "primary": 6257,
      "Ġvertices": 6258,
      "minimum": 6259,
      "Ġasyncio": 6260,
      "adapter": 6261,
      "Module": 6262,
      "](": 6263,
      "css": 6264,
      "Ġrotation": 6265,
      "Ġri": 6266,
      "ka": 6267,
      "bank": 6268,
      "76": 6269,
      "Ġstarted": 6270,
      ":.": 6271,
      "ĠPlease": 6272,
      "Ġhit": 6273,
      "Ġtail": 6274,
      "ensure": 6275,
      "44": 6276,
      "Property": 6277,
      "tection": 6278,
      "Ġunless": 6279,
      "anization": 6280,
      "Ġminutes": 6281,
      "MB": 6282,
      "Ġkeyid": 6283,
      "Ġcontroller": 6284,
      "symbols": 6285,
      "Timeout": 6286,
      "Vector": 6287,
      "OUT": 6288,
      "Ġbuilder": 6289,
      "imple": 6290,
      "pandas": 6291,
      "redis": 6292,
      "Ġiterations": 6293,
      "Ġconditions": 6294,
      "Ġvars": 6295,
      "FORMAT": 6296,
      "lstrip": 6297,
      "ĠOutput": 6298,
      "New": 6299,
      "comments": 6300,
      "Ġ50": 6301,
      "izing": 6302,
      "black": 6303,
      "Ġprobability": 6304,
      "Ġ'\"": 6305,
      "Ġvocab": 6306,
      "Ġeditor": 6307,
      "cycle": 6308,
      "processor": 6309,
      "tau": 6310,
      "Back": 6311,
      "ĊĊĠĠĠĠĠĠĠĠĠ": 6312,
      "Ġsigned": 6313,
      "Ġtxt": 6314,
      "callable": 6315,
      "Ġproduce": 6316,
      "URE": 6317,
      "tn": 6318,
      "genes": 6319,
      "è¯": 6320,
      "enari": 6321,
      "ffff": 6322,
      "ags": 6323,
      "Ġraises": 6324,
      ")')": 6325,
      "AUT": 6326,
      "uer": 6327,
      "Ġanything": 6328,
      "INTER": 6329,
      "Pol": 6330,
      "qs": 6331,
      "Ġdegrees": 6332,
      "Ġmeas": 6333,
      "ĠUnion": 6334,
      "curacy": 6335,
      "Target": 6336,
      "effect": 6337,
      "Ġcard": 6338,
      "Ġsymbols": 6339,
      "Ġetree": 6340,
      "Ġcost": 6341,
      "$',": 6342,
      "Ġgamma": 6343,
      "bias": 6344,
      "}]": 6345,
      "...,": 6346,
      "Cache": 6347,
      "ĠLe": 6348,
      "Ġqueryset": 6349,
      "Ġqual": 6350,
      "LINE": 6351,
      "Ġenough": 6352,
      "Ġadding": 6353,
      "Ġconstraints": 6354,
      "ildcard": 6355,
      "allable": 6356,
      "Ġdigest": 6357,
      "Ġcomputed": 6358,
      "ĠSets": 6359,
      "scripts": 6360,
      "Ġfinished": 6361,
      "Ġ64": 6362,
      "curve": 6363,
      "Ġbbox": 6364,
      "Ġmem": 6365,
      "Ġdocker": 6366,
      "Ġrequirements": 6367,
      "yles": 6368,
      "lec": 6369,
      "Ġmodify": 6370,
      "Ġear": 6371,
      "Ġwhole": 6372,
      "Ġcos": 6373,
      "det": 6374,
      "Ġdicts": 6375,
      "ĠExtract": 6376,
      "mazon": 6377,
      "yntax": 6378,
      "sel": 6379,
      "Ġmagic": 6380,
      "gateway": 6381,
      "levant": 6382,
      "Ali": 6383,
      "peer": 6384,
      "Pl": 6385,
      ")\"\"\"": 6386,
      "requencies": 6387,
      "FC": 6388,
      "Ġpull": 6389,
      "oted": 6390,
      "ird": 6391,
      "ranges": 6392,
      "tran": 6393,
      "Ġcookie": 6394,
      "controller": 6395,
      "Missing": 6396,
      "Port": 6397,
      "atial": 6398,
      "Ġtimedelta": 6399,
      "Ax": 6400,
      "Ġ\"<": 6401,
      "Ġoverlap": 6402,
      "))[": 6403,
      "permission": 6404,
      "mx": 6405,
      "entifier": 6406,
      "rv": 6407,
      "prog": 6408,
      "Ġsubnet": 6409,
      "Ġalignment": 6410,
      "Ġcer": 6411,
      "anit": 6412,
      "Ġss": 6413,
      "Cloud": 6414,
      "Ġvery": 6415,
      "cel": 6416,
      "Ġstarts": 6417,
      "vertices": 6418,
      "Ġmenu": 6419,
      "nx": 6420,
      "views": 6421,
      "Ġboto": 6422,
      "Ġdocs": 6423,
      "09": 6424,
      "mq": 6425,
      "(\".": 6426,
      "reci": 6427,
      "Ġdictionaries": 6428,
      "CHE": 6429,
      "atives": 6430,
      "ĊĠĠĠĠĠĠĠĠĠĠĠĠĠĠĠĠĠĠĠĠĠĠĠĠĠĠĠĠĠĠĠĠĠĠĠĠĠĠĠĠĠĠĠĠĠĠĠĠĠĠ": 6431,
      "cid": 6432,
      "Ġhappen": 6433,
      "CAL": 6434,
      "Ġthreads": 6435,
      "ĊĠĠĠĠĠĠĠĠĠĠĠĠĠĠĠĠĠĠĠĠĠĠĠĠĠĠĠĠĠĠĠĠĠĠĠĠĠĠĠĠĠĠĠĠĠĠĠĠĠ": 6436,
      "Thread": 6437,
      "Ġfamily": 6438,
      "LS": 6439,
      "asc": 6440,
      "Ġconst": 6441,
      "Ġcloud": 6442,
      "ĠWork": 6443,
      "DR": 6444,
      "ja": 6445,
      "ĠThese": 6446,
      "Ġaudio": 6447,
      ":`.": 6448,
      "pab": 6449,
      "æĸ": 6450,
      "'ll": 6451,
      "Ġlogs": 6452,
      "umbna": 6453,
      "servers": 6454,
      "Ġ11": 6455,
      "Bin": 6456,
      "Ġintervals": 6457,
      "Ġbytearray": 6458,
      "Ġtemporary": 6459,
      "Ġpublish": 6460,
      "bre": 6461,
      "umed": 6462,
      "urations": 6463,
      "DA": 6464,
      "Ġalle": 6465,
      "Ġcompleted": 6466,
      "Ġpages": 6467,
      "validation": 6468,
      "Ġpie": 6469,
      "Initial": 6470,
      "dens": 6471,
      "mav": 6472,
      "And": 6473,
      "agraph": 6474,
      "PT": 6475,
      "Ġlight": 6476,
      "Ġconstructor": 6477,
      "energy": 6478,
      "Ġseparator": 6479,
      "dictionary": 6480,
      "constant": 6481,
      ")\",": 6482,
      "dates": 6483,
      "video": 6484,
      "average": 6485,
      "Ġwa": 6486,
      "45": 6487,
      "vered": 6488,
      "cells": 6489,
      "Ġbus": 6490,
      "quee": 6491,
      "Ġquant": 6492,
      "Serial": 6493,
      "Ġdynamic": 6494,
      "ĠDesc": 6495,
      "\">": 6496,
      "Tuple": 6497,
      "Ġstmt": 6498,
      "sheet": 6499,
      "!')": 6500,
      "Ġdifference": 6501,
      "æľ": 6502,
      "cross": 6503,
      "Ġclip": 6504,
      "dimensions": 6505,
      "Print": 6506,
      "Ġrecent": 6507,
      "Bad": 6508,
      "cost": 6509,
      "rsplit": 6510,
      "(\"'": 6511,
      "osite": 6512,
      "Ġprevent": 6513,
      "READ": 6514,
      "mc": 6515,
      "bbox": 6516,
      "=',": 6517,
      "oauth": 6518,
      "unn": 6519,
      "curr": 6520,
      "Ġboundary": 6521,
      "mis": 6522,
      "verb": 6523,
      "dm": 6524,
      "calls": 6525,
      "Ġplease": 6526,
      "imit": 6527,
      "okies": 6528,
      "conver": 6529,
      "solution": 6530,
      "ĠTake": 6531,
      "specific": 6532,
      "Types": 6533,
      "':'": 6534,
      "Temp": 6535,
      "Generate": 6536,
      "Ġcontact": 6537,
      "vertex": 6538,
      "manage": 6539,
      "Ġcopi": 6540,
      "pin": 6541,
      "Ġprepare": 6542,
      "sequences": 6543,
      "Ġrdf": 6544,
      "deploy": 6545,
      "Ġintegers": 6546,
      "cutoff": 6547,
      "patterns": 6548,
      "rences": 6549,
      "uest": 6550,
      "ientation": 6551,
      "Var": 6552,
      "wave": 6553,
      "Ġdepending": 6554,
      "Ġspaces": 6555,
      "Ġhard": 6556,
      "åĲ": 6557,
      "Ġ``'": 6558,
      "mv": 6559,
      "crement": 6560,
      "Uni": 6561,
      "509": 6562,
      "ĠHttp": 6563,
      "Please": 6564,
      "coe": 6565,
      "stems": 6566,
      "white": 6567,
      "Ġsubscription": 6568,
      "jid": 6569,
      "Formatter": 6570,
      "gu": 6571,
      "teger": 6572,
      "Ġpt": 6573,
      "Ġaddresses": 6574,
      "ully": 6575,
      "Window": 6576,
      "weet": 6577,
      "Control": 6578,
      "ised": 6579,
      "Ġpress": 6580,
      "stdin": 6581,
      "Ġ({": 6582,
      "31": 6583,
      "Ġchecksum": 6584,
      "Ġeverything": 6585,
      "Ġanswer": 6586,
      "Description": 6587,
      "lengths": 6588,
      "Ġcv": 6589,
      "Ġcmap": 6590,
      "itation": 6591,
      "licies": 6592,
      "atoms": 6593,
      "()}": 6594,
      "speed": 6595,
      "Ġimmediate": 6596,
      "concatenate": 6597,
      "outfile": 6598,
      "zz": 6599,
      "mutation": 6600,
      "HEADER": 6601,
      "adjust": 6602,
      "Ġgive": 6603,
      "rou": 6604,
      "expanduser": 6605,
      "!!": 6606,
      "Ġslug": 6607,
      "clusters": 6608,
      "('#": 6609,
      "Ġtrunc": 6610,
      "Ġdates": 6611,
      "Ġbetter": 6612,
      "Ġlocations": 6613,
      ":,": 6614,
      "Ġreversed": 6615,
      "Ġbasis": 6616,
      "angles": 6617,
      "locals": 6618,
      "Ġevaluate": 6619,
      "ĠTable": 6620,
      "Ġoutside": 6621,
      "Helper": 6622,
      "Metadata": 6623,
      "Ass": 6624,
      "Ġargv": 6625,
      "Ġblank": 6626,
      "pout": 6627,
      "Core": 6628,
      "Ġshut": 6629,
      "king": 6630,
      "}/{": 6631,
      "FT": 6632,
      "decimal": 6633,
      "utation": 6634,
      "Ġgradient": 6635,
      "ĠAd": 6636,
      "choices": 6637,
      "detect": 6638,
      "rive": 6639,
      "micro": 6640,
      "mbo": 6641,
      "lid": 6642,
      "standard": 6643,
      "Dataset": 6644,
      "Ġgrad": 6645,
      "ĠPlot": 6646,
      "iterator": 6647,
      "bb": 6648,
      "(\"{}": 6649,
      "Ġ|=": 6650,
      "Ġhosts": 6651,
      "cookie": 6652,
      "luster": 6653,
      "Ġ:,": 6654,
      "ĠShould": 6655,
      "ĠDef": 6656,
      "Ġruns": 6657,
      "Ġ=>": 6658,
      "88": 6659,
      "pher": 6660,
      "vcf": 6661,
      "ale": 6662,
      "andatory": 6663,
      "absolute": 6664,
      "linspace": 6665,
      "median": 6666,
      "Ġprojection": 6667,
      "ĠField": 6668,
      "blue": 6669,
      "()).": 6670,
      "Configuration": 6671,
      "ific": 6672,
      "ĠFIX": 6673,
      "LED": 6674,
      "mags": 6675,
      "posed": 6676,
      "Ġparents": 6677,
      "Ġpat": 6678,
      "EV": 6679,
      "Ġsupports": 6680,
      "wap": 6681,
      "Ġcred": 6682,
      "Ġeas": 6683,
      "router": 6684,
      "formats": 6685,
      "icon": 6686,
      "entities": 6687,
      "thresh": 6688,
      "errno": 6689,
      "ached": 6690,
      "outer": 6691,
      "RR": 6692,
      "dig": 6693,
      "stim": 6694,
      "setting": 6695,
      "Ġrepresents": 6696,
      "Send": 6697,
      "('[": 6698,
      "canvas": 6699,
      "Ġdependency": 6700,
      "Ġexactly": 6701,
      "tm": 6702,
      "Ġsizes": 6703,
      "ĠEnsure": 6704,
      "Ġdecorated": 6705,
      "ali": 6706,
      "ĠVM": 6707,
      "randint": 6708,
      "Ġbra": 6709,
      "ĊĠĠĠĠĠĠĠĠĠĠĠĠĠĠĠĠĠĠĠĠĠĠĠĠĠĠĠĠĠĠĠĠĠĠĠĠĠĠĠĠĠĠĠĠĠĠĠĠĠĠĠĠĠĠĠĠĠĠĠĠĠĠĠĠĠĠĠĠ": 6710,
      "EC": 6711,
      "Ġsuccessfully": 6712,
      "OB": 6713,
      "Ġplay": 6714,
      "ĠAWS": 6715,
      "ipher": 6716,
      "Ġformatter": 6717,
      "ĠYANGDynClass": 6718,
      "\",\"": 6719,
      "Schema": 6720,
      "Ġvalidator": 6721,
      "Ġteam": 6722,
      "yes": 6723,
      "how": 6724,
      "TYPES": 6725,
      "iles": 6726,
      "aster": 6727,
      "Ġnever": 6728,
      "æķ": 6729,
      "Pool": 6730,
      "Ġduplicate": 6731,
      "Ġincludes": 6732,
      "Document": 6733,
      "Ġcomma": 6734,
      "Ġconsider": 6735,
      "ceeded": 6736,
      "sentence": 6737,
      "Ġconnections": 6738,
      "Ġcreates": 6739,
      "Ġexecuted": 6740,
      "Ġindicates": 6741,
      "ev": 6742,
      "SK": 6743,
      "Ġsections": 6744,
      "moved": 6745,
      "rypto": 6746,
      "Pos": 6747,
      "plain": 6748,
      "37": 6749,
      "templates": 6750,
      "Ġresolved": 6751,
      "Ġitertools": 6752,
      "Ġextracted": 6753,
      "sertionError": 6754,
      "sender": 6755,
      "Ġexplicitly": 6756,
      "experiment": 6757,
      "parents": 6758,
      "__))": 6759,
      "Ġtransport": 6760,
      "lify": 6761,
      "Ġserialized": 6762,
      "Ġgenes": 6763,
      "Ġprice": 6764,
      "Reader": 6765,
      "intervals": 6766,
      "])[": 6767,
      "Ġsmooth": 6768,
      "avg": 6769,
      "Ġbuff": 6770,
      "ĠRed": 6771,
      "amera": 6772,
      "GI": 6773,
      "ĠEvent": 6774,
      "gap": 6775,
      "uch": 6776,
      "Ge": 6777,
      "Ġ::": 6778,
      "Ġprob": 6779,
      "ĠExec": 6780,
      "Ġstatistics": 6781,
      "ov": 6782,
      "precation": 6783,
      "visit": 6784,
      "Ġclone": 6785,
      "tice": 6786,
      "ĠResult": 6787,
      "alan": 6788,
      "zoom": 6789,
      "Order": 6790,
      "Make": 6791,
      "Ġcoefficients": 6792,
      "href": 6793,
      "Host": 6794,
      "FIELD": 6795,
      "Ġaz": 6796,
      ":\"": 6797,
      "sat": 6798,
      "Ġconstants": 6799,
      "enticate": 6800,
      "queeze": 6801,
      "FLA": 6802,
      "Position": 6803,
      "hest": 6804,
      "Ġshare": 6805,
      "Ġsyntax": 6806,
      "Multi": 6807,
      "ability": 6808,
      "tuples": 6809,
      "Template": 6810,
      "Feature": 6811,
      "rees": 6812,
      "tyle": 6813,
      "corr": 6814,
      "executable": 6815,
      "Ġweek": 6816,
      "Channel": 6817,
      "Ġlonger": 6818,
      "Ġexecutable": 6819,
      "audio": 6820,
      "connections": 6821,
      "Ver": 6822,
      "tifact": 6823,
      "]-": 6824,
      "Ġwave": 6825,
      "ints": 6826,
      "projects": 6827,
      "Location": 6828,
      "gether": 6829,
      "cles": 6830,
      "parsers": 6831,
      "pdb": 6832,
      "Ġpending": 6833,
      "exe": 6834,
      "Ġdefaultdict": 6835,
      "license": 6836,
      "outine": 6837,
      "Expected": 6838,
      "herit": 6839,
      "Grid": 6840,
      "Ġlongitude": 6841,
      "Ġvideo": 6842,
      "Ġcwd": 6843,
      "Ġpointer": 6844,
      "Connect": 6845,
      "objective": 6846,
      "eral": 6847,
      "arrays": 6848,
      "Ġabort": 6849,
      "same": 6850,
      ">\"": 6851,
      "getLogger": 6852,
      "Ġsensor": 6853,
      "Ġconsole": 6854,
      "Ġcycle": 6855,
      "Ut": 6856,
      "Ġannotations": 6857,
      "Ġlogical": 6858,
      "integr": 6859,
      "Ġcandidates": 6860,
      "Ġtol": 6861,
      "vectors": 6862,
      "sla": 6863,
      "dian": 6864,
      "Ġcalculation": 6865,
      "ibration": 6866,
      "Url": 6867,
      "Width": 6868,
      "Ġ14": 6869,
      "Ġencoder": 6870,
      "Ġready": 6871,
      "dispatch": 6872,
      "))))": 6873,
      "AV": 6874,
      "Cell": 6875,
      "subset": 6876,
      "XML": 6877,
      "annotations": 6878,
      "LOCK": 6879,
      "retcode": 6880,
      "vor": 6881,
      "/{}": 6882,
      "tolist": 6883,
      "lags": 6884,
      "Ġgets": 6885,
      "Ġ/=": 6886,
      "Ġtax": 6887,
      "ĠSQL": 6888,
      "loor": 6889,
      "timer": 6890,
      "ĠDate": 6891,
      "]}": 6892,
      "sembly": 6893,
      ">,": 6894,
      "fr": 6895,
      "Options": 6896,
      "shared": 6897,
      "Ġinc": 6898,
      "Ab": 6899,
      "STAT": 6900,
      "Ġred": 6901,
      "uniform": 6902,
      "legend": 6903,
      "AA": 6904,
      "sur": 6905,
      "Ġinitialized": 6906,
      "vance": 6907,
      "Val": 6908,
      "ĠOR": 6909,
      "rouped": 6910,
      "ffic": 6911,
      "fpath": 6912,
      "Ġdecoded": 6913,
      "mix": 6914,
      "Ġcontract": 6915,
      "Ġcreation": 6916,
      "Pass": 6917,
      "Ġdisabled": 6918,
      "Ġfactory": 6919,
      "URI": 6920,
      "Ġranges": 6921,
      "rices": 6922,
      "issue": 6923,
      "operations": 6924,
      "Ġdy": 6925,
      "nested": 6926,
      "Ġbackup": 6927,
      "ECT": 6928,
      "Ġ\"__": 6929,
      "Char": 6930,
      "Ġbehavior": 6931,
      "ĠFIXME": 6932,
      "jectory": 6933,
      "Cursor": 6934,
      "Struct": 6935,
      "Role": 6936,
      "SU": 6937,
      "Ġls": 6938,
      "âĶĢ": 6939,
      "VALUE": 6940,
      "Ġadapter": 6941,
      "wcs": 6942,
      "ceil": 6943,
      "fficient": 6944,
      "encoder": 6945,
      ",\"": 6946,
      "workers": 6947,
      "construct": 6948,
      "ĠGroup": 6949,
      "Enabled": 6950,
      "Ġamp": 6951,
      "least": 6952,
      "cancel": 6953,
      "rename": 6954,
      "oa": 6955,
      "Ġ'+": 6956,
      "Ġxmlns": 6957,
      "ĠPrint": 6958,
      "Iteration": 6959,
      "ategorical": 6960,
      "CLA": 6961,
      "Ġcc": 6962,
      "byref": 6963,
      "Ġperm": 6964,
      "failure": 6965,
      "SM": 6966,
      "Ġstride": 6967,
      "crypto": 6968,
      "collect": 6969,
      "VALID": 6970,
      "Ġsla": 6971,
      "activity": 6972,
      "Bytes": 6973,
      "expect": 6974,
      "oked": 6975,
      "Ġcause": 6976,
      "Ġmonitor": 6977,
      "ĊĊĠĠĠĠĠĠ": 6978,
      "team": 6979,
      "ĠSend": 6980,
      "retries": 6981,
      "Ġcountry": 6982,
      "Ġbundle": 6983,
      "rib": 6984,
      "chat": 6985,
      "LOW": 6986,
      "neg": 6987,
      "Ġprops": 6988,
      "ables": 6989,
      "Ter": 6990,
      "ĠGo": 6991,
      "cuit": 6992,
      "Ġrevision": 6993,
      "ĠthisObj": 6994,
      "ravel": 6995,
      "ssib": 6996,
      "Ġpresence": 6997,
      "uggest": 6998,
      "Queue": 6999,
      "fication": 7000,
      "etc": 7001,
      "locity": 7002,
      "may": 7003,
      "uffle": 7004,
      "Ġmiddle": 7005,
      "ĠSeries": 7006,
      "ĠMulti": 7007,
      "ĠCurrent": 7008,
      "Ġstypes": 7009,
      "38": 7010,
      "ni": 7011,
      "Ġloader": 7012,
      "kwds": 7013,
      "Ġ\"\":": 7014,
      "Ids": 7015,
      "]=": 7016,
      "calculate": 7017,
      "Ġtrip": 7018,
      "wrapped": 7019,
      "submit": 7020,
      "Ġdims": 7021,
      "Ġtempfile": 7022,
      "Ġtb": 7023,
      "ĠOperation": 7024,
      "develo": 7025,
      "constraints": 7026,
      "quent": 7027,
      "dro": 7028,
      "Ġhour": 7029,
      "appa": 7030,
      "Compute": 7031,
      "Dec": 7032,
      "lations": 7033,
      "Ġtrim": 7034,
      "voice": 7035,
      "nsupported": 7036,
      "58": 7037,
      "Ġwatch": 7038,
      "Ġguess": 7039,
      "Ġchars": 7040,
      "Wrapper": 7041,
      ":].": 7042,
      "contract": 7043,
      "Ġplugins": 7044,
      "Ġdigits": 7045,
      ":\")": 7046,
      "Ġassumed": 7047,
      "Ġthing": 7048,
      "([(": 7049,
      "ĠNow": 7050,
      "ĠDelete": 7051,
      "Ġklass": 7052,
      "Ġobjective": 7053,
      "Ġdegree": 7054,
      "So": 7055,
      "poll": 7056,
      "Ġlatitude": 7057,
      "alten": 7058,
      "Ġlegend": 7059,
      "\"%": 7060,
      "alignment": 7061,
      "umbnail": 7062,
      "Ġprediction": 7063,
      "Ġapproxim": 7064,
      "built": 7065,
      "Ġgeneral": 7066,
      "><": 7067,
      "07": 7068,
      "Ġartifact": 7069,
      "II": 7070,
      "tb": 7071,
      "Ġur": 7072,
      "clone": 7073,
      "Ġbeginning": 7074,
      "pot": 7075,
      "Ġdry": 7076,
      "Ġhandling": 7077,
      "ingerprint": 7078,
      "numbers": 7079,
      "mime": 7080,
      ":',": 7081,
      "Ġfront": 7082,
      "ulative": 7083,
      "Ġreplaced": 7084,
      "Ġer": 7085,
      "ARY": 7086,
      ":\",": 7087,
      "Ġresponses": 7088,
      "pay": 7089,
      "imal": 7090,
      "completion": 7091,
      "Ġtests": 7092,
      "TEXT": 7093,
      "issues": 7094,
      "isters": 7095,
      "Ent": 7096,
      "ĠUsed": 7097,
      "watch": 7098,
      "formatter": 7099,
      "bundle": 7100,
      "Ġterminal": 7101,
      "iteral": 7102,
      "Component": 7103,
      "Ġrather": 7104,
      "hooks": 7105,
      "__:": 7106,
      "Ġvisual": 7107,
      "isnan": 7108,
      "()``": 7109,
      "quad": 7110,
      "Ġol": 7111,
      "Ġcriteria": 7112,
      "Ġtranslation": 7113,
      "Ġconstraint": 7114,
      "nor": 7115,
      "ylabel": 7116,
      "country": 7117,
      "ĠDO": 7118,
      "Storage": 7119,
      "green": 7120,
      "erial": 7121,
      "likelihood": 7122,
      "Ġneighbors": 7123,
      "unce": 7124,
      "callpoint": 7125,
      "Import": 7126,
      "liance": 7127,
      "tension": 7128,
      "contact": 7129,
      "tences": 7130,
      "Ġformats": 7131,
      "VAR": 7132,
      "ench": 7133,
      "Ġpush": 7134,
      "ĠAssertionError": 7135,
      "Ġpin": 7136,
      "mtime": 7137,
      "Ġexamples": 7138,
      "ĠIs": 7139,
      "ĠGe": 7140,
      "SY": 7141,
      "background": 7142,
      "'^": 7143,
      "Ġnan": 7144,
      "Ġestimated": 7145,
      "Ġthrow": 7146,
      "more": 7147,
      "altenv": 7148,
      "xlabel": 7149,
      "Ġsleep": 7150,
      "ĠAND": 7151,
      "cmap": 7152,
      "ini": 7153,
      "================================": 7154,
      "cnt": 7155,
      "Ġperformed": 7156,
      "lu": 7157,
      "duction": 7158,
      "ĠParameter": 7159,
      "ios": 7160,
      "actual": 7161,
      "proj": 7162,
      "Ġlengths": 7163,
      "Ġhandlers": 7164,
      "itter": 7165,
      "Param": 7166,
      "Ġdialog": 7167,
      "ĠDon": 7168,
      "windows": 7169,
      "qq": 7170,
      "Ġcr": 7171,
      "amb": 7172,
      "finished": 7173,
      "isode": 7174,
      "processed": 7175,
      "ĠSearch": 7176,
      "ĠSE": 7177,
      "ĠWHERE": 7178,
      "Ġsq": 7179,
      "appro": 7180,
      "Ġops": 7181,
      "inations": 7182,
      "reating": 7183,
      "versal": 7184,
      "dicts": 7185,
      "Ġdatasets": 7186,
      "fastq": 7187,
      "Hash": 7188,
      "stitution": 7189,
      "Ġzer": 7190,
      "NUM": 7191,
      "Ġrh": 7192,
      "legal": 7193,
      "Ġaccepted": 7194,
      "specs": 7195,
      "Ġauthorization": 7196,
      "pet": 7197,
      "(\"_": 7198,
      "ĠSome": 7199,
      "Mapping": 7200,
      "Ġmaps": 7201,
      "solver": 7202,
      "getcwd": 7203,
      "Ġestimate": 7204,
      "Rule": 7205,
      "Ġ'-'": 7206,
      "cognized": 7207,
      "general": 7208,
      "subscription": 7209,
      "pur": 7210,
      "multiple": 7211,
      "Ġspecifying": 7212,
      "Ġfg": 7213,
      "Ġlocale": 7214,
      "Ġsimply": 7215,
      "Ġtogether": 7216,
      "000000": 7217,
      "java": 7218,
      "since": 7219,
      "dynamic": 7220,
      "claration": 7221,
      "------------": 7222,
      "Ġke": 7223,
      "404": 7224,
      "Ġplan": 7225,
      "ĠServer": 7226,
      "xpath": 7227,
      "ACHE": 7228,
      "ExecutionError": 7229,
      "phrase": 7230,
      "Ġassignment": 7231,
      "pickle": 7232,
      "square": 7233,
      "neighbor": 7234,
      "ĠÐ": 7235,
      "ĠSign": 7236,
      "trigger": 7237,
      "geom": 7238,
      "regions": 7239,
      "=''": 7240,
      "ĠPol": 7241,
      "ee": 7242,
      "Ġvisible": 7243,
      "ĠSave": 7244,
      "HT": 7245,
      "Ġlisten": 7246,
      "Ġonto": 7247,
      "Ġtaken": 7248,
      "CR": 7249,
      "ĠMark": 7250,
      "Ġprobably": 7251,
      "Ġcomparison": 7252,
      "Ġmig": 7253,
      "coef": 7254,
      "Ġredis": 7255,
      "Ġvariance": 7256,
      "MOD": 7257,
      "Fail": 7258,
      "negative": 7259,
      "]'": 7260,
      "mol": 7261,
      "Operation": 7262,
      "Button": 7263,
      "TRI": 7264,
      "Ġtransfer": 7265,
      "_[": 7266,
      "ĠWill": 7267,
      "ighest": 7268,
      "Ġdiv": 7269,
      "Ġconsist": 7270,
      "precision": 7271,
      "Ġcompatibility": 7272,
      "Ġam": 7273,
      "union": 7274,
      "deps": 7275,
      "pient": 7276,
      "__[": 7277,
      "ĊĊĠĠĠĠĠĠĠĠĠĠ": 7278,
      "decorator": 7279,
      "certificate": 7280,
      "Ġaux": 7281,
      "Plot": 7282,
      "Ġhref": 7283,
      "Cons": 7284,
      "hip": 7285,
      "ĠGET": 7286,
      "./": 7287,
      "WARNING": 7288,
      "]',": 7289,
      "inci": 7290,
      "Ġssl": 7291,
      "degree": 7292,
      "Ġencrypted": 7293,
      "Test": 7294,
      "candidate": 7295,
      "some": 7296,
      ":'": 7297,
      "orization": 7298,
      "Ġsid": 7299,
      ")``": 7300,
      "sses": 7301,
      "Ġcategories": 7302,
      "Ġrestart": 7303,
      "Ġct": 7304,
      "ĠAR": 7305,
      "Ġdetected": 7306,
      "backup": 7307,
      "Ġwriting": 7308,
      "hdr": 7309,
      "Ġincrement": 7310,
      "ĠFormat": 7311,
      "Ġarc": 7312,
      "Ġfragment": 7313,
      "ĠMan": 7314,
      "hit": 7315,
      "intersection": 7316,
      "Ġreplacement": 7317,
      "ĠClass": 7318,
      "Ġsuc": 7319,
      "dom": 7320,
      "Ġcompression": 7321,
      "quick": 7322,
      "ĠPOST": 7323,
      "Ġcertain": 7324,
      "Ġpreviously": 7325,
      "training": 7326,
      "wx": 7327,
      "contains": 7328,
      "requirements": 7329,
      "ace": 7330,
      "ĠContent": 7331,
      ",,": 7332,
      "ĠSim": 7333,
      "Ġvisit": 7334,
      "surface": 7335,
      "panel": 7336,
      "Ġextent": 7337,
      "Ġwhite": 7338,
      "ifact": 7339,
      "kg": 7340,
      "cally": 7341,
      "Ġ'[": 7342,
      "Ġgoogle": 7343,
      "Ġsever": 7344,
      "(\",": 7345,
      "Ġentities": 7346,
      "Ġmagnitude": 7347,
      "Ġregions": 7348,
      "Policy": 7349,
      "ĠInitialize": 7350,
      "alive": 7351,
      "Use": 7352,
      "console": 7353,
      "65": 7354,
      "Ġactor": 7355,
      "Ġfallback": 7356,
      "AML": 7357,
      "Ġsol": 7358,
      "contrib": 7359,
      "currency": 7360,
      "'},": 7361,
      "cv": 7362,
      "learn": 7363,
      "means": 7364,
      "Ġinverse": 7365,
      "Ġpay": 7366,
      "STATE": 7367,
      "subnet": 7368,
      "Ġbasename": 7369,
      "ĠDetermine": 7370,
      "filenames": 7371,
      "heel": 7372,
      "WORD": 7373,
      "stall": 7374,
      "Ġ25": 7375,
      "Ġroles": 7376,
      "kv": 7377,
      "Ġurls": 7378,
      "UST": 7379,
      "Ġbg": 7380,
      "NotFoundError": 7381,
      "shard": 7382,
      "([])": 7383,
      "lope": 7384,
      "probab": 7385,
      "erce": 7386,
      "Ġclusters": 7387,
      "Ġobserved": 7388,
      "pn": 7389,
      "Local": 7390,
      "æķ°": 7391,
      "examples": 7392,
      "mul": 7393,
      "buff": 7394,
      "Ġfully": 7395,
      "Ġhome": 7396,
      "acl": 7397,
      "Ġrgb": 7398,
      "UI": 7399,
      "COM": 7400,
      "osome": 7401,
      "processes": 7402,
      "Ġ1024": 7403,
      "Ġsites": 7404,
      "fh": 7405,
      "ĠĠĠĠĠĠĠĠĠĠĠĠĠĠĠĠĠ": 7406,
      "ĠSup": 7407,
      "ĠInstance": 7408,
      "79": 7409,
      "Ġaut": 7410,
      "translate": 7411,
      "enario": 7412,
      "eta": 7413,
      ":]:": 7414,
      "Ġborder": 7415,
      "funcs": 7416,
      "JECT": 7417,
      "Ġ^": 7418,
      "Ġhistogram": 7419,
      "roke": 7420,
      "fully": 7421,
      "PORT": 7422,
      "])]": 7423,
      "Extract": 7424,
      "Ġmaybe": 7425,
      "ĠNetwork": 7426,
      "acc": 7427,
      "Ġacross": 7428,
      "Ġmanifest": 7429,
      "compound": 7430,
      "unity": 7431,
      "Admin": 7432,
      "ĊĠĠ": 7433,
      "deriv": 7434,
      "large": 7435,
      "USE": 7436,
      "Any": 7437,
      "CB": 7438,
      "utine": 7439,
      "Ġ(_": 7440,
      "=\"\",": 7441,
      "ynomial": 7442,
      "Ġspecifies": 7443,
      "mega": 7444,
      "calar": 7445,
      "Ġmar": 7446,
      "transition": 7447,
      "density": 7448,
      "hard": 7449,
      "Ġrelevant": 7450,
      "Ġneg": 7451,
      "Ġhashlib": 7452,
      "numeric": 7453,
      "interpol": 7454,
      "Ġrespon": 7455,
      "sky": 7456,
      "globals": 7457,
      "Ġcum": 7458,
      "Ġpot": 7459,
      "dfs": 7460,
      "GP": 7461,
      "deleted": 7462,
      "()`": 7463,
      "ĠSequence": 7464,
      "åĽ": 7465,
      "irt": 7466,
      "raft": 7467,
      "('\"": 7468,
      "locale": 7469,
      "Post": 7470,
      "SN": 7471,
      "ĠConnection": 7472,
      "SQL": 7473,
      "Ġgame": 7474,
      "ĠBlock": 7475,
      "Transform": 7476,
      "Ġplots": 7477,
      "Ġneighbor": 7478,
      "pert": 7479,
      "serializer": 7480,
      "Ġpredicate": 7481,
      "ĠTask": 7482,
      "Creates": 7483,
      "ĠIgn": 7484,
      "Ġextended": 7485,
      "Ġnotebook": 7486,
      "Ġobservation": 7487,
      "__'):": 7488,
      "ĠVer": 7489,
      "dataframe": 7490,
      "imension": 7491,
      "Profile": 7492,
      "Ġthings": 7493,
      "modifi": 7494,
      "}},": 7495,
      "ĠAdds": 7496,
      "Pub": 7497,
      "ĠToken": 7498,
      "Ġpredictions": 7499,
      "warnings": 7500,
      "Ġcombined": 7501,
      "digits": 7502,
      "Ġchosen": 7503,
      "Ġdispatch": 7504,
      "Union": 7505,
      "Directory": 7506,
      "Ġminion": 7507,
      "hem": 7508,
      "Ġmandatory": 7509,
      "(',')": 7510,
      "Ġnumer": 7511,
      "Copy": 7512,
      "chemy": 7513,
      "Ġcompound": 7514,
      "nonzero": 7515,
      "Ġtemplates": 7516,
      "LIST": 7517,
      "Ġfigs": 7518,
      "ATOR": 7519,
      "Ġlocals": 7520,
      "difference": 7521,
      "front": 7522,
      "tected": 7523,
      "Ġtok": 7524,
      "Ġqs": 7525,
      "hparams": 7526,
      "Ġasynchronously": 7527,
      "mpls": 7528,
      "Ġenter": 7529,
      "esian": 7530,
      "ventory": 7531,
      "Ġacc": 7532,
      "Ġcompletion": 7533,
      "repeat": 7534,
      "readlines": 7535,
      "velength": 7536,
      "Decode": 7537,
      "Ġroll": 7538,
      "AST": 7539,
      "shot": 7540,
      "ArgumentParser": 7541,
      "balance": 7542,
      "ĠService": 7543,
      "character": 7544,
      "urther": 7545,
      "--+": 7546,
      "DELETE": 7547,
      "Ġstdin": 7548,
      "stone": 7549,
      "permissions": 7550,
      "Ġbook": 7551,
      "notify": 7552,
      "Ġbecome": 7553,
      "ĠWeb": 7554,
      "Ġhyper": 7555,
      "Vis": 7556,
      "shapes": 7557,
      "ĠConstruct": 7558,
      ".+": 7559,
      "Ġcorrectly": 7560,
      "çĶ": 7561,
      "Rece": 7562,
      "Ġpassing": 7563,
      "Args": 7564,
      "filtered": 7565,
      "revision": 7566,
      "Sets": 7567,
      "Ġsquare": 7568,
      "dns": 7569,
      "Ġtyping": 7570,
      "Ġeigen": 7571,
      "world": 7572,
      "Ġimported": 7573,
      "Gets": 7574,
      "Matrix": 7575,
      "Ġbug": 7576,
      "Ġstatements": 7577,
      "mts": 7578,
      "ACT": 7579,
      "unnel": 7580,
      "Ġbias": 7581,
      "strptime": 7582,
      "Application": 7583,
      "timezone": 7584,
      "agg": 7585,
      "Ġcontained": 7586,
      "iguous": 7587,
      "Ġquad": 7588,
      "LY": 7589,
      "Ġhours": 7590,
      "vention": 7591,
      "WA": 7592,
      "Ġloading": 7593,
      "Ġplane": 7594,
      "Ġtimer": 7595,
      "live": 7596,
      "Sum": 7597,
      "fw": 7598,
      "fits": 7599,
      "kill": 7600,
      "groupby": 7601,
      "two": 7602,
      "(':')": 7603,
      "Ġlogic": 7604,
      "Ġretries": 7605,
      "sampling": 7606,
      "periods": 7607,
      "dap": 7608,
      "Ġends": 7609,
      "fire": 7610,
      "Ġleading": 7611,
      "striction": 7612,
      "sensitive": 7613,
      "SUB": 7614,
      "Ġ------": 7615,
      "riptor": 7616,
      "AUTH": 7617,
      "Save": 7618,
      "saved": 7619,
      "six": 7620,
      "loading": 7621,
      "offsets": 7622,
      "execution": 7623,
      "Ġconflict": 7624,
      "Ġquestion": 7625,
      "composition": 7626,
      "Register": 7627,
      "aign": 7628,
      "dag": 7629,
      "NN": 7630,
      "yy": 7631,
      "quant": 7632,
      "trim": 7633,
      "Ġextend": 7634,
      "Ġnative": 7635,
      "itable": 7636,
      "ĠCloud": 7637,
      "REC": 7638,
      "RF": 7639,
      "Ġfact": 7640,
      "Ġoffsets": 7641,
      "Ġmoment": 7642,
      "pretty": 7643,
      "94": 7644,
      "pull": 7645,
      "ctl": 7646,
      "PREFIX": 7647,
      "Med": 7648,
      "masked": 7649,
      "Ġgoing": 7650,
      "BY": 7651,
      "Ġadds": 7652,
      "hours": 7653,
      "Ġports": 7654,
      "riend": 7655,
      "Ġfloats": 7656,
      "UND": 7657,
      "qubits": 7658,
      "BR": 7659,
      "installed": 7660,
      "locate": 7661,
      "Ġtesting": 7662,
      "ĠIPv": 7663,
      "Ġidentify": 7664,
      "Ġet": 7665,
      "TEMP": 7666,
      "Ġlarger": 7667,
      "ĠNaN": 7668,
      "species": 7669,
      "functools": 7670,
      "Ġecho": 7671,
      "Identifier": 7672,
      "litude": 7673,
      "ysql": 7674,
      "Ġ(`": 7675,
      "ĠTest": 7676,
      "Ġmuch": 7677,
      "xyz": 7678,
      "ĠAllow": 7679,
      "Ġinstanti": 7680,
      "udy": 7681,
      "Ġsending": 7682,
      "ilio": 7683,
      "Ġhalf": 7684,
      "haz": 7685,
      "Ġtrailing": 7686,
      "Ġpositional": 7687,
      "attention": 7688,
      "ĠSp": 7689,
      "Ġreceive": 7690,
      "Ġunderlying": 7691,
      "lated": 7692,
      "IRED": 7693,
      "addresses": 7694,
      "/\"": 7695,
      "VM": 7696,
      "listen": 7697,
      "traceback": 7698,
      "Ġblack": 7699,
      "Ġhuman": 7700,
      "ĠPass": 7701,
      "ĠChecks": 7702,
      "overflow": 7703,
      "Ġmeasurement": 7704,
      "---+": 7705,
      "\\\"": 7706,
      ")\")": 7707,
      "impl": 7708,
      "ãĢ": 7709,
      "Ġage": 7710,
      "Ġverbosity": 7711,
      "separator": 7712,
      "udo": 7713,
      "Ġsr": 7714,
      "sterior": 7715,
      "CLI": 7716,
      "LATE": 7717,
      "Ġec": 7718,
      "Ġdesign": 7719,
      "ĠCa": 7720,
      "ĠFe": 7721,
      "matching": 7722,
      "Ġscaling": 7723,
      "Ġgenome": 7724,
      "station": 7725,
      "Ġpip": 7726,
      "Factory": 7727,
      "'``": 7728,
      "Ġdirname": 7729,
      "nm": 7730,
      "Ġcar": 7731,
      "ĠCommandExecutionError": 7732,
      "Ġsolver": 7733,
      "Ġserialize": 7734,
      ">',": 7735,
      "lecule": 7736,
      "stand": 7737,
      "beat": 7738,
      "Popen": 7739,
      "Ġzeros": 7740,
      "Ġcutoff": 7741,
      "(\"\"": 7742,
      "native": 7743,
      "ĠIterable": 7744,
      "Ġdoct": 7745,
      "yntaxError": 7746,
      "war": 7747,
      "ultiple": 7748,
      "usr": 7749,
      "Ġappear": 7750,
      "iloc": 7751,
      "Ġ%.": 7752,
      "Ġaffect": 7753,
      "repos": 7754,
      "WOR": 7755,
      "`):": 7756,
      "bp": 7757,
      "LD": 7758,
      "Ġwaiting": 7759,
      "ĠStopIteration": 7760,
      "Ġtorch": 7761,
      "terminal": 7762,
      "iodic": 7763,
      "00000000": 7764,
      "Ġinstruction": 7765,
      "browser": 7766,
      "enc": 7767,
      "compressed": 7768,
      "aps": 7769,
      "stricted": 7770,
      "Ġ{!": 7771,
      "Ġsmaller": 7772,
      "ĠBackends": 7773,
      "Ġzoom": 7774,
      "checks": 7775,
      "BASE": 7776,
      "Ġ\"\".": 7777,
      "support": 7778,
      "shutit": 7779,
      "Ġurlparse": 7780,
      "ln": 7781,
      "Ġcatch": 7782,
      "ante": 7783,
      "Ġexpanded": 7784,
      "[_": 7785,
      "ba": 7786,
      "ĠMin": 7787,
      "Ġshard": 7788,
      "illi": 7789,
      "Ġproblems": 7790,
      "Ġproperly": 7791,
      "CACHE": 7792,
      "interp": 7793,
      "structions": 7794,
      "Root": 7795,
      "Ġoptionally": 7796,
      "Ġdummy": 7797,
      "Ġderived": 7798,
      "ssibly": 7799,
      "OPTION": 7800,
      "Ġqueries": 7801,
      "prot": 7802,
      "Normal": 7803,
      "recursive": 7804,
      "('.',": 7805,
      "Ġpp": 7806,
      "ĠPri": 7807,
      "({\"": 7808,
      "callbacks": 7809,
      "ĠUN": 7810,
      ").\"\"\"": 7811,
      "ĊĠĠĠĠĠĠĠĠĠĠĠĠĠĠĠĠĠĠĠĠĠĠĠĠĠĠĠĠĠĠĠĠĠĠĠĠĠĠĠĠĠĠĠĠĠĠĠĠĠĠĠĠĠĠĠ": 7812,
      "normalized": 7813,
      "ĊĊĉĉ": 7814,
      "RES": 7815,
      "\")[": 7816,
      "Ġexponent": 7817,
      "\"}": 7818,
      "Flow": 7819,
      "must": 7820,
      "inx": 7821,
      "98": 7822,
      "ĊĠĠĠĠĊĠĠĠ": 7823,
      "Ġcod": 7824,
      "Style": 7825,
      "remaining": 7826,
      "Ġwhitespace": 7827,
      "irtual": 7828,
      "Ġxs": 7829,
      "bing": 7830,
      "inspect": 7831,
      "conditions": 7832,
      "datasets": 7833,
      "Next": 7834,
      "Ġconsumer": 7835,
      "wall": 7836,
      "Ġten": 7837,
      "'d": 7838,
      "tip": 7839,
      "åħ": 7840,
      "bases": 7841,
      "Ġseparated": 7842,
      "ĠISO": 7843,
      "Ġquiet": 7844,
      "Ġ*,": 7845,
      "Ġcovariance": 7846,
      "Ġwon": 7847,
      "validator": 7848,
      "ides": 7849,
      "vidence": 7850,
      "viders": 7851,
      "generated": 7852,
      "Callback": 7853,
      "Ġ'$": 7854,
      "001": 7855,
      "Select": 7856,
      "SSL": 7857,
      "Ġretval": 7858,
      "Builder": 7859,
      "ym": 7860,
      "Ġ90": 7861,
      "Ġgithub": 7862,
      "resolution": 7863,
      "sually": 7864,
      "Ġattached": 7865,
      "Ġconfigure": 7866,
      "MT": 7867,
      "cular": 7868,
      "eration": 7869,
      "iving": 7870,
      "transfer": 7871,
      "ĠBad": 7872,
      "Account": 7873,
      "Ġ(``": 7874,
      "Interface": 7875,
      "bum": 7876,
      "rx": 7877,
      "extent": 7878,
      "VICE": 7879,
      "interfaces": 7880,
      "Ġexposure": 7881,
      "defs": 7882,
      "Ġpanel": 7883,
      "llo": 7884,
      "urnal": 7885,
      "Ġinterpolation": 7886,
      "manifest": 7887,
      "seudo": 7888,
      "Ġmetavar": 7889,
      "Ġimmediately": 7890,
      "Rel": 7891,
      "(\"[": 7892,
      "...\")": 7893,
      "Ġinterfaces": 7894,
      "Ġrr": 7895,
      "capacity": 7896,
      "Ġplayer": 7897,
      "ĠEX": 7898,
      "Ġfoo": 7899,
      "Does": 7900,
      "vrf": 7901,
      "vided": 7902,
      "Ġblue": 7903,
      "UNK": 7904,
      "variance": 7905,
      "ctypes": 7906,
      "Ġ'').": 7907,
      "caller": 7908,
      "Ġembedding": 7909,
      "Ġnl": 7910,
      "'}},": 7911,
      "gid": 7912,
      "notes": 7913,
      "when": 7914,
      "va": 7915,
      "Ġ()": 7916,
      "oute": 7917,
      "Ġcorrelation": 7918,
      "Ġicon": 7919,
      "Ġnewline": 7920,
      "indic": 7921,
      "lr": 7922,
      "elta": 7923,
      "west": 7924,
      "ĠLine": 7925,
      "Ġ13": 7926,
      "Ġgzip": 7927,
      "vy": 7928,
      "ĠRO": 7929,
      "Ġreached": 7930,
      "ĠĠĠĠĠĠĠĠĠĠĠĠĠĠĠĠĠĠ": 7931,
      "Op": 7932,
      "information": 7933,
      "unct": 7934,
      "fies": 7935,
      "Ġlex": 7936,
      "lig": 7937,
      "'})": 7938,
      "queryset": 7939,
      "Ġmicro": 7940,
      "Bar": 7941,
      "Ġart": 7942,
      "ashboard": 7943,
      "Ġdownloaded": 7944,
      "Lib": 7945,
      "mkdir": 7946,
      "ĠRetrieve": 7947,
      "Font": 7948,
      "met": 7949,
      "Limit": 7950,
      "criteria": 7951,
      "Ġserializer": 7952,
      "evaluate": 7953,
      "mmar": 7954,
      "measurement": 7955,
      "Ġinstrument": 7956,
      "ĠDec": 7957,
      "confirm": 7958,
      "omment": 7959,
      "problem": 7960,
      "Ġcompress": 7961,
      "Ġminor": 7962,
      "Agent": 7963,
      "_):": 7964,
      "iterations": 7965,
      "ĠValidate": 7966,
      "django": 7967,
      "visor": 7968,
      "Ġretrieved": 7969,
      "Ġcap": 7970,
      "asing": 7971,
      "ĠHel": 7972,
      "alculates": 7973,
      "lets": 7974,
      "aging": 7975,
      "genome": 7976,
      "critical": 7977,
      "inition": 7978,
      "boto": 7979,
      ")`": 7980,
      "za": 7981,
      "ĠKeyword": 7982,
      "Empty": 7983,
      "bf": 7984,
      "Ġhdr": 7985,
      "Ġindicate": 7986,
      "Ġspecies": 7987,
      "Ġoverrid": 7988,
      "lax": 7989,
      "literal": 7990,
      "mig": 7991,
      "Ġmajor": 7992,
      "mapped": 7993,
      "Proxy": 7994,
      "rdf": 7995,
      "ĠWrit": 7996,
      "wind": 7997,
      "mainder": 7998,
      "Ġsignals": 7999,
      "Ġraster": 8000,
      "objs": 8001,
      "CC": 8002,
      "Ġtoler": 8003,
      "prise": 8004,
      "Ġbp": 8005,
      "ĠSystem": 8006,
      "ctrl": 8007,
      "URCE": 8008,
      "ĠGets": 8009,
      "sol": 8010,
      "Ġrs": 8011,
      "ITE": 8012,
      "Ġable": 8013,
      "room": 8014,
      "imize": 8015,
      "Ġepsilon": 8016,
      "å¤": 8017,
      "svg": 8018,
      "izers": 8019,
      "rem": 8020,
      "Ġcompile": 8021,
      "BE": 8022,
      "->": 8023,
      "Now": 8024,
      "stor": 8025,
      "bitrary": 8026,
      "gc": 8027,
      "metry": 8028,
      "pillar": 8029,
      "æĪ": 8030,
      "ĠPY": 8031,
      "Mark": 8032,
      "Ġsin": 8033,
      "(\".\")": 8034,
      "IR": 8035,
      "]{": 8036,
      "initialized": 8037,
      "Ġfall": 8038,
      "Ġartic": 8039,
      "ĠMap": 8040,
      "describe": 8041,
      "aliases": 8042,
      "Tc": 8043,
      "Ġinline": 8044,
      "taint": 8045,
      "Ġhandled": 8046,
      "Ġthresh": 8047,
      "Ġouter": 8048,
      "ĠMag": 8049,
      "Ġspin": 8050,
      "utool": 8051,
      "Ġtau": 8052,
      "Ġroom": 8053,
      "Files": 8054,
      "ĠBoolean": 8055,
      "ĠDescription": 8056,
      "Ġformula": 8057,
      "'ve": 8058,
      "alo": 8059,
      "ĠCIM": 8060,
      "conj": 8061,
      "iteration": 8062,
      "tzinfo": 8063,
      "configure": 8064,
      "ALI": 8065,
      "Ġevaluation": 8066,
      "Ġtc": 8067,
      "Ġadata": 8068,
      "Ġgeneric": 8069,
      "Ġpopulation": 8070,
      "('')": 8071,
      "ĠSN": 8072,
      "ĠSource": 8073,
      "cks": 8074,
      "assessment": 8075,
      "perform": 8076,
      "STATUS": 8077,
      "orn": 8078,
      "unded": 8079,
      "Ġnearest": 8080,
      "widths": 8081,
      "generic": 8082,
      "Ġdistances": 8083,
      "Ġgs": 8084,
      "xc": 8085,
      "Ġrouter": 8086,
      "SCRI": 8087,
      "Ġfigsize": 8088,
      "mn": 8089,
      "squeeze": 8090,
      "ye": 8091,
      "Ġtrying": 8092,
      "hexdigest": 8093,
      "Ġhandles": 8094,
      ",-": 8095,
      "Offset": 8096,
      "border": 8097,
      "coun": 8098,
      "Ġvertical": 8099,
      "ience": 8100,
      "Ġchoose": 8101,
      "written": 8102,
      "Ġsubmission": 8103,
      "idxs": 8104,
      "UTP": 8105,
      "Ġii": 8106,
      "Ġpressure": 8107,
      "ields": 8108,
      "pw": 8109,
      "orator": 8110,
      "ROOT": 8111,
      "Ġsamp": 8112,
      "trl": 8113,
      "Current": 8114,
      "inct": 8115,
      "odb": 8116,
      "resolver": 8117,
      "probs": 8118,
      "Ġ256": 8119,
      "EP": 8120,
      "Internal": 8121,
      "[^": 8122,
      "Ġgp": 8123,
      "compatible": 8124,
      "Ġpredicted": 8125,
      "inja": 8126,
      "ĠStore": 8127,
      "matched": 8128,
      "player": 8129,
      "Ġanchor": 8130,
      "Ġna": 8131,
      "checksum": 8132,
      "Ġclosest": 8133,
      "=[],": 8134,
      "Ġattempts": 8135,
      "')))": 8136,
      "km": 8137,
      "xlim": 8138,
      "Ġatoms": 8139,
      "latitude": 8140,
      "Ġhigher": 8141,
      "rich": 8142,
      "Ġupd": 8143,
      "Ġissues": 8144,
      "argspec": 8145,
      "Ġgetting": 8146,
      "Given": 8147,
      "Ġfw": 8148,
      "ping": 8149,
      "afe": 8150,
      "Ġreally": 8151,
      "Ġpdf": 8152,
      "mbolic": 8153,
      "REF": 8154,
      ")[-": 8155,
      "Ġ40": 8156,
      "Ġdecla": 8157,
      "figsize": 8158,
      "Ġalternative": 8159,
      "lica": 8160,
      "Ġmeth": 8161,
      "newaxis": 8162,
      "alect": 8163,
      "lips": 8164,
      "urb": 8165,
      "ĊĠĠĠĠĠĠĠĠĠĠĠĠĠĠĠĠĠĠĠĠĠĠĠĠĠĠĠĠĠĠĠĠĠĠĠĠĠĠĠĠĠĠĠĠĠĠĠĠĠĠĠĠĠ": 8166,
      "ITS": 8167,
      "Ġweighted": 8168,
      "smooth": 8169,
      "istrib": 8170,
      "ailab": 8171,
      "CHAR": 8172,
      "variants": 8173,
      "Ġtransformed": 8174,
      "pie": 8175,
      "intf": 8176,
      "between": 8177,
      "UTPUT": 8178,
      "'{": 8179,
      "+\"": 8180,
      "æĹ": 8181,
      "meas": 8182,
      "Ġbinding": 8183,
      "imuth": 8184,
      "runner": 8185,
      "histogram": 8186,
      "EXT": 8187,
      "Ġsimulation": 8188,
      "Ġdetermined": 8189,
      "Raw": 8190,
      "Ġnargs": 8191,
      "CMD": 8192,
      "FIN": 8193,
      "nick": 8194,
      "UNT": 8195,
      "()])": 8196,
      "128": 8197,
      "ULE": 8198,
      "Unsupported": 8199,
      "Ġiterate": 8200,
      "Batch": 8201,
      "Ð°": 8202,
      "Ġmet": 8203,
      "void": 8204,
      "floor": 8205,
      "should": 8206,
      "recur": 8207,
      "formatted": 8208,
      "Ġtries": 8209,
      "mitive": 8210,
      "Ġpolygon": 8211,
      "äº": 8212,
      "mpath": 8213,
      "quared": 8214,
      "Ġchart": 8215,
      "compare": 8216,
      "Ġnormalization": 8217,
      "Unit": 8218,
      "Mon": 8219,
      "hide": 8220,
      "Ġrouting": 8221,
      "Ġopened": 8222,
      "Ġleaf": 8223,
      "serialized": 8224,
      "pixels": 8225,
      "Ġpdb": 8226,
      "Ġworld": 8227,
      "Ġstar": 8228,
      "dia": 8229,
      "rea": 8230,
      "working": 8231,
      "Ġactivity": 8232,
      "gence": 8233,
      "Ġhaving": 8234,
      "\":\"": 8235,
      "Calculate": 8236,
      "Ġcrop": 8237,
      "Ġnr": 8238,
      "Ġnotes": 8239,
      "spy": 8240,
      "Ġ{}:": 8241,
      "Show": 8242,
      "udent": 8243,
      "unicate": 8244,
      "Generator": 8245,
      "Ġchat": 8246,
      "ĠMAX": 8247,
      "``)": 8248,
      "Ġpf": 8249,
      "rols": 8250,
      "Ġvox": 8251,
      "omin": 8252,
      "embedding": 8253,
      "Tool": 8254,
      "statistics": 8255,
      "hits": 8256,
      "Ġcipher": 8257,
      "dimensional": 8258,
      "isdigit": 8259,
      "Ġwindows": 8260,
      "/.": 8261,
      "wo": 8262,
      "Ġpreserve": 8263,
      "Ġordering": 8264,
      "LOAD": 8265,
      "Script": 8266,
      "ĠDjango": 8267,
      "ARD": 8268,
      "margin": 8269,
      "gradient": 8270,
      "Ġfasta": 8271,
      "streams": 8272,
      "fcoe": 8273,
      "Ġmacro": 8274,
      "pv": 8275,
      "gered": 8276,
      "START": 8277,
      "supports": 8278,
      "ned": 8279,
      "ĠCont": 8280,
      "Ġfinish": 8281,
      "!\"": 8282,
      "usion": 8283,
      "XY": 8284,
      "PR": 8285,
      "Ġir": 8286,
      "Ġ{:": 8287,
      "Bind": 8288,
      "tok": 8289,
      "aming": 8290,
      "Ġcopied": 8291,
      "72": 8292,
      "CATION": 8293,
      "Ġcancel": 8294,
      "keyid": 8295,
      "])))": 8296,
      "Ġfurther": 8297,
      "maybe": 8298,
      "Ġcallbacks": 8299,
      "Ġrename": 8300,
      "learning": 8301,
      "Ġrecomm": 8302,
      "=\"%": 8303,
      "Ġcompressed": 8304,
      "COMM": 8305,
      "Ġtopology": 8306,
      "Ġmk": 8307,
      "Ġdl": 8308,
      "STRING": 8309,
      "adj": 8310,
      "Ġsilent": 8311,
      "Ġocc": 8312,
      "take": 8313,
      "Ġexecutor": 8314,
      "pag": 8315,
      "ĠMet": 8316,
      "Ġdocuments": 8317,
      "quis": 8318,
      "MPLE": 8319,
      "Ġgap": 8320,
      "Ġbrowser": 8321,
      "cay": 8322,
      "Ġdaemon": 8323,
      "ĠStream": 8324,
      "Ġinterest": 8325,
      ")['": 8326,
      "[...,": 8327,
      "fq": 8328,
      "Ph": 8329,
      "perms": 8330,
      "ĠGit": 8331,
      "sensus": 8332,
      "Ġ':'": 8333,
      "Ġallele": 8334,
      "ĠCallable": 8335,
      "Ġproj": 8336,
      "Ġtolerance": 8337,
      "crop": 8338,
      "ylim": 8339,
      "special": 8340,
      "Ġconsistent": 8341,
      "raster": 8342,
      "Ġplotting": 8343,
      "seqs": 8344,
      "scatter": 8345,
      ".:": 8346,
      "bri": 8347,
      "Ġbs": 8348,
      "ĠChange": 8349,
      "()['": 8350,
      "Ġtranslate": 8351,
      "Ġ','.": 8352,
      "Failure": 8353,
      "Ġ500": 8354,
      "Ġdns": 8355,
      "Ġglyph": 8356,
      "Ġquality": 8357,
      "LT": 8358,
      "letes": 8359,
      "pex": 8360,
      "Ġrepeat": 8361,
      "Ġdc": 8362,
      "Ġpercentage": 8363,
      "agger": 8364,
      "grains": 8365,
      "pip": 8366,
      "...')": 8367,
      "Ġtransformation": 8368,
      "crease": 8369,
      "ĠAmazon": 8370,
      "ttl": 8371,
      "500": 8372,
      "ĠEd": 8373,
      "ipy": 8374,
      "Json": 8375,
      "zed": 8376,
      "Ġaff": 8377,
      "constraint": 8378,
      "Ġderivative": 8379,
      "Ðµ": 8380,
      "venance": 8381,
      "binding": 8382,
      "Ġ180": 8383,
      "SSAGE": 8384,
      "ĠAdditional": 8385,
      "ggered": 8386,
      "prod": 8387,
      "tell": 8388,
      "ĠTemplate": 8389,
      "Ġtranscript": 8390,
      "ERS": 8391,
      "anning": 8392,
      "plots": 8393,
      "resolved": 8394,
      "ĠXXX": 8395,
      "nv": 8396,
      "ĠEnd": 8397,
      "Ġrelationship": 8398,
      "Buffer": 8399,
      "definitions": 8400,
      "enotype": 8401,
      "aux": 8402,
      "Ġlive": 8403,
      "ĠNormal": 8404,
      "Ġdepends": 8405,
      "incipal": 8406,
      "Ġmarkers": 8407,
      "Usage": 8408,
      "Ġbases": 8409,
      "temperature": 8410,
      "moving": 8411,
      "Ġiteritems": 8412,
      "Ġspectrum": 8413,
      "/',": 8414,
      "Ġtwilio": 8415,
      "Ġfew": 8416,
      "ĠSkip": 8417,
      "dry": 8418,
      "llegal": 8419,
      "Ġtreat": 8420,
      "mapper": 8421,
      "Ġconfigs": 8422,
      "questions": 8423,
      "Track": 8424,
      "Items": 8425,
      "Ġgl": 8426,
      "âĶĢâĶĢ": 8427,
      "aking": 8428,
      "plt": 8429,
      "grp": 8430,
      "Ð¾": 8431,
      "usted": 8432,
      "Ġsoup": 8433,
      "={},": 8434,
      "Ġglobals": 8435,
      "coverage": 8436,
      "ĠDataset": 8437,
      "notebook": 8438,
      "Ġreduced": 8439,
      "represent": 8440,
      "Ġreaction": 8441,
      "daemon": 8442,
      "PEN": 8443,
      "Ġcd": 8444,
      "ĊĠĠĠĠĠĠĠĠĠĠĠĠĠĠĠĠĠĠĠĠĠĠĠĠĠĠĠĠĠĠĠĠĠĠĠĠĠĠĠĠĠĠĠĠĠĠĠĠĠĠĠĠĠĠĠĠĠĠĠĠĠĠĠĠĠĠĠĠĠĠĠĠĠĠĠĠĠĠĠĠĠĠĠĠ": 8445,
      "Ġpg": 8446,
      "Ra": 8447,
      "registered": 8448,
      "Exp": 8449,
      "LAB": 8450,
      "spac": 8451,
      "Ġformatting": 8452,
      "logits": 8453,
      "exact": 8454,
      "umption": 8455,
      "Ġ128": 8456,
      "Ġactivation": 8457,
      "Ġutool": 8458,
      "ĠPh": 8459,
      "ĠApi": 8460,
      "ĠMaximum": 8461,
      "Ġnamespaces": 8462,
      "mavlink": 8463,
      "cmp": 8464,
      "minutes": 8465,
      "ĠValidationError": 8466,
      "Login": 8467,
      "pas": 8468,
      "}\",": 8469,
      "Ġxmax": 8470,
      "Float": 8471,
      "ongs": 8472,
      "Ġerrno": 8473,
      "))):": 8474,
      "ledge": 8475,
      "blank": 8476,
      "vcs": 8477,
      "________": 8478,
      "hint": 8479,
      "ĠTag": 8480,
      "precationWarning": 8481,
      "Dep": 8482,
      "TES": 8483,
      "velope": 8484,
      "å®": 8485,
      "Mix": 8486,
      "Ġclassification": 8487,
      "venience": 8488,
      "KEN": 8489,
      "Ġconfirm": 8490,
      "NotExist": 8491,
      "ĠPerform": 8492,
      "Ġrecursively": 8493,
      "parallel": 8494,
      "without": 8495,
      "SR": 8496,
      "ailability": 8497,
      "tup": 8498,
      "Stack": 8499,
      "resize": 8500,
      "Ġkm": 8501,
      "Ġoverla": 8502,
      "Web": 8503,
      "One": 8504,
      "=''):": 8505,
      "ĠRecord": 8506,
      "Ġmasked": 8507,
      "((\"": 8508,
      "Accept": 8509,
      "xies": 8510,
      "Ġndim": 8511,
      "ulus": 8512,
      "Ġcoverage": 8513,
      "ĠPart": 8514,
      "Project": 8515,
      "Ġasc": 8516,
      "``:": 8517,
      "ĠSerial": 8518,
      "customer": 8519,
      ">`_": 8520,
      "phan": 8521,
      "Ġdoing": 8522,
      "ĠConverts": 8523,
      "ĠPoint": 8524,
      "400": 8525,
      "Ġtrial": 8526,
      "ĠVersion": 8527,
      "solve": 8528,
      "Rect": 8529,
      "Ġcoefficient": 8530,
      "Ġcs": 8531,
      "countered": 8532,
      "vc": 8533,
      "thers": 8534,
      "ĠAb": 8535,
      "apps": 8536,
      "Ġffi": 8537,
      "cus": 8538,
      "Ġ``(": 8539,
      "completed": 8540,
      "rotation": 8541,
      "att": 8542,
      "partic": 8543,
      "Ġì": 8544,
      "CG": 8545,
      "600": 8546,
      "Ġexcluded": 8547,
      "Ġsoft": 8548,
      "lobs": 8549,
      "Ġjs": 8550,
      "utcnow": 8551,
      "statements": 8552,
      "boundary": 8553,
      "TAG": 8554,
      "but": 8555,
      "Ġcanvas": 8556,
      "Ġequation": 8557,
      "hazard": 8558,
      "fraction": 8559,
      "longitude": 8560,
      "icket": 8561,
      "ç»": 8562,
      "artifact": 8563,
      "Ġvlan": 8564,
      "namespaced": 8565,
      "share": 8566,
      "TIMEOUT": 8567,
      "did": 8568,
      "spin": 8569,
      "updates": 8570,
      "Ġscene": 8571,
      "Ġbroadcast": 8572,
      "}',": 8573,
      "consumer": 8574,
      "ipant": 8575,
      "DU": 8576,
      "ĠNAME": 8577,
      "directories": 8578,
      "Entity": 8579,
      "preview": 8580,
      "osed": 8581,
      "Ġlaunch": 8582,
      "Ġ404": 8583,
      "xi": 8584,
      "adow": 8585,
      "Ġintern": 8586,
      "ĠAB": 8587,
      "Ġchan": 8588,
      "minor": 8589,
      "Settings": 8590,
      "ĠApply": 8591,
      "jar": 8592,
      "ilename": 8593,
      "dy": 8594,
      "Ġbounding": 8595,
      "peaks": 8596,
      "hdf": 8597,
      "Ġhits": 8598,
      "authenticated": 8599,
      "Shape": 8600,
      "clock": 8601,
      "klass": 8602,
      "localhost": 8603,
      "Validate": 8604,
      "}:{": 8605,
      "Ġattachment": 8606,
      "elif": 8607,
      "rh": 8608,
      "follow": 8609,
      "tcp": 8610,
      "(\"<": 8611,
      "matplotlib": 8612,
      "Edit": 8613,
      "DP": 8614,
      "åŃ": 8615,
      "references": 8616,
      "Ġmi": 8617,
      "OM": 8618,
      "Ġstation": 8619,
      "Ġphone": 8620,
      "\"{": 8621,
      "Writer": 8622,
      "Ġbed": 8623,
      "assignment": 8624,
      "Ġsubmit": 8625,
      "Ġlv": 8626,
      "],[": 8627,
      "+\\": 8628,
      "Ġiso": 8629,
      "cart": 8630,
      "Comm": 8631,
      "çĶ¨": 8632,
      "itute": 8633,
      "89": 8634,
      "Sk": 8635,
      "[\\": 8636,
      "è¡": 8637,
      "Ġfits": 8638,
      "Ġhighest": 8639,
      "ĠNum": 8640,
      "ĠMay": 8641,
      "Ġlisted": 8642,
      "ĠContext": 8643,
      "iming": 8644,
      "}-": 8645,
      "Ġpal": 8646,
      "stackoverflow": 8647,
      "Ġcores": 8648,
      "removed": 8649,
      "collections": 8650,
      "plane": 8651,
      "SPACE": 8652,
      "Ġwildcard": 8653,
      "Ġln": 8654,
      "Ġletter": 8655,
      "Ġrestriction": 8656,
      "allen": 8657,
      "Ġcomputation": 8658,
      "ĠTO": 8659,
      "Ġrx": 8660,
      "Ġlogged": 8661,
      "Ġfiltering": 8662,
      "Split": 8663,
      "Ġcharset": 8664,
      "LENG": 8665,
      "person": 8666,
      "Ġcomps": 8667,
      "ĊĠĠĠĠĠĠĠĠĠĠĠĠĠĠĠĠĠĠĠĠĠĠĠĠĠĠĠĠĠĠĠĠĠĠĠĠĠĠĠĠĠĠĠĠĠĠĠĠĠĠĠĠĠĠ": 8668,
      "Attr": 8669,
      ")?": 8670,
      "mous": 8671,
      "mpaign": 8672,
      "Ġexpressions": 8673,
      "ĠReferences": 8674,
      "Ġcanonical": 8675,
      "runs": 8676,
      "Ġoccurs": 8677,
      "unused": 8678,
      "ĠSort": 8679,
      "è®": 8680,
      "under": 8681,
      "BB": 8682,
      "Ġnc": 8683,
      "Ġlikely": 8684,
      "Ġ[('": 8685,
      "ĠPop": 8686,
      "oct": 8687,
      "population": 8688,
      "ĠHttpResponse": 8689,
      "Ġmaking": 8690,
      "Ġchr": 8691,
      "ĠUTC": 8692,
      "endor": 8693,
      "LENGTH": 8694,
      "Align": 8695,
      "Ġaggregate": 8696,
      "bsocket": 8697,
      "Ġcrypto": 8698,
      "limited": 8699,
      "Ġrendered": 8700,
      "ĠHowever": 8701,
      "Retrieve": 8702,
      "Hist": 8703,
      "Top": 8704,
      "ftp": 8705,
      "ĠAddress": 8706,
      "Ġcapture": 8707,
      "TOKEN": 8708,
      "Layout": 8709,
      "Flags": 8710,
      "Ġcheckpoint": 8711,
      "ANCE": 8712,
      "bridge": 8713,
      "ialog": 8714,
      "Descriptor": 8715,
      "decoder": 8716,
      "classification": 8717,
      "Ġsatis": 8718,
      "rn": 8719,
      "Ġcss": 8720,
      "Ġdisplayed": 8721,
      "middle": 8722,
      "ĠĊĠĠĠĠĠĠĠĠĠĠĠĠĠĠĠ": 8723,
      "Ġduplicates": 8724,
      "dients": 8725,
      "Ġ[_": 8726,
      "small": 8727,
      "arginal": 8728,
      "ĠJo": 8729,
      "Sample": 8730,
      "routes": 8731,
      "going": 8732,
      "Ġaliases": 8733,
      "igs": 8734,
      "Ġnewly": 8735,
      "slots": 8736,
      "Ġfour": 8737,
      "lexer": 8738,
      "pabilities": 8739,
      "}')": 8740,
      "ĠPub": 8741,
      "Ġance": 8742,
      "weep": 8743,
      "Ġaccepts": 8744,
      "trunc": 8745,
      "anging": 8746,
      "Coord": 8747,
      "Net": 8748,
      "Ġtp": 8749,
      "Ġcombination": 8750,
      "Gui": 8751,
      "Try": 8752,
      "Ġthreading": 8753,
      "flu": 8754,
      "ele": 8755,
      "Ġpillar": 8756,
      "Ġdefines": 8757,
      "æĺ": 8758,
      "Ġrand": 8759,
      "stitute": 8760,
      "aring": 8761,
      "Ġindexed": 8762,
      "Ġprog": 8763,
      "Prefix": 8764,
      "topology": 8765,
      "domains": 8766,
      "Ġmanually": 8767,
      "ĠOPTION": 8768,
      "Ġpoll": 8769,
      "predicate": 8770,
      "54": 8771,
      "RPC": 8772,
      "ĠAct": 8773,
      "Ġstrategy": 8774,
      "specified": 8775,
      "__')": 8776,
      "ugment": 8777,
      "Flag": 8778,
      "ess": 8779,
      "Ġfrozen": 8780,
      "Ġ'\\\\": 8781,
      "shutdown": 8782,
      "Ġforms": 8783,
      "Ġdeepcopy": 8784,
      "ĠSplit": 8785,
      "Ġmatrices": 8786,
      "Ġinserted": 8787,
      "mpy": 8788,
      "gi": 8789,
      "Ġcomplet": 8790,
      "__',": 8791,
      "Mask": 8792,
      "igure": 8793,
      "subplots": 8794,
      "YANG": 8795,
      "PH": 8796,
      "tot": 8797,
      "anity": 8798,
      "Ġ'?": 8799,
      "Ġflush": 8800,
      "æĸĩ": 8801,
      "Ġfrequencies": 8802,
      "too": 8803,
      "IDs": 8804,
      "Running": 8805,
      "Ġdescribed": 8806,
      "etree": 8807,
      "Attemp": 8808,
      "nonce": 8809,
      "received": 8810,
      "chanism": 8811,
      "equ": 8812,
      "ĠCopy": 8813,
      "Unexpected": 8814,
      "Ġresidual": 8815,
      "infer": 8816,
      "atleast": 8817,
      "regular": 8818,
      "sgi": 8819,
      "}\")": 8820,
      "Ġnor": 8821,
      "fragment": 8822,
      "ĠThen": 8823,
      "ances": 8824,
      "alancer": 8825,
      "Writ": 8826,
      "ANGE": 8827,
      "centers": 8828,
      "Adds": 8829,
      "ĠDoes": 8830,
      "Ġoccurred": 8831,
      "Ġtenant": 8832,
      "Ġnn": 8833,
      "Ġrng": 8834,
      "initialize": 8835,
      "radians": 8836,
      "ATED": 8837,
      "Ġevaluated": 8838,
      "ĠSince": 8839,
      "Ġspecimen": 8840,
      "gnc": 8841,
      "Ġ''))": 8842,
      "Namespace": 8843,
      "theme": 8844,
      "nom": 8845,
      "Ġdeployment": 8846,
      "Ġ'(": 8847,
      "Ġosid": 8848,
      "slices": 8849,
      "coeffs": 8850,
      "ocus": 8851,
      "Ġ400": 8852,
      "Ġoverlay": 8853,
      "Ġkwarg": 8854,
      "Tags": 8855,
      "mor": 8856,
      "charge": 8857,
      "Custom": 8858,
      "Ġothers": 8859,
      "branches": 8860,
      "exposure": 8861,
      "developer": 8862,
      "Wait": 8863,
      "_=": 8864,
      "Extension": 8865,
      "Ġvariants": 8866,
      "inline": 8867,
      "rune": 8868,
      "Ġsuitable": 8869,
      "Ġseveral": 8870,
      "Ġcm": 8871,
      "datatype": 8872,
      "partitions": 8873,
      "gui": 8874,
      "Ġcorresponds": 8875,
      "degrees": 8876,
      "ĊĠĠĠĠĠĠĠĠĊĠĠĠĠĠĠĠ": 8877,
      "Ġwho": 8878,
      "helpers": 8879,
      "Ġ\"{}\"": 8880,
      "letion": 8881,
      "scipy": 8882,
      "ripts": 8883,
      "treat": 8884,
      "uit": 8885,
      "feat": 8886,
      "Ġjump": 8887,
      "Ġyields": 8888,
      "legate": 8889,
      "ĠColumn": 8890,
      "ners": 8891,
      "erance": 8892,
      "('>": 8893,
      "Ġreach": 8894,
      "Ġarbitrary": 8895,
      "quality": 8896,
      "compliance": 8897,
      "sequent": 8898,
      "lopen": 8899,
      "Pe": 8900,
      "Ġincoming": 8901,
      "ĠAS": 8902,
      "Ġalphabet": 8903,
      "Ġdecoder": 8904,
      "UTF": 8905,
      "relpath": 8906,
      "73": 8907,
      "ĠVariable": 8908,
      "ĠConfiguration": 8909,
      "arrow": 8910,
      "strain": 8911,
      "Ġ[]):": 8912,
      "ught": 8913,
      "Definition": 8914,
      "namespaces": 8915,
      "ANT": 8916,
      "ãĢĤ": 8917,
      "`.\"\"\"": 8918,
      "stable": 8919,
      "Ġ`~": 8920,
      "tegr": 8921,
      "lapse": 8922,
      "snmp": 8923,
      "Ġ[%": 8924,
      "yield": 8925,
      "ĠĠĠĠĠĠĠĠĠĠĠĠĠĠĠĠĠĠĠĠ": 8926,
      "started": 8927,
      "Ġws": 8928,
      "Protocol": 8929,
      "Ġrhs": 8930,
      "Ġmouse": 8931,
      "Ġavg": 8932,
      "Title": 8933,
      "ota": 8934,
      "Ġinf": 8935,
      "ĠNull": 8936,
      "accounts": 8937,
      "sensor": 8938,
      "........": 8939,
      "Ġincorrect": 8940,
      "riendly": 8941,
      "bill": 8942,
      "anis": 8943,
      "minute": 8944,
      "Ġworkers": 8945,
      "DoesNotExist": 8946,
      "starting": 8947,
      "ĠEither": 8948,
      "Ġmyminion": 8949,
      "Ġmv": 8950,
      "Ġmer": 8951,
      "ĠCPU": 8952,
      "ansion": 8953,
      "Ġestimator": 8954,
      "Ġbroker": 8955,
      "Region": 8956,
      "]/": 8957,
      "())[": 8958,
      "returncode": 8959,
      "Checks": 8960,
      "given": 8961,
      "ĠPAT": 8962,
      "samp": 8963,
      "Ġrid": 8964,
      "Ġcapacity": 8965,
      "docstring": 8966,
      "desk": 8967,
      "Ġsheet": 8968,
      "styles": 8969,
      "Comple": 8970,
      "mappings": 8971,
      "Ġclause": 8972,
      "hyper": 8973,
      "Ġfar": 8974,
      "Ġdag": 8975,
      "Ġfilesystem": 8976,
      "Ġfilled": 8977,
      "Ġlikelihood": 8978,
      "iline": 8979,
      "prime": 8980,
      "crs": 8981,
      "inary": 8982,
      "tailed": 8983,
      "Ġ</": 8984,
      "Transaction": 8985,
      "ĠSpecify": 8986,
      "RECT": 8987,
      "decl": 8988,
      "Ġmargin": 8989,
      "Ġfu": 8990,
      "lored": 8991,
      "jected": 8992,
      "macro": 8993,
      "Interrupt": 8994,
      "Ġmedian": 8995,
      "DED": 8996,
      "_['": 8997,
      "Ġeq": 8998,
      "Creating": 8999,
      "Ġtools": 9000,
      "2018": 9001,
      "Pi": 9002,
      "around": 9003,
      "GEX": 9004,
      "vocation": 9005,
      "Ġconfidence": 9006,
      "graphic": 9007,
      "Ġprece": 9008,
      "Ġdeal": 9009,
      "ĠĠĠĠĠĠĠĠĠĠĠĠĠĠĠĠĠĠĠĠĠ": 9010,
      "bindings": 9011,
      "ParseError": 9012,
      "Ġkv": 9013,
      "Cluster": 9014,
      "land": 9015,
      "xmin": 9016,
      "Ġcombine": 9017,
      "estimator": 9018,
      "allele": 9019,
      "covered": 9020,
      "Ġintersection": 9021,
      "GIN": 9022,
      "Display": 9023,
      "Plugin": 9024,
      "Ġbalance": 9025,
      "ambda": 9026,
      "Ġhorizontal": 9027,
      "Ġ{{": 9028,
      "formula": 9029,
      "Ġprocessor": 9030,
      "Stop": 9031,
      "ĠMapping": 9032,
      "Ġrepresented": 9033,
      "]\")": 9034,
      "Ġann": 9035,
      "Ġbeam": 9036,
      "acquire": 9037,
      "topics": 9038,
      "secure": 9039,
      "Ġexpired": 9040,
      "inp": 9041,
      "Ġlistener": 9042,
      "+',": 9043,
      "Ġhide": 9044,
      "spf": 9045,
      "Ġuniform": 9046,
      "Interval": 9047,
      "Ġmodification": 9048,
      "locator": 9049,
      "syntax": 9050,
      "']}": 9051,
      "ĠColor": 9052,
      "Ġcare": 9053,
      "half": 9054,
      "thro": 9055,
      "Ġleave": 9056,
      "Ġdead": 9057,
      "ĠReplace": 9058,
      "Ġcleanup": 9059,
      "Ġmeasurements": 9060,
      "cdf": 9061,
      "Ġangles": 9062,
      "Ġinvert": 9063,
      "orders": 9064,
      "uc": 9065,
      "Ġunable": 9066,
      "Ġlearning": 9067,
      "Ġperformance": 9068,
      "Cells": 9069,
      "RGB": 9070,
      "Ġminute": 9071,
      "ĠKE": 9072,
      "Random": 9073,
      "TABLE": 9074,
      "incomplete": 9075,
      "ĠDown": 9076,
      "scene": 9077,
      "Ġ({})": 9078,
      "ĠRGB": 9079,
      "pacing": 9080,
      "oi": 9081,
      "Ġplain": 9082,
      "ĠWh": 9083,
      "abc": 9084,
      "48": 9085,
      "Total": 9086,
      "PM": 9087,
      "arante": 9088,
      "ĠCSV": 9089,
      "focus": 9090,
      "Ġprovides": 9091,
      "Called": 9092,
      "Ġelapsed": 9093,
      "Ġdetail": 9094,
      "filt": 9095,
      "distances": 9096,
      "uming": 9097,
      "Ġgrouped": 9098,
      "/#": 9099,
      "Pix": 9100,
      "eras": 9101,
      "Ġunexpected": 9102,
      "jector": 9103,
      "checkpoint": 9104,
      "located": 9105,
      "broadcast": 9106,
      "SES": 9107,
      "101": 9108,
      "\\.": 9109,
      "Ġstuff": 9110,
      "lace": 9111,
      "Ġattrib": 9112,
      "Ġins": 9113,
      "LAN": 9114,
      "SB": 9115,
      "}_": 9116,
      "Ġslices": 9117,
      "Ġary": 9118,
      "Ġipv": 9119,
      "ention": 9120,
      "communicate": 9121,
      "æį": 9122,
      "Ġclients": 9123,
      "Ġobservations": 9124,
      "Ġoptimization": 9125,
      "Msg": 9126,
      "Ġprotein": 9127,
      "Ġgeneration": 9128,
      "ggers": 9129,
      "Ġide": 9130,
      "Ġboard": 9131,
      "Ġfake": 9132,
      "executor": 9133,
      "boxes": 9134,
      "></": 9135,
      "instrument": 9136,
      "ĠTarget": 9137,
      "Ġrestore": 9138,
      "queries": 9139,
      "ĠCustom": 9140,
      "mtree": 9141,
      "ĠProject": 9142,
      "GL": 9143,
      "Pr": 9144,
      "Ġ'@": 9145,
      "Ġusually": 9146,
      "MQ": 9147,
      "intext": 9148,
      "physical": 9149,
      "Ġarticle": 9150,
      ",**": 9151,
      "Ġfoot": 9152,
      "ising": 9153,
      "Ġaws": 9154,
      "Ġ\"*": 9155,
      "Ġencryption": 9156,
      "finish": 9157,
      "GO": 9158,
      "levation": 9159,
      "gpu": 9160,
      "setLevel": 9161,
      "Ġsqrt": 9162,
      "MD": 9163,
      "Ġshortcut": 9164,
      "Ġfontsize": 9165,
      "attachment": 9166,
      "normpath": 9167,
      "Ġvcf": 9168,
      "__()": 9169,
      "Extra": 9170,
      "jacency": 9171,
      "csr": 9172,
      "lask": 9173,
      "Ġfaster": 9174,
      "Ġcolour": 9175,
      "lename": 9176,
      "Ġdescribing": 9177,
      "Ġ\"(": 9178,
      "Ġbracket": 9179,
      "Len": 9180,
      "ased": 9181,
      "Ġoverrides": 9182,
      "phone": 9183,
      "basis": 9184,
      "ä½": 9185,
      "Ġunused": 9186,
      "Tri": 9187,
      "sb": 9188,
      "Ġinp": 9189,
      "angular": 9190,
      "scopes": 9191,
      "seen": 9192,
      "Ġidentical": 9193,
      "Lookup": 9194,
      "Ġskipped": 9195,
      "ĠLook": 9196,
      "Authorization": 9197,
      "pow": 9198,
      "ValidationError": 9199,
      "Ġreadable": 9200,
      "Package": 9201,
      "guess": 9202,
      "izable": 9203,
      "Ġymax": 9204,
      "åĽŀ": 9205,
      "Pattern": 9206,
      "Ġui": 9207,
      "ĠEl": 9208,
      "COLOR": 9209,
      "leting": 9210,
      "ĠSc": 9211,
      "Ġxmin": 9212,
      "ĠUsing": 9213,
      "deserialize": 9214,
      "ĠĠĠĠĠĠĠĠĠĠĠĠĠĠĠĠĠĠĠĠĠĠ": 9215,
      "CLASS": 9216,
      ")==": 9217,
      "Dialog": 9218,
      "Ġsd": 9219,
      "kb": 9220,
      "ets": 9221,
      "roots": 9222,
      "hashes": 9223,
      "###": 9224,
      "Ġ...,": 9225,
      "Ġ'_'": 9226,
      "projection": 9227,
      "Ġapplies": 9228,
      "mediator": 9229,
      "ĠEnvironment": 9230,
      "CD": 9231,
      "prefixes": 9232,
      "AI": 9233,
      "Ġkill": 9234,
      "\"]))": 9235,
      "{'": 9236,
      "overlap": 9237,
      "Space": 9238,
      "Ġapps": 9239,
      "artist": 9240,
      "Section": 9241,
      "ADD": 9242,
      "authorization": 9243,
      "percentile": 9244,
      "magnitude": 9245,
      "Ġcontour": 9246,
      "letter": 9247,
      "rength": 9248,
      "RN": 9249,
      "protein": 9250,
      "moment": 9251,
      "candidates": 9252,
      "lb": 9253,
      "anza": 9254,
      "fileobj": 9255,
      "Ġconverter": 9256,
      "utures": 9257,
      "ĠJob": 9258,
      "good": 9259,
      "vari": 9260,
      "Ġpys": 9261,
      "coin": 9262,
      "Ġdeep": 9263,
      "URN": 9264,
      "Ġvarious": 9265,
      "associ": 9266,
      "Ġcmp": 9267,
      "Ġdeviation": 9268,
      "ffe": 9269,
      "overwrite": 9270,
      "Ġdiagonal": 9271,
      "Ġconvention": 9272,
      "nums": 9273,
      "WE": 9274,
      "ĠPost": 9275,
      "traj": 9276,
      "Ġaggregation": 9277,
      "Ġaddition": 9278,
      "Ġplaceholder": 9279,
      "42": 9280,
      "NC": 9281,
      ">=": 9282,
      "Ġaccuracy": 9283,
      "Symbol": 9284,
      "ĠTakes": 9285,
      "Ġscaled": 9286,
      "Ġ2016": 9287,
      "sam": 9288,
      "Ġcid": 9289,
      "today": 9290,
      "Ġdoctest": 9291,
      "Ġidentifiers": 9292,
      "POINT": 9293,
      "Ġhad": 9294,
      "Ġcn": 9295,
      "trieves": 9296,
      "olding": 9297,
      "Bit": 9298,
      "Must": 9299,
      "gd": 9300,
      "Ġ\"#": 9301,
      "Ġdatatype": 9302,
      "Ori": 9303,
      "iro": 9304,
      "ĠSH": 9305,
      "overlay": 9306,
      "FE": 9307,
      "endpoints": 9308,
      "othing": 9309,
      "Loader": 9310,
      "180": 9311,
      "iface": 9312,
      "Ġhold": 9313,
      "Keep": 9314,
      "activate": 9315,
      "68": 9316,
      "bon": 9317,
      "mongo": 9318,
      "vailable": 9319,
      "Cmd": 9320,
      "GRO": 9321,
      "Non": 9322,
      "Ġsink": 9323,
      "']=": 9324,
      "ĠShow": 9325,
      "ĠHelper": 9326,
      "Ġfc": 9327,
      "LEV": 9328,
      "ĠOptionParser": 9329,
      "ĠASC": 9330,
      "ĠEng": 9331,
      "Ġrenderer": 9332,
      "Ġorientation": 9333,
      "Ġappended": 9334,
      "Ġclosing": 9335,
      "azard": 9336,
      "Fetch": 9337,
      "fm": 9338,
      "umor": 9339,
      "tls": 9340,
      "lide": 9341,
      "Ġroutine": 9342,
      "sci": 9343,
[...]
