{"<pad>":0,"<bos>":1,"<eos>":2,"<unk>":3,"!":4,"\"":5,"#":6,"$":7,"%":8,"&":9,"'":10,"(":11,")":12,"*":13,"+":14,",":15,"-":16,".":17,"/":18,"0":19,"1":20,"2":21,"3":22,"4":23,"5":24,"6":25,"7":26,"8":27,"9":28,":":29,";":30,"<":31,"=":32,">":33,"?":34,"@":35,"A":36,"B":37,"C":38,"D":39,"E":40,"F":41,"G":42,"H":43,"I":44,"J":45,"K":46,"L":47,"M":48,"N":49,"O":50,"P":51,"Q":52,"R":53,"S":54,"T":55,"U":56,"V":57,"W":58,"X":59,"Y":60,"Z":61,"[":62,"\\":63,"]":64,"^":65,"_":66,"`":67,"a":68,"b":69,"c":70,"d":71,"e":72,"f":73,"g":74,"h":75,"i":76,"j":77,"k":78,"l":79,"m":80,"n":81,"o":82,"p":83,"q":84,"r":85,"s":86,"t":87,"u":88,"v":89,"w":90,"x":91,"y":92,"z":93,"{":94,"|":95,"}":96,"~":97,"¡":98,"¢":99,"£":100,"¤":101,"¥":102,"¦":103,"§":104,"¨":105,"©":106,"ª":107,"«":108,"¬":109,"®":110,"¯":111,"°":112,"±":113,"²":114,"³":115,"´":116,"µ":117,"¶":118,"·":119,"¸":120,"¹":121,"º":122,"»":123,"¼":124,"½":125,"¾":126,"¿":127,"À":128,"Á":129,"Â":130,"Ã":131,"Ä":132,"Å":133,"Æ":134,"Ç":135,"È":136,"É":137,"Ê":138,"Ë":139,"Ì":140,"Í":141,"Î":142,"Ï":143,"Ð":144,"Ñ":145,"Ò":146,"Ó":147,"Ô":148,"Õ":149,"Ö":150,"×":151,"Ø":152,"Ù":153,"Ú":154,"Û":155,"Ü":156,"Ý":157,"Þ":158,"ß":159,"à":160,"á":161,"â":162,"ã":163,"ä":164,"å":165,"æ":166,"ç":167,"è":168,"é":169,"ê":170,"ë":171,"ì":172,"í":173,"î":174,"ï":175,"ð":176,"ñ":177,"ò":178,"ó":179,"ô":180,"õ":181,"ö":182,"÷":183,"ø":184,"ù":185,"ú":186,"û":187,"ü":188,"ý":189,"þ":190,"ÿ":191,"Ā":192,"ā":193,"Ă":194,"ă":195,"Ą":196,"ą":197,"Ć":198,"ć":199,"Ĉ":200,"ĉ":201,"Ċ":202,"ċ":203,"Č":204,"č":205,"Ď":206,"ď":207,"Đ":208,"đ":209,"Ē":210,"ē":211,"Ĕ":212,"ĕ":213,"Ė":214,"ė":215,"Ę":216,"ę":217,"Ě":218,"ě":219,"Ĝ":220,"ĝ":221,"Ğ":222,"ğ":223,"Ġ":224,"ġ":225,"Ģ":226,"ģ":227,"Ĥ":228,"ĥ":229,"Ħ":230,"ħ":231,"Ĩ":232,"ĩ":233,"Ī":234,"ī":235,"Ĭ":236,"ĭ":237,"Į":238,"į":239,"İ":240,"ı":241,"Ĳ":242,"ĳ":243,"Ĵ":244,"ĵ":245,"Ķ":246,"ķ":247,"ĸ":248,"Ĺ":249,"ĺ":250,"Ļ":251,"ļ":252,"Ľ":253,"ľ":254,"Ŀ":255,"ŀ":256,"Ł":257,"ł":258,"Ń":259,"ĠĠ":260,"ĠĠĠĠ":261,"ĠĠĠ":262,"ĊĠĠĠĠ":263,"in":264,"se":265,"ĠĠĠĠĠĠĠĠ":266,"re":267,"ĊĠĠĠĠĠĠĠ":268,"on":269,"at":270,"Ġt":271,"or":272,"er":273,"st":274,"Ġ=":275,"ĠĠĠĠĠĠĠ":276,"en":277,"Ġi":278,"Ġa":279,"ĊĠĠĠ":280,"de":281,"ar":282,"al":283,"\"\"":284,"ĊĠĠĠĠĠĠĠĠĠĠĠ":285,"le":286,"me":287,"he":288,"Ġf":289,"Ġc":290,"ĊĠĠĠĠĠĠĠĠĠĠĠĠ":291,"lf":292,"self":293,"Ġre":294,"ion":295,"ur":296,"Ġn":297,"Ġp":298,"it":299,"Ġin":300,"an":301,"ct":302,"ce":303,"Ġif":304,"Ġs":305,"Ġo":306,"ge":307,"Ġthe":308,"ro":309,"Ġself":310,"Ġe":311,"ame":312,"Ġ'":313,"ue":314,"ut":315,"lo":316,"\"\"\"":317,"ing":318,"):":319,"Ġd":320,"pe":321,"urn":322,"Ġb":323,"turn":324,"ent":325,"li":326,"ot":327,"Ġ\"\"\"":328,"ate":329,"fi":330,"ĊĠĠĠĠĠĠĠĠĠĠĠĠĠĠĠ":331,"Ġw":332,"Ġm":333,"un":334,"ss":335,"ra":336,"Ġ#":337,"id":338,"Ġfor":339,"co":340,"Ġis":341,"Ġreturn":342,"--":343,"Ġto":344,"def":345,"mp":346,"val":347,"one":348,"ad":349,"ed":350,"la":351,"Ġan":352,"ĊĊĠĠĠĠĠĠĠ":353,"ul":354,"Ġ(":355,"()":356,"get":357,"ata":358,"ch":359,"pt":360,"ype":361,"name":362,"Ġst":363,"ri":364,"ke":365,"None":366,"um":367,"Ġof":368,"is":369,"ĊĊĠĠĠ":370,"._":371,"il":372,"Ġnot":373,"Ġ:":374,"ter":375,"es":376,"ck":377,"ĊĠĠĠĠĠĠĠĠĠĠĠĠĠĠĠĠĠĠĠĠ":378,"di":379,"ex":380,"gs":381,"Ġ\"":382,"el":383,"',":384,"ma":385,"ath":386,"ol":387,"up":388,"Ġand":389,"ĠT":390,"))":391,"ation":392,"am":393,"('":394,"th":395,"value":396,"Ġl":397,"ver":398,"Ġse":399,"as":400,"par":401,"ode":402,"['":403,"Ġcon":404,"']":405,"ult":406,"ction":407,"con":408,"ĠNone":409,"ror":410,"Ġex":411,"key":412,"type":413,"ve":414,"Ġh":415,"Ġth":416,"ser":417,"list":418,"ĊĠĠĠĠĠĠĠĠĠĠĠĠĠĠĠĠĠĠĠ":419,"Ġ1":420,"Ġor":421,"Ġ+":422,"end":423,"ble":424,"orm":425,"ime":426,"')":427,"ta":428,"Ġbe":429,"Ġ==":430,"Ġfi":431,"Ġ[":432,"sp":433,"Ġg":434,"int":435,"Ġ_":436,"args":437,"pp":438,"ith":439,"path":440,"ext":441,"iz":442,"bj":443,"ect":444,"od":445,"Ġ0":446,"ig":447,"and":448,"Ġ*":449,"to":450,"Ġco":451,"':":452,"----":453,"Ġu":454,"Ġel":455,"ance":456,"ment":457,"Ġ-":458,"ort":459,"Ġelse":460,"qu":461,"(\"":462,"ption":463,"set":464,"Ġ{":465,"Ġlo":466,"te":467,"Ġde":468,"ise":469,"form":470,"Re":471,"age":472,"Ġr":473,"Ġdi":474,"file":475,"po":476,"str":477,"ĠA":478,"data":479,"param":480,"rror":481,"Error":482,"ĠI":483,"Ġ%":484,"tr":485,"vi":486,"rom":487,"ĠĠĠĠĠĠĠĠĠĠĠĠĠĠĠĠ":488,"Ġdata":489,"Ġstr":490,"Ġas":491,"ren":492,"stance":493,"Ġme":494,"Ġvalue":495,"all":496,"put":497,"et":498,"ĠS":499,"Ġra":500,"res":501,"ine":502,"art":503,"ĠC":504,"Ġname":505,"ub":506,"ord":507,"Ġar":508,"que":509,"ase":510,"rue":511,"Ġ`":512,"ite":513,"ize":514,"Ġpro":515,"Ġwith":516,"ĠF":517,"che":518,"Ġal":519,"able":520,"per":521,"),":522,"ew":523,"Ġres":524,"kw":525,"ic":526,"\",":527,"Ġv":528,"ist":529,"Ġma":530,"ry":531,"us":532,"Ġraise":533,"Ġlen":534,"out":535,"fo":536,"fig":537,"ly":538,"ack":539,"ow":540,"alse":541,"Ġ>":542,"Ġfile":543,"pro":544,"bject":545,"ĠP":546,"time":547,"ers":548,"Ġlist":549,"Ġpar":550,"eld":551,"ms":552,"kwargs":553,"\")":554,"ci":555,"format":556,"app":557,"red":558,"])":559,"Ġfrom":560,"ha":561,"Ġdef":562,"dex":563,"our":564,"quest":565,"Ġx":566,"mple":567,"Ġkey":568,"ht":569,"Ġy":570,"ault":571,"instance":572,"ure":573,"ff":574,"rent":575,"sion":576,"ange":577,"len":578,"date":579,"],":580,"ind":581,"Ġon":582,"lass":583,"code":584,"Ġ2":585,"ĠRe":586,"''":587,"Ġget":588,"ĠD":589,"ĠE":590,"ray":591,"ĊĠĠĠĠĠĠĠĠĠĠĠĠĠĠĠĠĠĠĠĠĠĠĠ":592,"unt":593,"ource":594,"00":595,"Ġch":596,"text":597,"tri":598,"atch":599,"url":600,"ĠThe":601,"Ġwh":602,"sc":603,"Ġout":604,"und":605,"ust":606,"ĊĠĠĠĠĠ":607,"Ġlog":608,"pre":609,"..":610,"__":611,"jo":612,"os":613,"Ġnp":614,"add":615,"col":616,"mm":617,"Ġset":618,"ip":619,"cess":620,"ile":621,"error":622,"op":623,"Ġisinstance":624,"Ġ<":625,"odel":626,"Ġthat":627,"Ġthis":628,"oc":629,"lif":630,"ger":631,"sed":632,"Ġat":633,"append":634,"cept":635,"bu":636,"ity":637,"iv":638,"Ġtry":639,"thod":640,"pa":641,"im":642,"Ġpa":643,"='":644,"Ġen":645,"ĠĠĠĠĠ":646,"ctor":647,"ĠN":648,"Ġit":649,").":650,"Ġresult":651,"Ġelif":652,"ĠV":653,"ition":654,"low":655,"ho":656,"py":657,"Ġby":658,"cl":659,"ĠTrue":660,"mb":661,"read":662,"ive":663,"ill":664,"mo":665,"Ġ**":666,"ĊĠĠĠĠĠĠĠĠĠĠĠĠĠĠĠĠĠĠĠĠĠĠĠĠĠĠĠĠ":667,"pi":668,"dict":669,"dd":670,"roup":671,"ces":672,"Ġ{}":673,"reate":674,"Ġhe":675,"info":676,"ĊĊĠĠĠĠĠĠĠĠĠĠĠ":677,"Ġtime":678,"Ġcol":679,"ute":680,"Ġtype":681,"unction":682,"onse":683,"Ġro":684,"ument":685,"ameter":686,"Ġla":687,"valid":688,"der":689,"ĠM":690,"log":691,"ĊĠ":692,"ule":693,"dir":694,"Ġwe":695,"om":696,"ssage":697,"umb":698,"Ġnew":699,"Ġ'''":700,"ary":701,"return":702,"Ġare":703,"Ġpath":704,"bo":705,"size":706,"version":707,"hape":708,"ans":709,"ign":710,"Ġobject":711,"lit":712,"Ġpre":713,"Ġexcept":714,"``":715,"ĊĠĠĠĠĠĠĠĠĠĠĠĠĠĠĠĠĠĠĠĠĠĠĠĠĠĠĠĠĠĠĠĠĠĠĠĠ":716,"ps":717,"==":718,"ĠFalse":719,"ssion":720,"ator":721,"Ġos":722,"port":723,"vent":724,"ample":725,"rint":726,"ild":727,"Ġint":728,"alue":729,"Ġun":730,"ded":731,"ca":732,"sponse":733,"ari":734,"ĠL":735,"ĠReturn":736,"Ġstring":737,"Ġ``":738,"ork":739,"ys":740,"Ġ[]":741,"ĠR":742,"attr":743,"bel":744,"In":745,"class":746,"Ġall":747,"config":748,"Ċĉ":749,"umber":750,"ken":751,"Ġk":752,"min":753,"'.":754,"lement":755,"cal":756,"True":757,"ery":758,"ĠIf":759,"ception":760,"\":":761,"load":762,"index":763,"peci":764,"[\"":765,"():":766,"ant":767,"Ġ)":768,".\"\"\"":769,"pla":770,"ĠO":771,"start":772,"##":773,"fe":774,"fa":775,"Ġcont":776,"ph":777,"ave":778,"lock":779,"string":780,"ore":781,"Ġhas":782,"mage":783,".__":784,"ĠG":785,"!=":786,"update":787,"join":788,"Ġcur":789,"heck":790,"ĠĠĠĠĠĠ":791,"line":792,"cur":793,"unc":794,"Ġwill":795,"son":796,"Ġrequest":797,"Ġ!=":798,"cation":799,"ns":800,"ne":801,"--------":802,"ated":803,"ĠU":804,"loat":805,"Ġline":806,"tain":807,"].":808,"ER":809,"array":810,"mat":811,"Ġj":812,"Ġdefault":813,"Ġid":814,"vice":815,"query":816,"gument":817,"Ġdo":818,"arget":819,"Ġpo":820,"ial":821,"False":822,"node":823,"ĠW":824,"tra":825,"count":826,"split":827,"Ġdict":828,"gth":829,"ag":830,"Ġfil":831,"Ġ+=":832,"ener":833,"ste":834,"mmand":835,"Ġfunction":836,"ĠB":837,"Ġmethod":838,"ĠValue":839,"if":840,"lin":841,"atus":842,"Ġnode":843,"Ġbo":844,"trib":845,"max":846,"sen":847,"lient":848,"Ġuser":849,"ĠReturns":850,"Ġ/":851,"sh":852,"ies":853,"\"]":854,"ON":855,"ok":856,"Ġadd":857,"rite":858,"mport":859,"ann":860,"Ġconfig":861,"ask":862,"sert":863,"Ġle":864,"Ġ>>":865,"ĠValueError":866,"ting":867,"base":868,"Ġsub":869,"lot":870,"Ġoption":871,"obj":872,"ight":873,"ir":874,"uld":875,"ty":876,"ameters":877,"odule":878,"word":879,"ard":880,"uth":881,"ther":882,"Ġprint":883,"scri":884,"back":885,"fix":886,"Ġte":887,"da":888,"Ġspeci":889,"ll":890,"Ġkwargs":891,"Con":892,"yn":893,"Ġmax":894,"Ġoutput":895,"Ġfield":896,"ress":897,"Ġ>>>":898,"Ġcomp":899,"shape":900,"Ġne":901,"by":902,"Ġuse":903,"bug":904,"Ġ\\":905,":`":906,"field":907,"Ġargs":908,"IN":909,"\".":910,"pos":911,"user":912,"ifi":913,"state":914,"group":915,"ader":916,"Ġ3":917,"ĠĠĠĠĠĠĠĠĠĠĠ":918,"iven":919,"Ġstart":920,"([":921,"ab":922,"uple":923,"mpl":924,"Ġite":925,"**":926,"rame":927,"ml":928,"gra":929,"ree":930,"Ġerror":931,"point":932,"map":933,"=\"":934,"mit":935,"his":936,"own":937,"vert":938,"qui":939,"ec":940,"Ġresponse":941,"cord":942,"ump":943,"Ġvalues":944,"{}":945,"AT":946,"vel":947,"arch":948,"ĊĠĠĠĠĠĠĠĠĠĠĠĠĠĠĠĠĠĠĠĠĠĠĠĠĠĠĠ":949,"sub":950,"ĠH":951,"Ġrange":952,"rst":953,"ac":954,"lic":955,"md":956,"Ġno":957,"Ġapp":958,"values":959,"RE":960,"Ġcan":961,"wa":962,"ket":963,"Ġz":964,"request":965,"model":966,"Ġindex":967,"Ġinput":968,"[:":969,"Ġcheck":970,"Ġso":971,"ls":972,"result":973,"())":974,"ning":975,"ang":976,"ST":977,"ug":978,"Ġli":979,"Ex":980,"ĠEx":981,"params":982,"work":983,"Ġgiven":984,"Ġparam":985,"comp":986,"ten":987,"iter":988,"from":989,"Ġret":990,"act":991,"Ġmodel":992,"items":993,"Ġcall":994,"ory":995,"ĠThis":996,"with":997,"its":998,"ep":999,"default":1000,"stri":1001,"ull":1002,"place":1003,"tern":1004,"ĠIn":1005,"we":1006,"ude":1007,"uct":1008,"Ġend":1009,"debug":1010,"ound":1011,"Ġcurrent":1012,"Ġtr":1013,"Ġimport":1014,"ates":1015,"lat":1016,"cs":1017,"Ġmust":1018,"Ġax":1019,"Ġmessage":1020,"ations":1021,"ariable":1022,"spa":1023,"Ġnumber":1024,"Ġop":1025,"ils":1026,"ds":1027,"ich":1028,"ax":1029,"Ġac":1030,"Ġinstance":1031,"pect":1032,"ach":1033,"ses":1034,"row":1035,"object":1036,"np":1037,"Ġbase":1038,"'):":1039,"for":1040,"ding":1041,"Ġ..":1042,"tent":1043,"Ġurl":1044,"ron":1045,"ĊĠĠĠĠĠĠĠĠĠ":1046,"label":1047,"Ġone":1048,"ject":1049,"Ġ|":1050,"num":1051,"Ġspecifi":1052,"move":1053,"option":1054,"ts":1055,"tp":1056,"Ġfa":1057,"Ġcontain":1058,"func":1059,"Ġser":1060,"ctory":1061,"'s":1062,"Ġper":1063,"inter":1064,"quen":1065,"Ġarray":1066,"Ġfloat":1067,"arg":1068,"ote":1069,"bs":1070,"hould":1071,"ream":1072,"Ġcreate":1073,"keys":1074,"tes":1075,"Ġca":1076,"write":1077,"Ġtext":1078,"call":1079,"Type":1080,"Ġmin":1081,"sing":1082,"Ġbu":1083,"reg":1084,"'t":1085,"com":1086,"umn":1087,"Ġpass":1088,"ature":1089,"Ġwhich":1090,"andle":1091,"Ġsup":1092,"be":1093,"json":1094,"lay":1095,"Ġformat":1096,"Ġused":1097,"filen":1098,"Ġversion":1099,"Ġdire":1100,"Ġonly":1101,"space":1102,"Ġhave":1103,"Ġitem":1104,"][":1105,"ield":1106,"Ġvalid":1107,"Ġent":1108,"ix":1109,"01":1110,"LE":1111,"sor":1112,"idth":1113,"ak":1114,"((":1115,"Ġmatch":1116,"Ġcal":1117,"ost":1118,"Ġdis":1119,"names":1120,"fil":1121,"run":1122,"ctions":1123,"ref":1124,"og":1125,"df":1126,"filename":1127,"ename":1128,"Ġrun":1129,"Ġlogger":1130,"Ġargument":1131,"Ġcode":1132,"Ġlin":1133,"Ġstate":1134,"Ġreg":1135,"Ġsu":1136,"Ġshould":1137,"alt":1138,"Ċĉĉ":1139,"Ġrow":1140,"Ġsh":1141,"gn":1142,"ID":1143,"aders":1144,"Ġassert":1145,"ou":1146,"parse":1147,"ally":1148,"OR":1149,"Ġevent":1150,"output":1151,"Ġparams":1152,"token":1153,"input":1154,"Name":1155,"Ġexist":1156,"status":1157,"====":1158,"not":1159,"ft":1160,"Ġpy":1161,"Ġtarget":1162,"ME":1163,"Ke":1164,"Ġmat":1165,"Ġquery":1166,"Ġ}":1167,"andl":1168,"tribute":1169,"lob":1170,"mplate":1171,"new":1172,"nd":1173,"'],":1174,"Ġinter":1175,"sum":1176,"Ġnum":1177,"message":1178,"Ġimage":1179,"Ġdate":1180,"Ġpos":1181,"Ġother":1182,"().":1183,"thon":1184,"ments":1185,"//":1186,"Ġpart":1187,"####":1188,"check":1189,"types":1190,"item":1191,"method":1192,"adata":1193,"Ġany":1194,"led":1195,"Ġsource":1196,"ef":1197,"lect":1198,"Ġfirst":1199,"rid":1200,"ins":1201,"Ġread":1202,"pts":1203,"Ġ4":1204,"Ġtuple":1205,"Ġsize":1206,"table":1207,"feren":1208,"St":1209,"Ġ@":1210,"ution":1211,"rc":1212,"sk":1213,"Ġgroup":1214,"lib":1215,"lable":1216,"Ġup":1217,"Ġeach":1218,"itle":1219,"annel":1220,"sg":1221,"view":1222,"'])":1223,"nection":1224,"clude":1225,"DE":1226,"filter":1227,"var":1228,"ched":1229,"Ġfilename":1230,"Ġclass":1231,"so":1232,"block":1233,"source":1234,"here":1235,"Key":1236,"Ġtoken":1237,"Ġtrans":1238,"Ġelement":1239,"arning":1240,"ual":1241,"Ġcontin":1242,"Co":1243,"ght":1244,"api":1245,"Ġopen":1246,"main":1247,"Ġcommand":1248,"length":1249,"sy":1250,"unk":1251,"pec":1252,"ide":1253,"Ġsp":1254,"Ġwhile":1255,"try":1256,"ĠPar":1257,"Ġtra":1258,"Ġobj":1259,"net":1260,"Ġ{'":1261,"old":1262,"ĠAr":1263,"://":1264,"av":1265,"(),":1266,")))":1267,"rix":1268,"use":1269,"inal":1270,"]:":1271,"Ġlabel":1272,"pop":1273,"tadata":1274,"doc":1275,"Ġover":1276,"Ġbool":1277,"ical":1278,"match":1279,"off":1280,"module":1281,"has":1282,"Ġ--------":1283,"Ġcontent":1284,"ody":1285,"uration":1286,"Ġwhen":1287,"no":1288,"Ġspecified":1289,"Ġ__":1290,"event":1291,"content":1292,"ids":1293,"ĠX":1294,"Ġfound":1295,"ĊĊĠĠĠĠĠĠĠĠĠĠĠĠĠĠĠ":1296,"Ġcontinue":1297,"tings":1298,"Data":1299,"ĠCon":1300,"host":1301,"oth":1302,"Ġinto":1303,"client":1304,"process":1305,"AR":1306,"[-":1307,"umpy":1308,"mi":1309,"utes":1310,"SE":1311,"ong":1312,"amp":1313,"scription":1314,"AL":1315,"Ġupdate":1316,"orre":1317,"(*":1318,"job":1319,"create":1320,"response":1321,"msg":1322,"raw":1323,"image":1324,"err":1325,"itial":1326,"Par":1327,"rtype":1328,"Ġpl":1329,"plot":1330,"ted":1331,"do":1332,"Ġpoint":1333,"umns":1334,"lete":1335,"ackage":1336,"Ġfiles":1337,"amples":1338,"idx":1339,"Ġ->":1340,"action":1341,"face":1342,"ark":1343,"find":1344,"ures":1345,"ast":1346,"files":1347,"target":1348,"Ġdoc":1349,"mt":1350,"ging":1351,"AN":1352,"Ġtable":1353,"ped":1354,"stem":1355,"andler":1356,"Ġmsg":1357,"Return":1358,"ries":1359,"nect":1360,"cre":1361,"ctionary":1362,"čĊĠĠĠĠĠĠĠ":1363,"ors":1364,"swith":1365,"onent":1366,")):":1367,"ume":1368,"ay":1369,"dis":1370,"Pro":1371,"cent":1372,"db":1373,"PI":1374,"ormal":1375,"Ġval":1376,"ai":1377,"andom":1378,"trans":1379,"clo":1380,"mbda":1381,"float":1382,"cy":1383,"lean":1384,"Ġgener":1385,"Ġcls":1386,"utils":1387,"Id":1388,"Ġlength":1389,"Ġht":1390,"Ġiter":1391,"Ġsy":1392,"ference":1393,"mpty":1394,"core":1395,"pr":1396,"men":1397,"Ġdoes":1398,"ous":1399,"tag":1400,"Ġcontext":1401,"Ġfilter":1402,"dire":1403,"ats":1404,"::":1405,"ized":1406,"context":1407,"Ġbut":1408,"10":1409,"replace":1410,"Ġmodule":1411,")]":1412,"auth":1413,"strip":1414,"Ġvariable":1415,"indow":1416,"lection":1417,"Ġparent":1418,"otal":1419,"range":1420,"chema":1421,"quence":1422,"Ġ['":1423,"Ġsort":1424,"tx":1425,"ches":1426,"cls":1427,"pri":1428,"Ġwork":1429,"level":1430,"Ġsign":1431,"lp":1432,"cket":1433,"command":1434,"ld":1435,"Ġrequi":1436,"TE":1437,"Ġjson":1438,"pping":1439,"rial":1440,"of":1441,"Ġgra":1442,"Ġta":1443,"Ġsys":1444,"link":1445,"Se":1446,"ible":1447,"Ġarg":1448,"Ġtf":1449,"lines":1450,"ap":1451,"Ġthen":1452,"Ġusing":1453,"root":1454,"Res":1455,"Ġcount":1456,"ĠJ":1457,"lower":1458,"Ġmo":1459,"Ġver":1460,"io":1461,"Ġresults":1462,"Ġ.":1463,"ĊĠĠĠĠĠĠĠĠĠĠĠĠĠĠĠĠĠĠĠĠĠĠĠĠĠĠĠĠĠĠĠ":1464,"Ġass":1465,"Ġblock":1466,"pl":1467,"Ġfe":1468,"Ġoff":1469,"Ġyield":1470,"Ġ>=":1471,"Ġlast":1472,"sent":1473,"options":1474,"sign":1475,"reak":1476,"cul":1477,"ick":1478,"Get":1479,"Ġoptions":1480,"Ġhasattr":1481,"right":1482,"TI":1483,"session":1484,"Ġ<=":1485,"su":1486,"Ġclient":1487,"resh":1488,"coding":1489,"Ġq":1490,"Ġdefin":1491,"Ġ('":1492,"ĠQ":1493,"Ġmake":1494,"part":1495,"'))":1496,"File":1497,"ĠException":1498,"---":1499,"cond":1500,"copy":1501,"Ġoptional":1502,"Element":1503,"iled":1504,"PE":1505,"width":1506,"fore":1507,"loc":1508,"ready":1509,"number":1510,"current":1511,"Ġdictionary":1512,"ify":1513,"mode":1514,"ved":1515,"Ġfunc":1516,"Ġsc":1517,"igh":1518,"queue":1519,"Ġwas":1520,"Ġrecord":1521,"viron":1522,"rt":1523,"64":1524,"32":1525,"ĠSe":1526,"Ġpri":1527,"Ġresource":1528,"play":1529,"Ġreturns":1530,"ĠType":1531,"Ġ----":1532,"Ġparameters":1533,"Ġqu":1534,"attern":1535,"ccess":1536,"Ġchar":1537,"ffer":1538,"Ġprocess":1539,"`.":1540,"pend":1541,"iss":1542,"Ġmode":1543,"Ġhost":1544,"Ġuni":1545,"Ġ5":1546,"cache":1547,"function":1548,"Ġact":1549,"ud":1550,"ync":1551,"ran":1552,"prefix":1553,"Ġneed":1554,"parent":1555,"Ġorder":1556,"Ġextra":1557,"Ġ--":1558,"Ġav":1559,"Ġstatus":1560,"temp":1561,"frame":1562,"Ġaxis":1563,"ating":1564,"ĠY":1565,"gen":1566,"man":1567,"Ġcase":1568,"ĠArgs":1569,"ifier":1570,"Ġback":1571,"Ġarguments":1572,"color":1573,"cmd":1574,"ĠParameters":1575,"Set":1576,"Ġ...":1577,"fields":1578,"req":1579,"Ġauth":1580,"stamp":1581,"Ġparameter":1582,"Ġnames":1583,"Ġenum":1584,"order":1585,"axis":1586,"Ġoper":1587,"Ġcorre":1588,"Ġnext":1589,"Ġchange":1590,"ateg":1591,"ĊĠĠĠĠĠĠĠĠĠĠ":1592,"Ġsame":1593,"Ġcolumn":1594,"exist":1595,"Ġprovi":1596,"Ġparser":1597,"Ġtask":1598,"fter":1599,"annot":1600,"Ġdtype":1601,"AC":1602,"uri":1603,"Ġtag":1604,"Ġshape":1605,"Ġheader":1606,"last":1607,"child":1608,"Ġ'.":1609,"Ġgetattr":1610,"Ġchild":1611,"List":1612,"xy":1613,"Ar":1614,"resource":1615,"zer":1616,"search":1617,"Ġed":1618,"are":1619,"rit":1620,"Ġad":1621,"lobal":1622,"EN":1623,"imum":1624,"ols":1625,"Ġdirectory":1626,"ert":1627,"store":1628,"Ġyou":1629,"Ġmult":1630,"Ġnet":1631,"cor":1632,"Ġnumpy":1633,"limit":1634,"comm":1635,"Ġindi":1636,"header":1637,"ĠCo":1638,"formation":1639,"change":1640,"Ġproper":1641,"De":1642,"']:":1643,"'].":1644,"Ġlocal":1645,"ib":1646,"itions":1647,"Ġaction":1648,"ome":1649,"vid":1650,"})":1651,"(_":1652,"ain":1653,"ative":1654,".')":1655,"Ġserver":1656,"SI":1657,"Ġkeys":1658,"tributes":1659,"Ġ----------":1660,"pper":1661,"pth":1662,"OD":1663,"element":1664,"Ġbreak":1665,"address":1666,"older":1667,"FI":1668,"open":1669,"rap":1670,"erate":1671,"les":1672,"Ġtimeout":1673,"Ġdf":1674,"Ġfind":1675,"lta":1676,"Ġcolor":1677,"Un":1678,"Exception":1679,".\")":1680,"Ġport":1681,"Ġplot":1682,"'),":1683,"RL":1684,"local":1685,"Ġdiff":1686,"ĠĠĠĠĠĠĠĠĠĠĠĠĠĠĠ":1687,"Ġattr":1688,"http":1689,"uid":1690,"To":1691,"ner":1692,"wise":1693,"Ġalready":1694,"offset":1695,"Ġparse":1696,"LO":1697,"Ġcmd":1698,"12":1699,"vis":1700,"print":1701,"startswith":1702,"Ġroot":1703,"Di":1704,"ĊĊĠ":1705,"task":1706,"Me":1707,"graph":1708,"ĠGet":1709,"ĊĠĠĠĠĠĠĠĠĠĠĠĠĠĠĠĠĠĠĠĠĠĠĠĠĠĠĠĠĠĠĠĠĠĠĠĠĠĠĠĠĠĠĠĠĠĠĠĠĠĠĠĠ":1710,"raise":1711,"Ġload":1712,"ization":1713,"ell":1714,"Ġsession":1715,"Ġinfo":1716,"stream":1717,"Ġthan":1718,"server":1719,"Ġpage":1720,"Ġ\"\"":1721,"ailable":1722,"ĊĠĠĠĠĠĠĠĠĠĠĠĠĠ":1723,":]":1724,"Ġorig":1725,"GE":1726,"Ġfla":1727,"Ġallow":1728,"top":1729,"ster":1730,"fn":1731,"exec":1732,"uto":1733,"env":1734,"pected":1735,"ister":1736,"ingle":1737,"argument":1738,"ĠTypeError":1739,"Ġwhere":1740,"na":1741,"TP":1742,"vector":1743,"yload":1744,"dim":1745,"Value":1746,"Ġheaders":1747,"RO":1748,"lease":1749,"struct":1750,"scal":1751,"Ġoffset":1752,"Ġ'%":1753,"wait":1754,"mension":1755,"Ġreturned":1756,"En":1757,"Ġref":1758,"ties":1759,"Ġword":1760,"ustom":1761,"]]":1762,"du":1763,"exp":1764,"Ġlay":1765,"lication":1766,"char":1767,"Ġinte":1768,"den":1769,"title":1770,"script":1771,"cope":1772,"mask":1773,"Ġsupport":1774,"conds":1775,"Ġenumerate":1776,"Ġsalt":1777,"ager":1778,"pass":1779,"Ġthere":1780,"record":1781,"util":1782,"pha":1783,"ocket":1784,"cli":1785,"Ġfields":1786,"page":1787,"Ġident":1788,"atures":1789,"Ġexception":1790,"returns":1791,"uni":1792,"Ġbytes":1793,"init":1794,"Ġlines":1795,"Ġentry":1796,"uster":1797,"']['":1798,"Ġtest":1799,"bytes":1800,"Ġrepre":1801,"Ġmore":1802,")[":1803,"ĠID":1804,"tree":1805,"},":1806,"mplement":1807,"Ġlevel":1808,"Ġ-------":1809,"dtype":1810,"Ġag":1811,"mary":1812,"Ġlogging":1813,"ĠAn":1814,"mail":1815,"ternal":1816,"\"):":1817,"Ġdest":1818,"Ġnon":1819,"Ġ&":1820,"handle":1821,"tps":1822,"yle":1823,"Ġservice":1824,"hash":1825,"Ġsingle":1826,"mote":1827,"Ġdatetime":1828,"Ġtemp":1829,"encode":1830,"las":1831,"exists":1832,"Ġprefix":1833,"efault":1834,"[:,":1835,"Ġcache":1836,"ose":1837,"SS":1838,"ĠKey":1839,"Ġscal":1840,"points":1841,"mag":1842,"Ġjob":1843,"Ġtemplate":1844,"Ġlimit":1845,"test":1846,"Ġtw":1847,"erge":1848,"exception":1849,"project":1850,"mission":1851,"ĊĠĠĠĠĠĠĠĠĠĠĠĠĠĠĠĠĠĠĠĠĠĠĠĠĠĠĠĠĠĠĠĠĠĠĠĠĠĠĠĠĠĠĠĠ":1852,"Ġman":1853,"contain":1854,"Ġsearch":1855,"Ġsum":1856,"headers":1857,"Ġstream":1858,"mon":1859,"gram":1860,"ĊĠĠĠĠĠĠĠĠĠĠĠĠĠĠĠĠ":1861,"Ġexec":1862,"flow":1863,"std":1864,"Ġconvert":1865,"like":1866,"]))":1867,"round":1868,"Ġexp":1869,"gment":1870,"Ġform":1871,"Ġpas":1872,"Sub":1873,"cat":1874,"sort":1875,"CO":1876,"ĠWe":1877,"Ġcl":1878,"Ġ''":1879,"Ġbet":1880,"remove":1881,"Frame":1882,"Ser":1883,"ice":1884,"Ġobjects":1885,"metadata":1886,"ear":1887,"Ġmay":1888,"bin":1889,"datetime":1890,"gener":1891,"Ġhelp":1892,"send":1893,"box":1894,"ont":1895,"UL":1896,"nodes":1897,"Ġprovided":1898,"rapper":1899,"Ġproject":1900,"ĠET":1901,"term":1902,"({":1903,"stack":1904,"sq":1905,"Ġhandle":1906,"bro":1907,"########":1908,"parser":1909,"ident":1910,"ities":1911,"bose":1912,"Ġattribute":1913,"location":1914,"channel":1915,"Ġsome":1916,"Ġitems":1917,"000":1918,"MA":1919,"Ġcopy":1920,"build":1921,"...":1922,"Ġcoord":1923,"the":1924,"stant":1925,"Ġcallback":1926,"nown":1927,"qual":1928,"ML":1929,"html":1930,"Ġab":1931,"ĠPy":1932,"fla":1933,"Ġvar":1934,"ights":1935,"ĠFor":1936,"ween":1937,"Ċĉĉĉ":1938,"Ġph":1939,"Ġold":1940,"========":1941,"service":1942,"fy":1943,"LI":1944,"variable":1945,"AD":1946,"Ġsen":1947,"logger":1948,"99":1949,"Ġvi":1950,"ass":1951,"spec":1952,"timeout":1953,"}'.":1954,"Ġign":1955,"tuple":1956,"gr":1957,"Ġ6":1958,"lambda":1959,"Ġremove":1960,"connect":1961,"ĠSet":1962,"Ġinformation":1963,"template":1964,"Ġinclude":1965,"utf":1966,"tric":1967,"Ġmap":1968,"UT":1969,"ĊĠĠĠĠĠĠ":1970,"arn":1971,"close":1972,"idget":1973,"post":1974,"Str":1975,"verse":1976,"Ġerrors":1977,"Ġ10":1978,"ential":1979,"mod":1980,"orage":1981,"ĠDe":1982,"Ġsorted":1983,"Ġpassed":1984,"Ġempty":1985,"ugh":1986,"atic":1987,"Ġsample":1988,"wer":1989,"Ġstruct":1990,"iod":1991,"Ġframe":1992,"stra":1993,"Ġrequired":1994,"Ġtop":1995,"ility":1996,"ING":1997,"Ġinitial":1998,"lation":1999,"Ġwrite":2000,"ĊĠĠĠĠĠĠĠĠ":2001,"TY":2002,"bit":2003,"Ġmatrix":2004,"čĊĠĠĠĠĠĠĠĠĠĠĠ":2005,"callback":2006,"ĊĠĠĠĠĠĠĠĠĠĠĠĠĠĠĠĠĠ":2007,"settings":2008,"column":2009,"Ġerr":2010,"ux":2011,"Ġlink":2012,"25":2013,"ĠData":2014,"rs":2015,"pression":2016,"pol":2017,"hether":2018,"Ġlocation":2019,"Ġaddress":2020,"Ġits":2021,"Ġbody":2022,"RI":2023,"Ġter":2024,"xml":2025,"Ġpackage":2026,"ĊĠĠĠĠĠĠĠĠĠĠĠĠĠĠĠĠĠĠĠĠĠ":2027,"Ġfull":2028,"opts":2029,"itor":2030,"decode":2031,"pk":2032,"ĊĠĠĠĠĠĠĠĠĠĠĠĠĠĠĠĠĠĠĠĠĠĠĠĠ":2033,"vals":2034,"izer":2035,"Ġmetadata":2036,"ĠCheck":2037,"down":2038,"cf":2039,"={":2040,"----------------":2041,"Ġafter":2042,"ges":2043,"Ġgen":2044,"go":2045,"pack":2046,"Ġcomm":2047,"olume":2048,"Ġchunk":2049,"body":2050,"Ġsuper":2051,"'''":2052,"Ġclo":2053,"ĠK":2054,"Ġdb":2055,"NA":2056,"Ġraw":2057,"serial":2058,"The":2059,"Ġbefore":2060,"only":2061,"]['":2062,"lper":2063,"cho":2064,"Ġgraph":2065,"next":2066,"meta":2067,"ĠAdd":2068,"ollow":2069,"columns":2070,"Ġchannel":2071,"Ġsk":2072,"Time":2073,"now":2074,"licy":2075,"grid":2076,"ĊĠĠĠĠĠĠĠĠĠĠĠĠĠĠĠĠĠĠĠĠĠĠĠĠĠĠĠĠĠĠĠĠĠĠĠ":2077,"cry":2078,"Ġ8":2079,"ward":2080,"`,":2081,"ĠCreate":2082,"Ġposition":2083,"seq":2084,"Ġtotal":2085,"mory":2086,"Ġidx":2087,"let":2088,"delete":2089,"proper":2090,"Ġnormal":2091,"coord":2092,"results":2093,"over":2094,"Ġdataset":2095,"ification":2096,"si":2097,"side":2098,"abled":2099,"Ġnamespace":2100,"Ġali":2101,"TTP":2102,"mbol":2103,"etch":2104,"Ġcontaining":2105,"bar":2106,"Ġavailable":2107,"Ġcomple":2108,"pub":2109,"ions":2110,"other":2111,"ensor":2112,"Ġmask":2113,"Ġinst":2114,"Ġbetween":2115,"mg":2116,"Ġconnection":2117,"sample":2118,"fer":2119,"step":2120,"ank":2121,"warning":2122,"Ġapi":2123,"entry":2124,"ĠPro":2125,"ret":2126,"ariant":2127,"Ġlook":2128,"SON":2129,"lice":2130,"Ġext":2131,"Ġexten":2132,"est":2133,"full":2134,"Ġnodes":2135,"Ġtri":2136,"batch":2137,"Ġ'/":2138,"16":2139,"Ġcolumns":2140,"Ġbuild":2141,"parameters":2142,"ular":2143,"cle":2144,"ODO":2145,"ination":2146,"ĠList":2147,"ither":2148,"rop":2149,"lasses":2150,"Ġcom":2151,"layer":2152,"ĊĠĠĠĠĠĠĠĠĠĠĠĠĠĠĠĠĠĠ":2153,"Ġdevice":2154,"conf":2155,"Ġ]":2156,"Add":2157,"labels":2158,"mean":2159,"ful":2160,"matrix":2161,"Ġnetwork":2162,"ob":2163,"Ġthread":2164,"oper":2165,"Ġbin":2166,"difi":2167,"cont":2168,"Ġsequence":2169,"').":2170,"Ġtwo":2171,"Ġwidth":2172,"gex":2173,"Ġsplit":2174,"my":2175,"Not":2176,"extra":2177,"ĠDefault":2178,"(**":2179,"ĠUn":2180,"gest":2181,"ics":2182,"cp":2183,"mber":2184,"network":2185,"Ġsettings":2186,"Ġtitle":2187,"ern":2188,"ĊĠĠĠĠĠĠĠĠĠĠĠĠĠĠĠĠĠĠĠĠĠĠĠĠĠ":2189,"ake":2190,"Ġexists":2191,"Ġbound":2192,"CE":2193,"Ch":2194,"Ġlat":2195,"UN":2196,"ĠAPI":2197,"bool":2198,"container":2199,"PO":2200,"uage":2201,"ens":2202,"ash":2203,"CH":2204,"roll":2205,"anguage":2206,"Ġstep":2207,"ttribute":2208,"Ġdocument":2209,"left":2210,"Ġpassword":2211,"ait":2212,"sup":2213,"section":2214,"indi":2215,".,":2216,"very":2217,"Ġconfiguration":2218,"ĊĠĠĠĠĠĠĠĠĠĠĠĠĠĠ":2219,"0000":2220,"riter":2221,"issing":2222,"Ġcalled":2223,"Ġbeen":2224,"=[":2225,".\"":2226,"Col":2227,"ored":2228,"connection":2229,"irs":2230,"Ġrandom":2231,"vices":2232,"ugin":2233,"istr":2234,"derr":2235,"Ġhash":2236,"dered":2237,"rol":2238,"ĠSt":2239,"iple":2240,"Ġzip":2241,"spon":2242,"org":2243,"``.":2244,"zeros":2245,"trie":2246,"comment":2247,"mark":2248,"vironment":2249,"Ġind":2250,"mult":2251,"description":2252,"cade":2253,"Ġpoints":2254,"paths":2255,"orig":2256,"unter":2257,"diff":2258,"hed":2259,"Ġdown":2260,"'][":2261,"Ġ'-":2262,"system":2263,"dist":2264,"11":2265,"pace":2266,"comple":2267,"random":2268,"bound":2269,"sa":2270,"Ġencoding":2271,"ponse":2272,"gin":2273,"objects":2274,"save":2275,"medi":2276,"ĊĠĠĠĠĠĠĠĠĠĠĠĠĠĠĠĠĠĠĠĠĠĠ":2277,"speci":2278,"Ġcomponent":2279,"ĠTODO":2280,"src":2281,"Ġfollow":2282,"ript":2283,"itude":2284,"Ġdescription":2285,"addr":2286,"Ġpi":2287,"Ġsee":2288,"package":2289,"\\\\":2290,"tocol":2291,"Ġstop":2292,"vious":2293,"Ġgo":2294,"ffix":2295,"No":2296,"stop":2297,"tails":2298,"FA":2299,"Ġcalcul":2300,"Ġcli":2301,"buffer":2302,"ĠRa":2303,"DI":2304,"Invalid":2305,"Ġtypes":2306,"Ġsix":2307,"Ġ\"%":2308,"Path":2309,"cate":2310,"first":2311,"Ġlib":2312,"Ġenv":2313,"FF":2314,"MP":2315,"olution":2316,"Ġsave":2317,"Dict":2318,"Ġdiffe":2319,")),":2320,"Ġtree":2321,"ĠNot":2322,"Ġbatch":2323,"]):":2324,"Ġlambda":2325,"ride":2326,"ATE":2327,"Ġlike":2328,"alog":2329,"extend":2330,"ĠLO":2331,"ush":2332,"dump":2333,"Ġreference":2334,"ĠRun":2335,"Ġopt":2336,"requi":2337,"schema":2338,"Ġcreated":2339,"ĊĠĠĠĠĠĠĠĠĠĠĠĠĠĠĠĠĠĠĠĠĠĠĠĠĠĠ":2340,"Ġextension":2341,"Ġrequests":2342,"reshold":2343,"Ġsuccess":2344,"vate":2345,"Ġ'{":2346,"Fa":2347,"zip":2348,"Ġplt":2349,"abs":2350,"Ġstd":2351,"alid":2352,"SubElement":2353,"Ġright":2354,"Ġdel":2355,"Ġselect":2356,"delta":2357,"wh":2358,"__['":2359,"ĠOption":2360,"groups":2361,"olean":2362,"ined":2363,"ng":2364,"handler":2365,"Ġalso":2366,"position":2367,"Ġshow":2368,"device":2369,"ĠKeyError":2370,"keep":2371,"LA":2372,"ĊĠĠĠĠĠĠĠĠĠĠĠĠĠĠĠĠĠĠĠĠĠĠĠĠĠĠĠĠĠ":2373,"cies":2374,"rows":2375,"Ġhttp":2376,"Ġcharact":2377,"Ġjust":2378,"Class":2379,"alys":2380,"Ġdimension":2381,"Lo":2382,"Ġsa":2383,"Ġview":2384,"scale":2385,"CT":2386,"Ġlayer":2387,"profile":2388,"stats":2389,"Ġ'_":2390,"Ġkeyword":2391,"gress":2392,"brocade":2393,"Config":2394,"olve":2395,"=(":2396,"password":2397,"inst":2398,"Ġlabels":2399,"sys":2400,"igma":2401,"opt":2402,"Ġthem":2403,"ategory":2404,"Ġschema":2405,"Ġwant":2406,"Ġdatabase":2407,"active":2408,"Ġforce":2409,"pc":2410,"thing":2411,"ĠURL":2412,"Ġinteger":2413,"Ġnow":2414,"Ġpayload":2415,"Ġpub":2416,"TYPE":2417,"Ġdir":2418,"Ġsrc":2419,"ators":2420,"CON":2421,"Object":2422,"ĠRaise":2423,"zone":2424,"Ġattributes":2425,"Ġtmp":2426,"access":2427,"Ġmark":2428,"Ġrule":2429,"tf":2430,"Ġotherwise":2431,"pdate":2432,"Ġreplace":2433,"ranch":2434,"tags":2435,"rule":2436,"ĠSee":2437,"ince":2438,"Ġ',":2439,"Ġexc":2440,"Ġfeature":2441,"fl":2442,"ves":2443,"ence":2444,"Ġpython":2445,"ents":2446,"}\".":2447,"directory":2448,"Ġdefined":2449,"samples":2450,"Ġmeta":2451,"Ġglobal":2452,"rans":2453,"Ġob":2454,"helper":2455,"stead":2456,"dataset":2457,"Ġdepend":2458,"clu":2459,"ings":2460,"Request":2461,"aded":2462,"04":2463,"day":2464,"ssible":2465,"ek":2466,"valu":2467,"Ġexisting":2468,"Ġbased":2469,"duct":2470,"entic":2471,"Ġhandler":2472,"Ġvector":2473,"Ġhere":2474,"rec":2475,"itional":2476,"exc":2477,"cell":2478,"crypt":2479,"strib":2480,"rel":2481,"Ġpost":2482,"OT":2483,"select":2484,"','":2485,"Ġleft":2486,"Create":2487,"wd":2488,"pen":2489,"cause":2490,"Ġpattern":2491,"Ġaccess":2492,"ĠLOG":2493,"raph":2494,"ĊĠĠĠĠĠĠĠĠĠĠĠĠĠĠĠĠĠĠĠĠĠĠĠĠĠĠĠĠĠĠĠĠ":2495,"Ġopts":2496,"ero":2497,"sv":2498,"med":2499,"Ġstrings":2500,"make":2501,"Ġelements":2502,"posit":2503,"unit":2504,"normal":2505,"Ġpk":2506,"rm":2507,"pattern":2508,"Ġpd":2509,"direct":2510,"salt":2511,"EL":2512,"NAME":2513,"ias":2514,"rate":2515,"show":2516,"IT":2517,"TION":2518,"Ġeither":2519,"Ġfig":2520,"Node":2521,"dev":2522,"Ġsend":2523,"namespace":2524,"style":2525,"Ġprofile":2526,"Ġoriginal":2527,"Ġwhether":2528,"Ġbyte":2529,"Ġdon":2530,"gor":2531,"atter":2532,"ULT":2533,"eded":2534,"txt":2535,"rough":2536,"ĠPython":2537,"Ġdecor":2538,"total":2539,"fs":2540,"ason":2541,"ices":2542,"alysis":2543,"Ġwindow":2544,"depth":2545,"Ġunicode":2546,"ĠJSON":2547,"02":2548,"chunk":2549,"ĠDi":2550,"gorith":2551,"Ġignore":2552,"height":2553,"hist":2554,"Ġip":2555,"oci":2556,"exit":2557,"Ġrows":2558,"dot":2559,"Ġfin":2560,"Po":2561,"Ġdelete":2562,"ET":2563,"Ġabs":2564,"Ġaccount":2565,"ived":2566,"ndarray":2567,"dest":2568,"Returns":2569,"true":2570,"Ġsection":2571,"ven":2572,"ily":2573,"Ġ'\\":2574,"redential":2575,"Ġparsed":2576,"username":2577,"ww":2578,"ton":2579,"indices":2580,"Ġskip":2581,"ql":2582,"mal":2583,"Ġfn":2584,"Ġcond":2585,"timestamp":2586,"Ġexample":2587,"[:-":2588,"Ġqueue":2589,"Ġloop":2590,"String":2591,"tmp":2592,"Ġcontainer":2593,"Index":2594,"rary":2595,"Ġwarning":2596,"Ġ(\"":2597,"ernel":2598,"Ġinstead":2599,"Ġ\".":2600,"mplemented":2601,"vo":2602,"Ġsi":2603,"her":2604,"requen":2605,"Log":2606,"ĠRes":2607,"Ġconnect":2608,"component":2609,"Check":2610,"Ġresp":2611,"Ite":2612,"window":2613,"ink":2614,"hell":2615,"hot":2616,"ffect":2617,"tect":2618,"upper":2619,"Ġconn":2620,"Ġcorrespon":2621,"Ġdirect":2622,"Ġ[\"":2623,"ĠIt":2624,"Form":2625,"Ġ{}\".":2626,"Ġrepresen":2627,"domain":2628,"models":2629,"sha":2630,"ĠNote":2631,"Ġwait":2632,"conn":2633,"ĠMe":2634,"ites":2635,"Ġmissing":2636,"lative":2637,"verage":2638,"fra":2639,"fit":2640,"Ġpla":2641,"Ġdistance":2642,"Ġsignal":2643,"Ġsystem":2644,"]),":2645,"Ġawait":2646,"AS":2647,"ie":2648,"Ġunit":2649,"Ġvariables":2650,"Ġtags":2651,"Ġmod":2652,"NT":2653,"Ġregion":2654,"State":2655,"Ġthey":2656,"execute":2657,"Ġctx":2658,"stru":2659,"ighb":2660,"Ġcho":2661,"import":2662,"lem":2663,"itch":2664,"Ġalpha":2665,"ĊĠĠĠĠĠĠĠĠĠĠĠĠĠĠĠĠĠĠĠĠĠĠĠĠĠĠĠĠĠĠ":2666,"Ġiss":2667,"Ġcustom":2668,"ĠRaises":2669,"eno":2670,"Ġhttps":2671,"ered":2672,"vider":2673,"Ġfailed":2674,"Ġcoordin":2675,"stdout":2676,"book":2677,"\"],":2678,"methods":2679,"parts":2680,"Response":2681,"Ġremo":2682,"Ġoperation":2683,"Ġmean":2684,"uture":2685,"Ġverbose":2686,"ware":2687,"ĊĊĠĠĠĠĠĠĠĠĠĠĠĠĠĠĠĠĠĠĠ":2688,"attrs":2689,"case":2690,"Ġpol":2691,"FAULT":2692,"Ġreq":2693,"Ġmapping":2694,"arr":2695,"Ġcontains":2696,"lied":2697,"scope":2698,"Ġrel":2699,"Ġge":2700,"Ġmy":2701,"train":2702,"curs":2703,"Ġwrapper":2704,"empty":2705,"sl":2706,"ansp":2707,"Ġsupported":2708,"Ġ{\"":2709,"\"])":2710,"('\\":2711,"Ġmultiple":2712,"Ġdist":2713,"Ġ7":2714,"Ġstack":2715,"Ġstore":2716,"math":2717,"Ġserial":2718,"Ġbecause":2719,"('/":2720,"gorithm":2721,"children":2722,"git":2723,"cast":2724,"Ġunique":2725,"Ġxml":2726,"Ġcent":2727,"Ġdisable":2728,"Ġfail":2729,"Ġpe":2730,"Ġexpected":2731,"Ġmon":2732,"ift":2733,"Ġparts":2734,"Ġprevious":2735,"chain":2736,"cret":2737,"Text":2738,"python":2739,"andard":2740,"Ġremote":2741,"nt":2742,"Ġlong":2743,"aml":2744,"interface":2745,"vars":2746,"au":2747,"account":2748,"ply":2749,"Ġdifferent":2750,"straint":2751,"ctx":2752,"asure":2753,"river":2754,"Ġseconds":2755,"Ġreport":2756,"async":2757,"Ġinvalid":2758,"ĠName":2759,"TER":2760,"poch":2761,"termin":2762,"alled":2763,"latform":2764,"serv":2765,"cols":2766,"ithub":2767,"Ġvis":2768,"Ġgrid":2769,"čĊĠĠĠ":2770,"Ġmatches":2771,"can":2772,"20":2773,"gine":2774,"ency":2775,"Ġheight":2776,"insert":2777,"bits":2778,"istry":2779,"15":2780,"cut":2781,"AB":2782,"__,":2783,"Ġscale":2784,"ĠAttribute":2785,"Ġusername":2786,"fici":2787,"stat":2788,"ier":2789,"US":2790,"ways":2791,"manager":2792,"Ġmain":2793,"Ġest":2794,"Ġsecond":2795,"ĠLo":2796,"initial":2797,":`~":2798,"known":2799,"ĠGener":2800,"features":2801,"24":2802,"Ġedge":2803,"Comp":2804,"KE":2805,"cores":2806,"errors":2807,"factor":2808,"ian":2809,"(-":2810,"coder":2811,"``,":2812,"Ġdisplay":2813,"'}":2814,"loop":2815,"Ġspec":2816,"Ġregister":2817,"raises":2818,"validate":2819,"andid":2820,"rest":2821,"Ġsamples":2822,"Ġadded":2823,"cc":2824,"mount":2825,"rip":2826,"bl":2827,"angle":2828,"TR":2829,"tach":2830,"sequence":2831,"ĠComp":2832,"Ġtimestamp":2833,"Ġindices":2834,"nan":2835,"actions":2836,"endswith":2837,"any":2838,"tract":2839,"Ġmerge":2840,"ĠHTTP":2841,"way":2842,"Ġinit":2843,"Ġund":2844,"stribution":2845,"warn":2846,"Ġsim":2847,"Ġ((":2848,"Ġpossible":2849,"Ġflag":2850,"_,":2851,"gre":2852,"dims":2853,"Ġgenerate":2854,"where":2855,"non":2856,"Ġproperties":2857,"Array":2858,"Ġextract":2859,"ES":2860,"repo":2861,"Ġsure":2862,"Ġproperty":2863,"Ġcorrect":2864,"sets":2865,"year":2866,"encoding":2867,"Info":2868,"Ġthrough":2869,"feature":2870,"Model":2871,".'":2872,"numpy":2873,"Ġfit":2874,"Ġcell":2875,"ension":2876,"late":2877,"ĉĉ":2878,"Ġ):":2879,"dt":2880,"ANG":2881,"seconds":2882,"global":2883,"Item":2884,"Ġtrain":2885,"Qu":2886,"Ġcons":2887,"lector":2888,"pository":2889,"Ġtokens":2890,"thread":2891,"Ġtake":2892,"duce":2893,"classes":2894,"folder":2895,"alpha":2896,"()[":2897,"ĊĠĠĠĠĠĠĠĠĠĠĠĠĠĠĠĠĠĠĠĠĠĠĠĠĠĠĠĠĠĠĠĠĠĠĠĠĠĠĠ":2898,"Ġ'*":2899,"Ġdelta":2900,"ater":2901,"Ġrece":2902,"55":2903,"()):":2904,"ĠUse":2905,"transform":2906,"Ġspecify":2907,"lap":2908,"Ġdebug":2909,"Field":2910,"Ġpaths":2911,"Ġtransform":2912,"Event":2913,"mbers":2914,"Parser":2915,"weight":2916,"Ġappro":2917,"head":2918,"Ġren":2919,"Ġcannot":2920,"ĠĠĠĠĠĠĠĠĠĠĠĠĠĠĠĠĠĠĠĠĠĠĠĠĠĠĠĠĠĠĠĠ":2921,"Ġkeep":2922,"properties":2923,"Ġsepar":2924,"Ġ'{}":2925,"*(":2926,"VER":2927,"cheme":2928,"Ġsocket":2929,"pid":2930,"bot":2931,"oid":2932,"IO":2933,"edge":2934,"loads":2935,"Ġ{}'.":2936,"Found":2937,"ely":2938,"Ġcursor":2939,"score":2940,"Ġzero":2941,"Ġendpoint":2942,"bab":2943,"Ġpresent":2944,"Ġdepth":2945,"norm":2946,"hen":2947,"Ġutils":2948,"Ġrest":2949,"Ġwithin":2950,"andas":2951,"site":2952,"lab":2953,"ĠTo":2954,"Ġpop":2955,"50":2956,"Ġfollowing":2957,"Ġrepresent":2958,"ĊĠĠĠĠĠĠĠĠĠĠĠĠĠĠĠĠĠĠĠĠĠĠĠĠĠĠĠĠĠĠĠĠĠ":2959,"Ġexpression":2960,"coded":2961,"adding":2962,"EX":2963,"Py":2964,"Ġcluster":2965,"ured":2966,"cker":2967,"Ġcha":2968,"Ġbot":2969,"Ġinterface":2970,"An":2971,"Ġconf":2972,"board":2973,"Client":2974,"dius":2975,"region":2976,":%":2977,"GER":2978,"tax":2979,"Ġbit":2980,"Ġus":2981,"reference":2982,"Ġfix":2983,"itive":2984,"80":2985,"Ġweights":2986,"mapping":2987,"/{":2988,"af":2989,"Ġ100":2990,"By":2991,"tokens":2992,"idden":2993,"Bu":2994,"aly":2995,"patch":2996,"ĠRuntime":2997,"ĠOptional":2998,"vec":2999,"Ġ_,":3000,"Ġclean":3001,"gments":3002,"Ġ9":3003,"Ġboth":3004,"greg":3005,"common":3006,"words":3007,"trics":3008,"https":3009,"Ġassoci":3010,"until":3011,"Ġdoesn":3012,"=%":3013,"Ġdomain":3014,"Ġwithout":3015,"uted":3016,"series":3017,"\"))":3018,"convert":3019,"redentials":3020,"Ġfl":3021,"hex":3022,"stderr":3023,"GET":3024,"Ġhist":3025,"curity":3026,"ĠAttributeError":3027,"card":3028,"Ġmaximum":3029,"Ġseq":3030,"201":3031,"uuid":3032,"alle":3033,"proxy":3034,"center":3035,"HE":3036,"vl":3037,"Ġaccept":3038,"Ġtrue":3039,"ross":3040,"ia":3041,"fin":3042,"dified":3043,"Ġweight":3044,"tail":3045,"els":3046,"ynam":3047,"mbed":3048,"tools":3049,"uplic":3050,"times":3051,"Message":3052,"Ġ'--":3053,"Ġsha":3054,"</":3055,"trieve":3056,"Ġevery":3057,"Ġdt":3058,"ATI":3059,"eps":3060,"dirname":3061,"Ġassign":3062,"cursor":3063,"Ġscope":3064,"nly":3065,"Ġsite":3066,"environ":3067,"lim":3068,"Ġcollection":3069,"AP":3070,"Ġtheir":3071,"atio":3072,"Ġwrap":3073,"Ġvert":3074,"distance":3075,"img":3076,"csv":3077,"just":3078,"peri":3079,"QU":3080,"Ġflags":3081,"attributes":3082,"ĠSer":3083,"Ġvalidate":3084,"tom":3085,"payload":3086,"ws":3087,"IP":3088,"Ġ201":3089,"DB":3090,"Ġenvironment":3091,"Ġrunning":3092,"ority":3093,"okup":3094,"User":3095,"izes":3096,"sure":3097,"requency":3098,"__)":3099,"ĊĠĠĠĠĠĠĠĠĠĠĠĠĠĠĠĠĠĠĠĠĠĠĠĠĠĠĠĠĠĠĠĠĠĠ":3100,"Ġidentifier":3101,"Ġnote":3102,"units":3103,"lon":3104,"naps":3105,"NO":3106,"leep":3107,"interval":3108,"SO":3109,"used":3110,"lint":3111,"ire":3112,"Ġallowed":3113,"Read":3114,"Ġcallable":3115,"Ġfinal":3116,"Result":3117,"Ġstats":3118,"esc":3119,"tered":3120,"alk":3121,"ĠExample":3122,"cluster":3123,"Ġ12":3124,"metric":3125,"olver":3126,"depend":3127,"optional":3128,"URL":3129,"umbers":3130,"ground":3131,"sep":3132,"ives":3133,"()))":3134,"Ġtx":3135,"Ġmatching":3136,"Ġmethods":3137,"tc":3138,"Ġscript":3139,"report":3140,"ilter":3141,"BU":3142,"Ġinputs":3143,"period":3144,"ĠZ":3145,"spect":3146,"napshot":3147,"az":3148,"termine":3149,"Ġbeing":3150,"čĊĊĠĠĠĠĠĠĠ":3151,"Ġsuch":3152,"ness":3153,"dr":3154,"reshape":3155,"fname":3156,"email":3157,"Ġstat":3158,"desc":3159,"unique":3160,"wrap":3161,"Ġbest":3162,"ĊĊĉ":3163,"signal":3164,"register":3165,"cfg":3166,"ĠRuntimeError":3167,"TH":3168,"Ġspecific":3169,"}'":3170,"Ġpix":3171,"100":3172,"leg":3173,"Ġabout":3174,"latten":3175,"ĠĠĠĠĠĠĠĠĠ":3176,"serialize":3177,"AM":3178,"pix":3179,"DF":3180,"Ġsince":3181,"prec":3182,"33":3183,"Ġroute":3184,"auto":3185,"Ġyour":3186,"less":3187,"ox":3188,"Ġlon":3189,"ĊĊĠĠĠĠĠ":3190,"DataFrame":3191,"PAT":3192,"licit":3193,"vision":3194,"Ġspace":3195,"('-":3196,"Ġthese":3197,"('%":3198,"Ġmemory":3199,"ision":3200,"Ġtimes":3201,"Ġindent":3202,"ik":3203,"real":3204,"sqrt":3205,"Ġmessages":3206,"vm":3207,"-+":3208,"lish":3209,"Ġcould":3210,"Ġlower":3211,"Ġcorresponding":3212,"Ġwrit":3213,"Ġapply":3214,"Ġbuffer":3215,"Argument":3216,"Ġ\"{":3217,"trace":3218,"ertifi":3219,"Option":3220,"cer":3221,"attribute":3222,"ending":3223,"Ġctypes":3224,"document":3225,"}.":3226,"dimension":3227,"ported":3228,"socket":3229,"Ġang":3230,"entity":3231,"19":3232,"alcul":3233,"Ġannot":3234,"ä¸":3235,"ersion":3236,"yp":3237,"inte":3238,"Ġimg":3239,"ĠĊĠĠĠĠĠĠĠ":3240,"fetch":3241,"Ġhigh":3242,"ivity":3243,"SC":3244,"Ġvolume":3245,"30":3246,"aries":3247,"Ġour":3248,"Ġdefaults":3249,"identifier":3250,"Ġboolean":3251,"Ġfra":3252,"argv":3253,"Ġmetric":3254,"ane":3255,"ilder":3256,"cloud":3257,"asic":3258,"peline":3259,"fast":3260,"force":3261,"ze":3262,"Ġcompute":3263,"chron":3264,"tick":3265,"SP":3266,"Run":3267,"Ġseries":3268,"UR":3269,"Ġunder":3270,"OP":3271,"allow":3272,"variables":3273,"hook":3274,"Ġevents":3275,"Ġequal":3276,"ually":3277,"Ġdone":3278,"-%":3279,"14":3280,"KEY":3281,"Ġcomb":3282,"inputs":3283,"rb":3284,"expected":3285,".*":3286,"cb":3287,"policy":3288,"required":3289,"ged":3290,"ED":3291,"Ġda":3292,"ategor":3293,"flags":3294,"Ġfeatures":3295,"App":3296,"Ġstyle":3297,"ulation":3298,"unicode":3299,"dumps":3300,"Ġvia":3301,"DEFAULT":3302,"cluded":3303,"At":3304,"Ġinsert":3305,"Ġstructure":3306,"Ġhow":3307,"olute":3308,"zero":3309,"Ġyang":3310,"utom":3311,"added":3312,"/%":3313,"Ġsyn":3314,"Ġrepo":3315,"sec":3316,"################":3317,"Instance":3318,"meth":3319,"layers":3320,"Ġreal":3321,"long":3322,"fill":3323,"Ġrelative":3324,"]+":3325,"mpt":3326,"ĠNo":3327,"Ġclick":3328,"'\\":3329,"Ġcomment":3330,"ERR":3331,"pare":3332,"Ġneeded":3333,"Ġkw":3334,"Ġnd":3335,"Ġperiod":3336,"vers":3337,"ogle":3338,"Ġsm":3339,"sw":3340,"ient":3341,"Ġimp":3342,"}{":3343,"spe":3344,"Ġ'')":3345,"ulate":3346,"Ġindic":3347,"sm":3348,"loy":3349,"collection":3350,"clean":3351,"Ġgroups":3352,"ends":3353,"Ġmath":3354,"Or":3355,"fg":3356,"jobs":3357,"Ġbucket":3358,"API":3359,"ferences":3360,"align":3361,"states":3362,"ometry":3363,"logging":3364,"sn":3365,"press":3366,"Group":3367,"Ġfactor":3368,"Ġ##":3369,"bucket":3370,"parameter":3371,"Ġ-=":3372,"ĠIP":3373,"ration":3374,"Ġscore":3375,"Ġloc":3376,"ole":3377,"čĊĠĠĠĠĠĠĠĠĠĠĠĠĠĠĠ":3378,"Ġstdout":3379,"Ġestim":3380,"Ġpylint":3381,"display":3382,"Size":3383,"Ġalign":3384,"Ġplace":3385,"Ġemail":3386,"Ġcontents":3387,"Le":3388,"byte":3389,"Ġdecorator":3390,"expr":3391,"Ġterm":3392,"Ġclose":3393,"Ġ\"/":3394,"Ġunits":3395,"Ġvariant":3396,"Ġfunctions":3397,"remote":3398,"Ġwarnings":3399,"Ġagain":3400,"IL":3401,"exceptions":3402,"lections":3403,"steps":3404,"Input":3405,"\"),":3406,"mac":3407,"__(":3408,"Ġsegment":3409,"fd":3410,"ĠOr":3411,"Ġow":3412,"coords":3413,"Ġrec":3414,"Ġaxes":3415,"help":3416,"(\"%":3417,"ui":3418,"Ġ\"_":3419,"Out":3420,"ould":3421,"Ġchanges":3422,"ving":3423,"chedule":3424,"}\\":3425,"CK":3426,"Ġwhat":3427,"ĠStr":3428,"Auth":3429,"Ġbinary":3430,"Ġsignature":3431,"ĠConvert":3432,"weights":3433,"Process":3434,"LOG":3435,"ars":3436,"Ġremoved":3437,"docs":3438,"Ġpredi":3439,"Failed":3440,"ATION":3441,"cimal":3442,"Content":3443,"Ġrequire":3444,"storage":3445,"changes":3446,"rf":3447,"verbose":3448,"bed":3449,"ters":3450,"gative":3451,"merge":3452,"symbol":3453,"Ġentity":3454,"(\"\\":3455,"Inter":3456,"ĠFile":3457,"Ġalways":3458,"UP":3459,"stants":3460,"figs":3461,"Ġfolder":3462,"__.":3463,"rence":3464,"kind":3465,"Ġ200":3466,"Ġuri":3467,"cessed":3468,"cii":3469,"custom":3470,"dio":3471,"dat":3472,"Ġplugin":3473,"_{":3474,"Ġarch":3475,"ified":3476,"Ġinterval":3477,"Ġtensor":3478,"'](":3479,"edges":3480,"commit":3481,"Ġfill":3482,"tensor":3483,":-":3484,"60":3485,"Ġfname":3486,"Per":3487,"ango":3488,"Ġtrace":3489,"Ġcat":3490,"urse":3491,"gy":3492,"cos":3493,"Ġcommon":3494,"ru":3495,"Te":3496,"Ġupdated":3497,"encies":3498,"Ġprivate":3499,".)":3500,"tries":3501,"ĠEn":3502,"Ġshort":3503,"plotlib":3504,"aved":3505,"Ġbox":3506,"flag":3507,"Ġim":3508,"Ġlanguage":3509,"Session":3510,"(['":3511,"vs":3512,"prop":3513,"Ġentries":3514,"member":3515,"FO":3516,"Ġevalu":3517,"Ġ\",":3518,"github":3519,"basename":3520,"('.":3521,"corre":3522,"ones":3523,"Ġcoordinates":3524,"Ġiterable":3525,"bind":3526,"ignore":3527,"Ġrole":3528,"({'":3529,"fmt":3530,"Ġfmt":3531,"Ġday":3532,"master":3533,"ĊĠĠĠĠĠĠĠĠĠĠĠĠĠĠĠĠĠĠĠĠĠĠĠĠĠĠĠĠĠĠĠĠĠĠĠĠĠĠ":3534,"Ġrepresenting":3535,"freq":3536,"Ġast":3537,"utable":3538,"ĠĠĠĠĠĠĠĠĠĠ":3539,"sql":3540,"Ġinstances":3541,"hes":3542,"Parse":3543,"variant":3544,"_.":3545,"Ġ//":3546,"Gener":3547,"author":3548,"endpoint":3549,"Ġassociated":3550,"ilt":3551,"gb":3552,"win":3553,">`":3554,"Ġmulti":3555,"extension":3556,"events":3557,"dec":3558,"Ġdetails":3559,"leted":3560,"Ġstorage":3561,"Ġpair":3562,"Ġwould":3563,"defin":3564,"Ġactual":3565,"counts":3566,"application":3567,"Ġleast":3568,")])":3569,"ams":3570,"xx":3571,"null":3572,"Ġregex":3573,"Image":3574,"Ġ\"\\":3575,"ĠIO":3576,"ariance":3577,"Ġ'*'":3578,"Ġattrs":3579,"defaults":3580,"blem":3581,"pool":3582,"ĠDo":3583,"regex":3584,"{}'.":3585,"Context":3586,"chine":3587,"Ġassume":3588,"Ġexit":3589,"modules":3590,"Sy":3591,"ĠDE":3592,"================":3593,"SH":3594,"Pre":3595,"ĊĠĠĠĠĠĠĠĠĠĠĠĠĠĠĠĠĠĠĠĠĠĠĠĠĠĠĠĠĠĠĠĠĠĠĠĠĠ":3596,"strict":3597,"sig":3598,"sted":3599,"Ġoc":3600,"eric":3601,"Ġactive":3602,"fun":3603,"none":3604,"Reg":3605,"TO":3606,"expand":3607,"Ġprev":3608,"Ġexclude":3609,"ĠMake":3610,"Ġapplication":3611,"ertificate":3612,"gp":3613,"amily":3614,"Ġsuffix":3615,"Valid":3616,"periment":3617,"ength":3618,"Ġdirectly":3619,"Ġmodels":3620,"He":3621,"buf":3622,"slice":3623,"Ġcre":3624,"route":3625,"PRO":3626,"ndim":3627,"codes":3628,"Base":3629,"Ġgre":3630,"ND":3631,"ĠIndex":3632,"FILE":3633,"Ġmag":3634,"Ġ16":3635,"formed":3636,"missions":3637,"Ġchain":3638,"SION":3639,"VAL":3640,"roller":3641,"quences":3642,"Ġrequested":3643,"vide":3644,"compile":3645,"miss":3646,"Ġensure":3647,"rtual":3648,"Trans":3649,"gate":3650,"Ġdownload":3651,"Ġ'',":3652,"Ġnamed":3653,"Ġdistribution":3654,"Ġgenerator":3655,"POST":3656,"gg":3657,"include":3658,"logy":3659,"sens":3660,"ues":3661,"alias":3662,"Ġhtml":3663,"ively":3664,"Ġasyn":3665,"rl":3666,"Ġlock":3667,"role":3668,"Ġcharacters":3669,"Call":3670,"nn":3671,"uting":3672,"Ġrepresentation":3673,"clear":3674,"widget":3675,"spath":3676,"Count":3677,"counter":3678,"Ġcor":3679,"Ġuntil":3680,"Ġretry":3681,"month":3682,"()]":3683,"lear":3684,"je":3685,"DO":3686,"ler":3687,"lack":3688,"Ġselected":3689,"ĠOS":3690,"Ġfp":3691,"transp":3692,"property":3693,"****":3694,"Ġstandard":3695,"suffix":3696,"pter":3697,"elements":3698,"Ġ[(":3699,"Handler":3700,"34":3701,"volume":3702,"ĠValid":3703,"Ġmost":3704,"Ġmedi":3705,"success":3706,"Ġproxy":3707,"Status":3708,"ypes":3709,"filepath":3710,"Ġdestination":3711,"Ġcalling":3712,"Ġ[])":3713,"Ġbl":3714,"ather":3715,"Ġperform":3716,"qa":3717,"sid":3718,"heet":3719,"sorted":3720,"Ġpkg":3721,"Ġjoin":3722,"amma":3723,"Ġauto":3724,"IG":3725,"ĠUpdate":3726,"ĠĠĠĠĠĠĠĠĠĠĠĠĠĠĠĠĠĠĠ":3727,"Ġstored":3728,"Iter":3729,"Ġdesc":3730,"Ġreverse":3731,"pac":3732,"ĠWhen":3733,"tion":3734,"QL":3735,"istered":3736,"Ġfilters":3737,"Ġprop":3738,"Ġadditional":3739,"Ġwere":3740,"mut":3741,"Ġcharacter":3742,"Ġnorm":3743,"Table":3744,"urface":3745,",)":3746,"als":3747,"fact":3748,"Ġhparams":3749,"Ġbranch":3750,"ĊĠĠĠĠĠĠĠĠĠĠĠĠĠĠĠĠĠĠĠĠĠĠĠĠĠĠĠĠĠĠĠĠĠĠĠĠĠĠĠĠ":3751,"jango":3752,"Version":3753,"lookup":3754,"Ġsw":3755,"bove":3756,"Ġ'__":3757,"ense":3758,"rand":3759,"Ġauthor":3760,"ĠAny":3761,"Ġdim":3762,"span":3763,"ports":3764,"contents":3765,"]*":3766,"ĠInvalid":3767,"Ġhead":3768,"PATH":3769,"setdefault":3770,"Ġoptim":3771,"light":3772,"astype":3773,"Ġutil":3774,"dep":3775,")*":3776,"obs":3777,"Date":3778,")/":3779,"ish":3780,"lex":3781,"Ġids":3782,"apply":3783,"install":3784,"Ġimages":3785,"summary":3786,"axes":3787,"ases":3788,"Ġprobab":3789,"ĠRE":3790,"NS":3791,"CS":3792,"language":3793,"multi":3794,"Ġsent":3795,"Ġpool":3796,"Ġsetting":3797,"chronous":3798,"Sh":3799,"Ġ{},":3800,"}\"":3801,"tt":3802,"Dis":3803,"Start":3804,"Ġsymbol":3805,"Ġho":3806,":])":3807,"ĠAs":3808,"MO":3809,"Ġpick":3810,"Ġmu":3811,"Man":3812,"Graph":3813,"served":3814,"voc":3815,"Ġupper":3816,"come":3817,"Ġyear":3818,"ĠApp":3819,"threshold":3820,"Ġrecords":3821,"loaded":3822,"Ġdep":3823,"ERROR":3824,"ga":3825,"Ġneeds":3826,"Ġcp":3827,"Ġlar":3828,"Number":3829,"release":3830,"secret":3831,"Ġbits":3832,"Ġdirection":3833,"osition":3834,"uring":3835,"tab":3836,"HTTP":3837,"Query":3838,"Ġmeans":3839,"yg":3840,"ene":3841,"SET":3842,"cessary":3843,"Ġinstall":3844,"Ġcenter":3845,"13":3846,"Ġappend":3847,"Ġ\"{}":3848,"Ġslice":3849,"This":3850,"Ġ[],":3851,"Ġpacket":3852,"gger":3853,"sim":3854,"ower":3855,"Ġedges":3856,"phi":3857,"Ġthreshold":3858,"ĊĠĠĠĠĠĠĠĠĠĠĠĠĠĠĠĠĠĠĠĠĠĠĠĠĠĠĠĠĠĠĠĠĠĠĠĠĠĠĠĠĠĠĠ":3859,"ĠUser":3860,"complete":3861,"maining":3862,"Update":3863,"ĠOther":3864,"fail":3865,"effici":3866,"-+-+":3867,"Ġlists":3868,"uint":3869,"tic":3870,"Ġpairs":3871,"ĠCh":3872,"tz":3873,"utomatic":3874,"isfile":3875,"resources":3876,"UM":3877,"56":3878,"lt":3879,"mu":3880,"Ġsubject":3881,"links":3882,"Code":3883,"ĠPath":3884,"arm":3885,"Ġway":3886,"gene":3887,"Ġcompat":3888,"channels":3889,"Ġnoqa":3890,"assign":3891,"Ġgene":3892,"memory":3893,"18":3894,"PC":3895,"Ġfont":3896,"For":3897,"iteritems":3898,"mpling":3899,"Ġcalculate":3900,"Ġextensions":3901,"Ġder":3902,"database":3903,"Ġmember":3904,"Ġattemp":3905,"safe":3906,"Ġprotocol":3907,"Obj":3908,"dic":3909,"cipy":3910,"Ġimplement":3911,"Ġchildren":3912,"Loc":3913,"tact":3914,"ling":3915,"Ġalgorithm":3916,"eff":3917,"ATA":3918,"Ġsig":3919,"entication":3920,"Ġwidget":3921,"AGE":3922,"Ġgenerated":3923,"sleep":3924,"Ġsigma":3925,"Ġoverride":3926,"Ġdisk":3927,"Ġ},":3928,"Ġtrack":3929,"ressed":3930,"tore":3931,"Map":3932,"arguments":3933,"ynamic":3934,"From":3935,"Ġdraw":3936,"lineno":3937,"Ġ\"-":3938,"okie":3939,"after":3940,"public":3941,"Ġprogress":3942,"andlers":3943,"imer":3944,"Ġsql":3945,"rag":3946,"'re":3947,"history":3948,"defined":3949,"partition":3950,"mid":3951,"Ġrot":3952,"ĠDataFrame":3953,"andidate":3954,"fic":3955,"ops":3956,"gt":3957,"ĠPer":3958,"ĠCol":3959,"days":3960,"sym":3961,"Ġsubprocess":3962,"filters":3963,"Ġprovide":3964,"Ġmany":3965,"pad":3966,"Ġanalysis":3967,"Ġdefinition":3968,"ĠYANG":3969,"Ġinspect":3970,"cesses":3971,"ended":3972,"bins":3973,"Ġcondition":3974,"rain":3975,"cla":3976,"Ġpartic":3977,"={}":3978,"Ġcfg":3979,"Ġpolicy":3980,"Convert":3981,"03":3982,"iew":3983,"Exec":3984,"missing":3985,"17":3986,"\"]:":3987,"Ġamount":3988,"uce":3989,"Ġvm":3990,"Ġchanged":3991,"indent":3992,"ilar":3993,"(__":3994,"WS":3995,"=_":3996,"download":3997,"Tree":3998,"short":3999,"ished":4000,"Ġkernel":4001,"category":4002,"Line":4003,"writ":4004,"Ġlookup":4005,"Ġarrays":4006,"generate":4007,"Ġbackend":4008,"ĠĠĠĠĠĠĠĠĠĠĠĠ":4009,"details":4010,")).":4011,"Ġsuccessful":4012,"ĠAl":4013,"IM":4014,"pkg":4015,"Ġcomponents":4016,"velo":4017,"Ġ(%":4018,"DS":4019,"faces":4020,"Ġ{})":4021,"sired":4022,"cording":4023,"scriptor":4024,"Ġfuture":4025,"Th":4026,"Ġrate":4027,"reset":4028,"login":4029,"ascii":4030,"Ġdat":4031,"raps":4032,"Ġexceptions":4033,"Ġkind":4034,"Ġcomplete":4035,"operation":4036,"cd":4037,"ons":4038,"components":4039,"Ġinternal":4040,"Ġnumbers":4041,"\"].":4042,"colors":4043,"inf":4044,"Ġarr":4045,"cursive":4046,"Ġndarray":4047,"200":4048,"changed":4049,"Ġrender":4050,"RA":4051,"ĠConfig":4052,"pair":4053,"Ġminimum":4054,"ĠRemove":4055,"arange":4056,"utton":4057,"IS":4058,"ĠQu":4059,"ĠNumber":4060,"mbols":4061,"Ġbuf":4062,"ĠOnly":4063,"hs":4064,"agent":4065,"eval":4066,"Ġcategory":4067,"ker":4068,"sole":4069,"Ġorigin":4070,"sigma":4071,"FOR":4072,"ĠTime":4073,"Ġalias":4074,"Oper":4075,"segment":4076,"ugins":4077,"Ġcommands":4078,"ABLE":4079,"extract":4080,"MS":4081,"Connection":4082,"tty":4083,"Ġelem":4084,"Ġoperator":4085,"Ġwords":4086,"Ġcy":4087,"Ġexpi":4088,"acy":4089,"Service":4090,"Ġmonth":4091,"Ġzone":4092,"cr":4093,"oms":4094,"enum":4095,"Ġstates":4096,"deredDict":4097,"Ġ,":4098,"percent":4099,"Ġstderr":4100,"dirs":4101,"protocol":4102,"tence":4103,"images":4104,"invalid":4105,"Ġgot":4106,"sca":4107,"mgmt":4108,"ibility":4109,"erature":4110,"font":4111,"Ġdimensions":4112,"]])":4113,"Ġdetect":4114,"abel":4115,"ti":4116,"atterns":4117,"ife":4118,"ĠArgument":4119,"ogram":4120,"ĠBu":4121,"Ġpad":4122,"subject":4123,"Point":4124,"repr":4125,"this":4126,"Ġ%(":4127,"Ġangle":4128,"Ġabove":4129,"sd":4130,"=-":4131,"Ġ')":4132,"best":4133,"matches":4134,"expression":4135,"Ġtransaction":4136,")\"":4137,"05":4138,"Ġuses":4139,"unpack":4140,"Ġbasestring":4141,"Ġspe":4142,"Desc":4143,"Warning":4144,"Ġclasses":4145,"ands":4146,"ĠIOError":4147,"Ġcounter":4148,"Ġverify":4149,"atches":4150,"ĠFind":4151,"Ġencoded":4152,"Ġtyp":4153,"Ġweb":4154,"skip":4155,"Ġtoo":4156,"binary":4157,"straints":4158,"branch":4159,"draw":4160,"ĠRead":4161,"ĠXML":4162,"istics":4163,"Rec":4164,"Ġproduct":4165,"precated":4166,"lev":4167,"Ġ})":4168,"found":4169,"icro":4170,"www":4171,"before":4172,"sts":4173,"(',":4174,"comb":4175,"Ġfetch":4176,"admin":4177,"')[":4178,"Ġns":4179,"Ġ$":4180,"concat":4181,"}/":4182,"Series":4183,"plugin":4184,"As":4185,"Ġnecessary":4186,"Ġcommit":4187,"Ġpublic":4188,"ĠExamples":4189,"ĠĊĠĠĠ":4190,"cons":4191,"Cannot":4192,"Ġreason":4193,"abspath":4194,"alg":4195,"drop":4196,"blocks":4197,"compute":4198,"condition":4199,"fp":4200,"Ġtermin":4201,"Ġdst":4202,"ĠString":4203,"layout":4204,"Ġsetattr":4205,"ĠNO":4206,"neighb":4207,"Record":4208,"seed":4209,"Ġrelation":4210,"Ġside":4211,"olved":4212,"Ġsupp":4213,"Cur":4214,"tk":4215,"Ġpandas":4216,"utor":4217,"22":4218,"rep":4219,"ells":4220,"area":4221,"']))":4222,"mass":4223,"uter":4224,"resses":4225,"Of":4226,"ensity":4227,"nections":4228,"etwork":4229,"structure":4230,"Ġbro":4231,"Ġavoid":4232,"Do":4233,"jection":4234,"factory":4235,"Ġut":4236,"ĠParse":4237,"rer":4238,"Ġshell":4239,"Ġsummary":4240,"dx":4241,"scribe":4242,"running":4243,"tool":4244,"Resource":4245,"rank":4246,"ric":4247,"entries":4248,"proc":4249,"spaces":4250,"ancel":4251,"Ġthose":4252,"('--":4253,"Ġnb":4254,"TIME":4255,"undle":4256,"NotFound":4257,"Ġcached":4258,"note":4259,"syn":4260,"Ġsym":4261,"TS":4262,"ategories":4263,"ZE":4264,"OL":4265,"Ġfinally":4266,"Ġaccording":4267,"ĊĊĊĠĠĠ":4268,"AG":4269,"Ġcurrently":4270,"Ġlibrary":4271,"Ġsetup":4272,"Al":4273,"ationError":4274,"ACK":4275,"Ġbash":4276,"lip":4277,"otential":4278,"ips":4279,"nb":4280,"Ġseed":4281,"çļ":4282,"ĠBy":4283,"ctories":4284,"Ġduration":4285,"enabled":4286,"(\\":4287,"ropy":4288,"Ġpercent":4289,"Ġetc":4290,"prob":4291,"Ġcontrol":4292,"retry":4293,"çļĦ":4294,"Ġflow":4295,"Ġmaster":4296,"Ġpadding":4297,"ï¼":4298,"ĠDefaults":4299,"}}":4300,"loss":4301,"Load":4302,"Ġanother":4303,"Ġreset":4304,"commands":4305,"isinstance":4306,"control":4307,"Ġeffect":4308,"BUG":4309,"Ġpositive":4310,"Ġinner":4311,"Lay":4312,"members":4313,"Ġfast":4314,"bounds":4315,"ĠCLI":4316,"Ġcolors":4317,"\").":4318,"allel":4319,"Ġ[[":4320,"clus":4321,"jor":4322,"Ġput":4323,"single":4324,"ĠOtherwise":4325,"ĠTrans":4326,"cu":4327,"records":4328,"Ġvalidation":4329,"grade":4330,":\\":4331,"duration":4332,"deg":4333,"track":4334,"tile":4335,"firm":4336,"UB":4337,"Ġcsv":4338,"Ġrank":4339,"Ġbind":4340,"(':":4341,"vas":4342,"Ġstarting":4343,"Ġap":4344,"OK":4345,"Ġsimple":4346,"ĊĠĠĠĠĠĠĠĠĠĠĠĠĠĠĠĠĠĠĠĠĠĠĠĠĠĠĠĠĠĠĠĠĠĠĠĠĠĠĠĠĠ":4347,"product":4348,"Ġwin":4349,"Ġ\"--":4350,"Ġhex":4351,"Ġusers":4352,"Ġrelease":4353,"ĠQt":4354,"Token":4355,"setup":4356,"Ġneighb":4357,"(?":4358,"ines":4359,"Ġautomatic":4360,"\"][\"":4361,"ality":4362,"wrapper":4363,"oom":4364,"66":4365,"Ġbegin":4366,"Ġmeasure":4367,"TypeError":4368,"alculate":4369,"Ġbounds":4370,"Ġrequires":4371,"Ġfalse":4372,"ASE":4373,"rot":4374,"home":4375,"vidual":4376,"signature":4377,"untry":4378,"conv":4379,"verify":4380,"hostname":4381,"Ġwrapped":4382,"oot":4383,"priate":4384,"dst":4385,"bet":4386,"Ġcalls":4387,"provider":4388,"Ġinstalled":4389,"PAR":4390,"ĊĠĠĠĠĠĠĠĠĠĠĠĠĠĠĠĠĠĠĠĠĠĠĠĠĠĠĠĠĠĠĠĠĠĠĠĠĠĠĠĠĠĠ":4391,"Ġresources":4392,"TML":4393,"platform":4394,"utype":4395,"digest":4396,"second":4397,"Filter":4398,"ĠWhether":4399,"ĠLog":4400,"('_":4401,"__.__":4402,"foo":4403,"ridge":4404,"dient":4405,"pars":4406,"iki":4407,"Ġrepository":4408,"Clo":4409,"Ġtuples":4410,"_)":4411,"isdir":4412,"lies":4413,"rect":4414,"Ġdetermine":4415,"rece":4416,"('.')":4417,"backend":4418,")}":4419,"Def":4420,"tasks":4421,"ava":4422,"high":4423,"assert":4424,"--------------------------------":4425,"VE":4426,"Ġspecial":4427,"Ġmove":4428,"tw":4429,"Ġradius":4430,"final":4431,"ural":4432,"users":4433,"ĠLOGGER":4434,"Ġcut":4435,"cum":4436,"Ġsl":4437,"Ġexecute":4438,"epoch":4439,"cert":4440,"Ġpartition":4441,"beta":4442,"imp":4443,"targets":4444,"mooth":4445,"Ġlow":4446,"reader":4447,"Ġbelow":4448,"kernel":4449,"Ġ''.":4450,"reduce":4451,"Ġlet":4452,"ĠImport":4453,"ked":4454,"Ġloaded":4455,"hood":4456,"Ġstrip":4457,"integer":4458,"Ca":4459,"ours":4460,"Ġbar":4461,"strings":4462,"dl":4463,"Manager":4464,"Ġupload":4465,"engine":4466,"messages":4467,"Ġexpr":4468,"Could":4469,"Ġignored":4470,"Ġdot":4471,"usters":4472,"uff":4473,"exclude":4474,"PRE":4475,",'":4476,"Ġstri":4477,"uplicate":4478,"Function":4479,"Attribute":4480,"Ġpid":4481,"Ġappropriate":4482,"%(":4483,"mediate":4484,"servation":4485,"inv":4486,"Ġdesired":4487,"ront":4488,"diag":4489,".\",":4490,"quote":4491,"Ġwell":4492,"Ġprogram":4493,"Ġnormalize":4494,"ĠPre":4495,"Ġexpect":4496,"asarray":4497,"scheme":4498,"Ġphase":4499,"LIN":4500,"pb":4501,"ks":4502,"Ġcollections":4503,"Ġ))":4504,"ants":4505,"23":4506,"Ġyet":4507,"sin":4508,"dify":4509,"SER":4510,"catalog":4511,"uous":4512,"theta":4513,"ilities":4514,"ulti":4515,"atom":4516,"mplates":4517,"origin":4518,"Ġ),":4519,"View":4520,"Command":4521,"epcopy":4522,"pd":4523,"Ġincre":4524,"256":4525,"ada":4526,"Ġround":4527,"ouble":4528,"['_":4529,"iterable":4530,"metrics":4531,"Ġoccur":4532,"unch":4533,"sources":4534,"web":4535,"Action":4536,"cm":4537,"opy":4538,"js":4539,"scan":4540,"Ġfrequency":4541,"stit":4542,"Ġdrop":4543,"clip":4544,"MM":4545,"Implemented":4546,"Ġexact":4547,"Ġatom":4548,"Ġfigure":4549,"quare":4550,"Ġmight":4551,"Ġasync":4552,"Ġreduce":4553,"shell":4554,"Tra":4555,"Ġcounts":4556,"rong":4557,"Ġsafe":4558,"Ġmodified":4559,"istent":4560,"pred":4561,")'":4562,"Ġcredentials":4563,"ENT":4564,"Stream":4565,"sess":4566,"resp":4567,"501":4568,"pan":4569,"Ġrep":4570,"Ġnegative":4571,"ratio":4572,"sync":4573,"VI":4574,"Widget":4575,"ĠHe":4576,"ĠIN":4577,"sidered":4578,"crypted":4579,"Method":4580,"ough":4581,"Ġtab":4582,"struction":4583,"wraps":4584,"27":4585,"Ġcir":4586,"Ġsets":4587,"Ġdump":4588,"ĠCommand":4589,"Box":4590,"Ġfd":4591,"ĠAll":4592,"ĠYou":4593,"ited":4594,"Ġmac":4595,"available":4596,"UE":4597,"ĊĊ":4598,"']]":4599,"driver":4600,"cov":4601,"Ac":4602,"|'":4603,"ools":4604,"echo":4605,"ression":4606,"Mo":4607,"'\"":4608,"static":4609,"expi":4610,"definition":4611,"dle":4612,"render":4613,"Ġsupplied":4614,"Ġincluded":4615,")**":4616,"mesh":4617,"indows":4618,"private":4619,"SA":4620,"otes":4621,"Ġredirect":4622,"}:":4623,"orary":4624,"Ġonce":4625,"Ġ<<":4626,"Ġconsidered":4627,"esca":4628,"Ġclear":4629,"We":4630,"Ġalong":4631,"Format":4632,"Ġduring":4633,"Fe":4634,"separ":4635,"hidden":4636,"Ġmesh":4637,"Ġabsolute":4638,"Ġreceived":4639,"ĠPo":4640,"limiter":4641,"example":4642,")\\":4643,"ĠSpeci":4644,"Ġoutputs":4645,"yaml":4646,"glob":4647,"Ġ20":4648,"40":4649,"ii":4650,"Ġ':":4651,"ĠUni":4652,"Tensor":4653,"IC":4654,"Ġenabled":4655,"ĠTh":4656,"åı":4657,"FIG":4658,"Ġcols":4659,"cluding":4660,"Ġmodules":4661,"frac":4662,"Ġepoch":4663,"Cont":4664,"sem":4665,"={'":4666,"Ġraised":4667,"Ġsn":4668,"mk":4669,"Default":4670,"Ġ1000":4671,"cing":4672,"Ġhy":4673,"chan":4674,"Ġplatform":4675,"Ġfailure":4676,"XX":4677,"Ġdecode":4678,"Ġaddr":4679,"shift":4680,"progress":4681,"generator":4682,"Ġcurr":4683,"require":4684,"Ġsteps":4685,"Ġinside":4686,"irst":4687,"Ġexecution":4688,"reat":4689,"Met":4690,"Ġds":4691,"90":4692,"delay":4693,"Ġformatted":4694,"Link":4695,"Ġconverted":4696,"Ġchecks":4697,"Ġprec":4698,"original":4699,"begin":4700,"Source":4701,"configuration":4702,"flatten":4703,"ĠFI":4704,"iso":4705,"ĠTe":4706,".',":4707,"ĠBo":4708,"STR":4709,"Block":4710,")-":4711,"Ġsmall":4712,"ĠDict":4713,"pacity":4714,"Mode":4715,"Ġsaved":4716,"Ġ'<":4717,"registry":4718,"attrib":4719,"Ġscipy":4720,"SIZE":4721,"ĠAt":4722,"86":4723,"ription":4724,"Ġoverwrite":4725,"ĠNotImplemented":4726,"Ġless":4727,"done":4728,"ĠCode":4729,"ORD":4730,"Ġio":4731,"Ġknown":4732,"rr":4733,"ĠBase":4734,"Ġchannels":4735,"predi":4736,"Ġmd":4737,"75":4738,"OS":4739,"ĠOSError":4740,"Ġtasks":4741,"INT":4742,"CP":4743,"cpu":4744,"Ġdeleted":4745,"Ġalt":4746,"Ġscan":4747,"Ġfeed":4748,"ĠLoad":4749,"lis":4750,"activ":4751,"Ġmid":4752,"Ġleg":4753,"Ġcb":4754,"Ġgit":4755,"writer":4756,"oriz":4757,"quival":4758,"internal":4759,"Ġfilepath":4760,"elem":4761,",))":4762,"Tag":4763,"{}\".":4764,"Ġtraining":4765,"ĠIndexError":4766,"Ġcla":4767,"Ġmetrics":4768,"getattr":4769,"measure":4770,"Ġeven":4771,"Ġregistered":4772,"Ġenable":4773,"ALL":4774,"seek":4775,"Ġactions":4776,"allback":4777,"processing":4778,"direction":4779,"auss":4780,"structor":4781,"splitext":4782,"cn":4783,"compat":4784,"Ġverb":4785,"antity":4786,"Ġlogin":4787,"grees":4788,"aving":4789,"ĠIter":4790,"power":4791,"Ġmatplotlib":4792,"ssl":4793,"Ġans":4794,"rstrip":4795,"COL":4796,"inc":4797,"Ġtile":4798,"orld":4799,"`:":4800,"mer":4801,"radius":4802,"Ġscalar":4803,"Ġtargets":4804,"div":4805,"Server":4806,"lan":4807,"Ġfreq":4808,"lso":4809,"Ġusage":4810,"Ġreply":4811,".'''":4812,"\\'":4813,"System":4814,"Ġ~":4815,"Ġconver":4816,"Ġarchive":4817,"ifiers":4818,"Ġexplicit":4819,"Ġsens":4820,"Ġautomatically":4821,"outputs":4822,"asis":4823,"Ġnested":4824,"sumer":4825,"ifest":4826,"correct":4827,"Ġprovider":4828,"created":4829,"Ġaggreg":4830,"estim":4831,"Ġve":4832,"Ġcover":4833,"84":4834,"Ġexport":4835,"Ġmarker":4836,")',":4837,"pdf":4838,"Params":4839,"onal":4840,"enu":4841,"mem":4842,"rules":4843,"GS":4844,"upload":4845,"media":4846,"riteria":4847,"ĠOrderedDict":4848,"HO":4849,"Ġdid":4850,"Ġlater":4851,"cwd":4852,"gz":4853,"Ġpositions":4854,"Ġagainst":4855,"ector":4856,"transaction":4857,"Ġstatement":4858,"Ġdefining":4859,"Level":4860,"walk":4861,"Ċĉĉĉĉ":4862,"Ġdig":4863,"Ġselection":4864,"Ġscheme":4865,"Ġrepe":4866,"Ġbins":4867,"Ġsep":4868,"ber":4869,"EM":4870,"Store":4871,"present":4872,"Ġknow":4873,"Ġsources":4874,"Spec":4875,"Ġps":4876,"Ġembed":4877,"sock":4878,"functions":4879,"Ġblocks":4880,"Ġyaml":4881,"Ġbeta":4882,"Ġcoords":4883,"MAX":4884,"Ġ'':":4885,"ube":4886,"Address":4887,"ender":4888,"del":4889,"zen":4890,"ĠRequest":4891,"packet":4892,"Color":4893,"Parameter":4894,"AND":4895,"....":4896,"]],":4897,"Ġchunks":4898,"END":4899,"Hel":4900,"boot":4901,"holder":4902,"coordin":4903,"Ġfixed":4904,"accept":4905,"Ġinv":4906,"Ġmanager":4907,"Ġretrieve":4908,"PS":4909,"hing":4910,"95":4911,"operator":4912,"havi":4913,"ĠDis":4914,"ygon":4915,"End":4916,"ptr":4917,"Ġimplemented":4918,"ROM":4919,"rupt":4920,"ferred":4921,"ĠAlso":4922,"otype":4923,"topic":4924,"Ġts":4925,"Ġpr":4926,"Ġworker":4927,"Ġconv":4928,"Ġarea":4929,"Ġissue":4930,"Ġversions":4931,"Sign":4932,"Ġpers":4933,"rowser":4934,"equal":4935,"Ġproblem":4936,"utc":4937,"ula":4938,"ral":4939,"pm":4940,"Ġ*=":4941,"Ġiterator":4942,"Ġagent":4943,"Ġregistry":4944,"partial":4945,"Row":4946,"Ġspa":4947,"asset":4948,"Ġworks":4949,"uess":4950,"35":4951,"Ġmatched":4952,"ĠError":4953,"GB":4954,"logical":4955,"Ġorg":4956,"DIR":4957,"ĠObject":4958,"Ġstill":4959,"DATA":4960,"'|'":4961,"ĠBuild":4962,"td":4963,"prev":4964,"pick":4965,"Ġnone":4966,")+":4967,"Ġreader":4968,"Ġfiltered":4969,"Ad":4970,"Ġtopic":4971,"lihood":4972,"xim":4973,"Ġprocessed":4974,"Ġengine":4975,"lst":4976,"Ġpartial":4977,"INFO":4978,"ĊĠĠĠĠĠĠĠĠĠĠĠĠĠĠĠĠĠĠĠĠĠĠĠĠĠĠĠĠĠĠĠĠĠĠĠĠĠĠĠĠĠĠĠĠĠĠĠ":4979,"Ġmut":4980,"Ġsnapshot":4981,"br":4982,"Ġpipe":4983,"Ġcov":4984,"Ġiteration":4985,"tack":4986,"Ġcoeffici":4987,"ĠImage":4988,"Ġimplementation":4989,"Ġremaining":4990,"ocument":4991,"const":4992,"seg":4993,"ĠId":4994,"/'":4995,"Ġpower":4996,"Ġhapp":4997,"Output":4998,"Ġvals":4999,"sto":5000,"Ġglob":5001,"Ġhook":5002,"ĠSh":5003,"Proper":5004,"Ġhelper":5005,"google":5006,"free":5007,"Ġtool":5008,"Ġsequences":5009,"serve":5010,"parsed":5011,"Ġtransp":5012,"owner":5013,"rency":5014,"Ġcert":5015,"tables":5016,"andidates":5017,"Ġrepr":5018,"ĠĊĠĠĠĠĠĠĠĠĠĠĠ":5019,"inner":5020,"]).":5021,"resolve":5022,"tention":5023,".'.":5024,"normalize":5025,"ĠCompute":5026,"Job":5027,"frames":5028,"dence":5029,"lier":5030,"Ġrules":5031,"96":5032,"ssh":5033,"proto":5034,"ĠĠĠĠĠĠĠĠĠĠĠĠĠ":5035,"worker":5036,"em":5037,"services":5038,"85":5039,"Ġbackground":5040,"uler":5041,"MAT":5042,"mar":5043,"archive":5044,"Ġgreater":5045,"choice":5046,"Ġpixel":5047,"Entry":5048,"\"\\":5049,"Pa":5050,"Ġcourse":5051,"Ġdelay":5052,"[:]":5053,"Ġ60":5054,"ierarch":5055,"reen":5056,"Unknown":5057,"zy":5058,"ond":5059,"Ġattach":5060,"=\"\"":5061,"keyword":5062,"osity":5063,"Ġtakes":5064,"ragma":5065,"ĠHandle":5066,"predict":5067,"loader":5068,"Ġapplied":5069,"Auto":5070,"ili":5071,"edit":5072,"selected":5073,"lag":5074,"alance":5075,"chor":5076,"tol":5077,"Range":5078,"(\"-":5079,"most":5080,"Ġdetermin":5081,"_(":5082,"apping":5083,"Ġanaly":5084,"Ġlayout":5085,"Ġdev":5086,"Ġconstruct":5087,"ttp":5088,"Unable":5089,"usage":5090,"36":5091,"specimen":5092,"escape":5093,"hy":5094,"Ġasynchronous":5095,"identity":5096,"Ġactiv":5097,"Ġwritten":5098,"Ġinterpol":5099,"')]":5100,"tainer":5101,"Ġrv":5102,"Ġhostname":5103,"/(":5104,"=['":5105,"PA":5106,"dn":5107,"pointer":5108,"flux":5109,"Ġsat":5110,"Sc":5111,"Ġgr":5112,"Dir":5113,"MENT":5114,"VERSION":5115,"ĠSub":5116,"Ġpackages":5117,"LECT":5118,"flush":5119,"Ġworking":5120,"Part":5121,"On":5122,"ĠBe":5123,"ARN":5124,");":5125,"Num":5126,"Ġbad":5127,"strument":5128,"Ġlayers":5129,"Ġrelated":5130,"ĠĠĠĠĠĠĠĠĠĠĠĠĠĠ":5131,"packages":5132,"Ġhistory":5133,"Ġesca":5134,"ĊĠĠĠĠĠĠĠĠĠĠĠĠĠĠĠĠĠĠĠĠĠĠĠĠĠĠĠĠĠĠĠĠĠĠĠĠĠĠĠĠĠĠĠĠĠ":5135,"fied":5136,">>":5137,"Ġlate":5138,"Ġdec":5139,"bam":5140,"Ġtar":5141,"oo":5142,"Ġeps":5143,"refresh":5144,"creen":5145,"ount":5146,"Ġnull":5147,"emon":5148,"Ġå":5149,"Ġ\\'":5150,"Ġ32":5151,"slug":5152,"magic":5153,"ĠNotImplementedError":5154,"feed":5155,"uses":5156,"png":5157,"Ġprocessing":5158,"findall":5159,"Ġpipeline":5160,"Ġlinks":5161,"ĠNode":5162,"Ġaverage":5163,"ij":5164,"ĠOper":5165,"Ġnotification":5166,"ValueError":5167,"Ġasset":5168,"Ġvirtual":5169,"Ġintegr":5170,"ĠInitial":5171,"relation":5172,"Ref":5173,"pal":5174,"oring":5175,"aa":5176,"embed":5177,"ĠCan":5178,"ĠArguments":5179,"calc":5180,"Ġtick":5181,"SIG":5182,"ACE":5183,"mitted":5184,"Ġproc":5185,"PY":5186,"roid":5187,"calcul":5188,"versed":5189,"Ġindexes":5190,"Ġpredict":5191,"ship":5192,"Ġfilenames":5193,"optim":5194,"Ġprior":5195,"LL":5196,"figure":5197,"requests":5198,"Handle":5199,"reverse":5200,"Ġsimp":5201,"Ġvari":5202,"Ġ[-":5203,"ĠInput":5204,"detail":5205,"quivalent":5206,"rev":5207,"iling":5208,"Ġmachine":5209,"____":5210,"cogn":5211,"Ġnothing":5212,"Write":5213,"stract":5214,"ceed":5215,"Ġrect":5216,"inds":5217,"refs":5218,"Ġada":5219,"Ġspecification":5220,"analysis":5221,"constants":5222,"Ġnormalized":5223,"Ġsolution":5224,"Ed":5225,"pg":5226,")(":5227,"Python":5228,"Ġmembers":5229,"(\"/":5230,"olds":5231,"splitlines":5232,"Ġconversion":5233,"see":5234,"Ġconnected":5235,"band":5236,"Ġcurve":5237,"pairs":5238,"Ġcompar":5239,"77":5240,"TED":5241,"Ġprimary":5242,"attach":5243,"Ġcases":5244,"Ġsec":5245,"Ġdeprecated":5246,"NG":5247,"terms":5248,"Ġown":5249,".\\":5250,"tl":5251,"ied":5252,"decor":5253,"Qt":5254,"ĠForm":5255,"CM":5256,"PER":5257,"scores":5258,"subplot":5259,"ĠOpen":5260,"wb":5261,"big":5262,"ailf":5263,"][\"":5264,"indexes":5265,"atype":5266,"Ġreci":5267,"('{":5268,"Ġcore":5269,"failed":5270,"aggreg":5271,"aw":5272,"Ġfun":5273,"lict":5274,"='',":5275,"family":5276,"Ġloss":5277,"Ġproto":5278,"gers":5279,"argin":5280,"blob":5281,"eries":5282,"lyph":5283,"linear":5284,"aut":5285,"udio":5286,"Ġlineno":5287,"ftime":5288,"alf":5289,"chars":5290,"cryption":5291,"Ġobs":5292,"quire":5293,"signed":5294,"Ġord":5295,"prompt":5296,"hosts":5297,"wards":5298,"cio":5299,"ĠSy":5300,"Ġspan":5301,"CONFIG":5302,"security":5303,"AX":5304,"NE":5305,"Ġregular":5306,"actor":5307,"ĠReg":5308,"ĠHTML":5309,"shut":5310,"pology":5311,"Length":5312,"[(":5313,"Ġversionadded":5314,"tein":5315,"Ġdiag":5316,"peak":5317,"posure":5318,"ĠOut":5319,"vol":5320,"Ġcatalog":5321,"HER":5322,"Build":5323,"ĠNe":5324,"selection":5325,"ĠStart":5326,"Ġstrict":5327,"Device":5328,"If":5329,"instances":5330,"Ġdriver":5331,"Ġtheta":5332,"lices":5333,"phase":5334,"Ġ:]":5335,"istic":5336,"Sp":5337,"rpc":5338,"DEBUG":5339,"amount":5340,"sence":5341,"illar":5342,"Ġmass":5343,"orter":5344,"Ġparsing":5345,"1000":5346,"Ġtor":5347,"voke":5348,"tar":5349,"break":5350,"Ġcollect":5351,"Label":5352,"handlers":5353,"disk":5354,"radi":5355,"menu":5356,"ring":5357,"pture":5358,"cached":5359,"Search":5360,"Ġsimilar":5361,"ï¼Į":5362,"Ġisn":5363,"\"'":5364,"rypt":5365,"Ġclosed":5366,"ORT":5367,"false":5368,"Ġ[{":5369,"Ġaround":5370,"Max":5371,"slot":5372,"lists":5373,"ĠEach":5374,"Ġblob":5375,"ipv":5376,"Ġresolve":5377,"Ġsomething":5378,"UID":5379,"ĠImportError":5380,"sr":5381,"Su":5382,"Ġdescri":5383,"Ġ?":5384,"ĠCall":5385,"Ġrespect":5386,"Ġprecision":5387,"plan":5388,"Ġnoise":5389,"priority":5390,"question":5391,"linalg":5392,"Ġtz":5393,"gnitude":5394,"Ġitself":5395,"grad":5396,"iler":5397,"quired":5398,"bad":5399,"ĠModel":5400,"clar":5401,"Ġuuid":5402,"Ġcandidate":5403,"wiki":5404,"environment":5405,"notification":5406,"Ġindividual":5407,"digit":5408,"Ġstage":5409,"Ġ\"'":5410,".\".":5411,"Ġeval":5412,"sections":5413,"Ġstatic":5414,"Ġpack":5415,"Ġexperiment":5416,"override":5417,"Ġdays":5418,"70":5419,"export":5420,"Ġseen":5421,"cover":5422,"upported":5423,"enate":5424,"Task":5425,"Ġcoordinate":5426,"Ġannotation":5427,"+'":5428,"Ġtables":5429,"unknown":5430,"connected":5431,"editor":5432,"Ġmedia":5433,"Ġden":5434,"reason":5435,"Ġratio":5436,"allowed":5437,"ipping":5438,"Ġsto":5439,"ä»":5440,"Ġequ":5441,"Ġpragma":5442,"des":5443,"ONE":5444,"Ġturn":5445,"oto":5446,"HEAD":5447,"ĠResponse":5448,"maked":5449,"ĊĠĠĠĠĠĠĠĠĠĠĠĠĠĠĠĠĠĠĠĠĠĠĠĠĠĠĠĠĠĠĠĠĠĠĠĠĠĠĠĠĠĠĠĠĠĠ":5450,"flat":5451,"26":5452,"tour":5453,"px":5454,"Ġscores":5455,"Ġ15":5456,"bus":5457,"ptime":5458,"Ġtran":5459,"PIPE":5460,"icle":5461,"dc":5462,"Ġxrange":5463,"ĠGenerate":5464,"Ġoutfile":5465,"*.":5466,"Logger":5467,"Ġadmin":5468,"Ġmerged":5469,"Ġ255":5470,"Ġfore":5471,"ysical":5472,"Ċĉĉĉĉĉ":5473,"geo":5474,"ĠST":5475,"Ġactually":5476,"levels":5477,"ueue":5478,"Work":5479,"ared":5480,"ĊĊĠĠĠĠĠĠĠĠĠĠĠĠĠĠĠĠĠĠĠĠĠĠĠ":5481,"quiet":5482,"ongo":5483,"destination":5484,"Ġuid":5485,"ĠGiven":5486,"ĠSalt":5487,"iver":5488,".%":5489,"hi":5490,"Ġreturning":5491,"BO":5492,"ĠDB":5493,"nu":5494,"Ġsecret":5495,"urls":5496,"Ġsock":5497,"IST":5498,"ĠThere":5499,"âĶ":5500,"unic":5501,"Ġunpack":5502,"IF":5503,"Ġener":5504,"olders":5505,"Ġep":5506,"ummy":5507,"All":5508,"Ġresid":5509,"monitor":5510,"Ġdependencies":5511,"Ġrecursive":5512,"\"][":5513,"semb":5514,"else":5515,"Page":5516,"Ġfh":5517,"arc":5518,"Column":5519,"clusive":5520,"CL":5521,"ider":5522,"bi":5523,"aves":5524,"Ġoperations":5525,"Ġlooking":5526,"soft":5527,"nr":5528,"rase":5529,"Ġdocumentation":5530,"Ġforward":5531,"ULL":5532,"9999":5533,"hat":5534,"Ġdataframe":5535,"MAP":5536,"adcast":5537,"crete":5538,"Ġmodifi":5539,"Can":5540,"rad":5541,"fasta":5542,"Ġattempt":5543,"Ġjobs":5544,"trip":5545,"ĠMessage":5546,"anded":5547,"ritical":5548,"Ġfs":5549,"Ġencode":5550,"Ġsecurity":5551,"subprocess":5552,"itespace":5553,"Ġwriter":5554,"ĠIDs":5555,"Ġdirectories":5556,"Ġbutton":5557,"strftime":5558,"Ġdue":5559,"FIX":5560,"You":5561,"Ġmx":5562,"Ġ'.'":5563,"Dyn":5564,"ever":5565,"park":5566,"visible":5567,"algorithm":5568,"lang":5569,"fc":5570,"Ġ'#":5571,"Ġmultip":5572,"joint":5573,"Ġlinear":5574,"Optional":5575,"_%":5576,"relative":5577,"AF":5578,"enable":5579,"Ġbehavi":5580,"closed":5581,"Open":5582,"ticks":5583,"78":5584,"snapshot":5585,"čĊĠĠĠĠĠĠĠĠĠĠĠĠĠĠĠĠĠĠĠ":5586,"ĠFirst":5587,"Ġunknown":5588,"suppress":5589,"semble":5590,"ading":5591,"arest":5592,"button":5593,"pose":5594,"Ġdeploy":5595,"ctools":5596,"Ġflux":5597,"selector":5598,"Ġbuilt":5599,"RED":5600,"Ġ'{}'":5601,"()),":5602,"props":5603,"Ġæ":5604,">'":5605,"Ġdeg":5606,"!\")":5607,"ĊĊĊĠĠĠĠĠĠĠ":5608,"Ġdx":5609,"Ġaltern":5610,"forward":5611,"simple":5612,"uble":5613,"ategy":5614,"Ġspect":5615,"ĠWrite":5616,"fft":5617,"Ġexternal":5618,"Ġterms":5619,"Ġ'/'":5620,"scalar":5621,"Ġconfigured":5622,"CF":5623,"sage":5624,"Ġshutil":5625,"ĠNOTE":5626,"modified":5627,"configs":5628,"resid":5629,"Ġshift":5630,"pages":5631,"ĠCO":5632,"tage":5633,"Min":5634,"FIEL":5635,"ĠCalculate":5636,"PTION":5637,"ilon":5638,"Ġflatten":5639,"Ġsegments":5640,"Ġslot":5641,"Ġmime":5642,"CTION":5643,"inder":5644,"Ġtemperature":5645,"Ġsurface":5646,"Change":5647,"Variable":5648,"Ġservices":5649,"week":5650,"Ġcreating":5651,"ĠWindows":5652,"Parameters":5653,"Layer":5654,"=='":5655,"Ġbottom":5656,"marker":5657,"ract":5658,"switch":5659,"CI":5660,"ically":5661,"Is":5662,"devices":5663,"Ġupdates":5664,"ĠFunction":5665,"ĠCreates":5666,"Ġms":5667,"kit":5668,"Ġseparate":5669,"push":5670,"PUT":5671,"segments":5672,"library":5673,"onical":5674,"many":5675,"derer":5676,"Ġcomments":5677,"Pri":5678,"Ġmis":5679,"Ġidentity":5680,"DynClass":5681,"Ġ).":5682,"Ġpatch":5683,"credentials":5684,"transport":5685,"extmethods":5686,"Ġextmethods":5687,",),":5688,"Ġflat":5689,"eq":5690,"course":5691,"bg":5692,"Ġreading":5693,"lc":5694,"Ġpur":5695,"lar":5696,"ĠAc":5697,"Ġvertex":5698,"Ġcertificate":5699,"ĠPO":5700,"evalu":5701,"prepare":5702,"ubclass":5703,"orizont":5704,"versions":5705,"Act":5706,"Ġquote":5707,"']):":5708,"ĠBack":5709,"repository":5710,"Ġmapped":5711,"pipeline":5712,"_:":5713,"minion":5714,"sizes":5715,"aussian":5716,"ĠSo":5717,"JSON":5718,"Ġpriority":5719,"ĠAss":5720,"sessment":5721,"28":5722,"29":5723,"builder":5724,"Ġexpand":5725,"Ġ-----":5726,"forms":5727,"atrix":5728,"redirect":5729,"74":5730,"deepcopy":5731,"ierarchy":5732,"Ġauthentication":5733,"Ġallows":5734,"supported":5735,"rum":5736,"listdir":5737,"uman":5738,"Ġcompare":5739,"repe":5740,"Ġtrigger":5741,"Network":5742,"reply":5743,"geometry":5744,"Down":5745,"ĠNotes":5746,"Ġ30":5747,"Ġargparse":5748,"cred":5749,"255":5750,"Ġcells":5751,"Ġpretty":5752,"Int":5753,"ĠURI":5754,"Ġchoice":5755,"padding":5756,"star":5757,"named":5758,"nsure":5759,"stage":5760,"Ġsentence":5761,"which":5762,"Ġsubset":5763,"ado":5764,"ĠTry":5765,"Ġpred":5766,"external":5767,"pus":5768,"poly":5769,"Ġpeak":5770,"Ġuseful":5771,"`)":5772,"Ġrho":5773,"screen":5774,"Ġworkflow":5775,"Ġordered":5776,"XT":5777,"double":5778,"Ġwx":5779,"ouse":5780,"vlan":5781,"ordered":5782,"Ġswitch":5783,"Ġbig":5784,"viation":5785,"plugins":5786,"Ġkeywords":5787,"ĠClo":5788,"(%":5789,"Ġpermission":5790,"USER":5791,"era":5792,"Ġ\"\")":5793,"gent":5794,"CA":5795,"enter":5796,"Ġcalculated":5797,"Ġrefresh":5798,"(\"--":5799,"Ġsparse":5800,"Ġ(-":5801,"Ġpickle":5802,"pat":5803,"Ġedit":5804,"uation":5805,"leaf":5806,"ĠFilter":5807,"Ġcomplex":5808,"lished":5809,"21":5810,"tod":5811,"ational":5812,"Ġconstant":5813,"Ġfails":5814,"('/')":5815,"atory":5816,"Ġgood":5817,"rd":5818,"Ġinterpre":5819,"ison":5820,"rgb":5821,"program":5822,"Names":5823,"compress":5824,"ced":5825,"ĠText":5826,"Ġdefine":5827,"ĠQuery":5828,"keywords":5829,"igen":5830,"Ġtransition":5831,"CODE":5832,"Exist":5833,"rho":5834,"Match":5835,"Ġpopulate":5836,"ims":5837,"stanti":5838,"Only":5839,"Ġboot":5840,"Values":5841,"Ġretrie":5842,"Ġderiv":5843,"Ġgeometry":5844,"Ġtraceback":5845,"Ġcast":5846,"Over":5847,"maps":5848,"orth":5849,"Ġowner":5850,"makedirs":5851,"allet":5852,"Ġurllib":5853,"lastic":5854,"super":5855,"Header":5856,"istration":5857,"Ġband":5858,"erred":5859,"circ":5860,"future":5861,"distribution":5862,"Ġappe":5863,"Ġpermissions":5864,"publish":5865,"ail":5866,"Ġcalc":5867,"dp":5868,"ĠCur":5869,"DD":5870,"ulk":5871,"machine":5872,"ĠMo":5873,"Ġschedule":5874,"complex":5875,"chrom":5876,"dependencies":5877,"OF":5878,"typ":5879,"lapsed":5880,"Ġdouble":5881,"NOT":5882,"wn":5883,"inger":5884,"Ġpixels":5885,"{})":5886,"Ġphi":5887,"Ġshared":5888,"Ġ\")":5889,"omial":5890,"Ġscreen":5891,"Ġ(:":5892,"Ġreads":5893,"schedule":5894,"Ġnumeric":5895,"Ġmakes":5896,"ĠGenerated":5897,"ired":5898,"multip":5899,"major":5900,"andling":5901,"Remove":5902,"Ġrecur":5903,"wt":5904,"Ġmade":5905,"ĠClient":5906,"Ġcross":5907,"Ġprompt":5908,"PU":5909,"Red":5910,"price":5911,"LETE":5912,"Ġframes":5913,"Ġparticular":5914,"lv":5915,"~~":5916,"based":5917,"azure":5918,"Ġchecked":5919,"ocab":5920,"Ġsync":5921,"anner":5922,"runtime":5923,"Ġhidden":5924,"ĠOne":5925,"orizontal":5926,"Ġgu":5927,"Ġ24":5928,"06":5929,"ram":5930,":],":5931,"Ġrc":5932,"Ġtimezone":5933,"SD":5934,"emit":5935,"alth":5936,"Exit":5937,"Ne":5938,"ior":5939,"Ġpmag":5940,"ĠInter":5941,"Ġvol":5942,"ĠNew":5943,"timedelta":5944,"frequency":5945,"jac":5946,"transpose":5947,"Ġseg":5948,"stmt":5949,"Ġdevices":5950,"ĠProcess":5951,"Ġxy":5952,"ĠTra":5953,"Up":5954,"Ġnx":5955,"YY":5956,"ĠCON":5957,"ĠArray":5958,"Ġbasic":5959,"ĊĠĠĠĠĠĠĠĠĠĠĠĠĠĠĠĠĠĠĠĠĠĠĠĠĠĠĠĠĠĠĠĠĠĠĠĠĠĠĠĠĠĠĠĠĠĠĠĠĠĠĠ":5960,"Ġmanage":5961,"finite":5962,"Execution":5963,"ĠUT":5964,">\\":5965,"recv":5966,"threads":5967,"reads":5968,"Ġenviron":5969,"Ġsur":5970,"xs":5971,"roy":5972,"pending":5973,"bra":5974,"))]":5975,"Ġadjust":5976,"cap":5977,"ĠOn":5978,"tached":5979,"extensions":5980,"åĪ":5981,"enticated":5982,"('<":5983,"FS":5984,"ĠStop":5985,"Bo":5986,"Ġgate":5987,"ranches":5988,"^{":5989,"Ġlatest":5990,"Sequence":5991,"except":5992,"Ġparallel":5993,"CESS":5994,"existing":5995,"disable":5996,"mains":5997,"ĠTuple":5998,"ulated":5999,"osid":6000,"Ġcpu":6001,"virtual":6002,"-+-+-+-+":6003,"cheduler":6004,"Ġchoices":6005,"ffici":6006,"TA":6007,"čĊĊĠĠĠ":6008,"chr":6009,"ĠMax":6010,"rectory":6011,"zon":6012,"MIN":6013,"Api":6014,"analy":6015,"tle":6016,"dependent":6017,"Ġlevels":6018,"cale":6019,"bottom":6020,"gamma":6021,"PL":6022,"Ġev":6023,"ctionaries":6024,"updated":6025,"Ġfree":6026,"REQU":6027,"Ġequivalent":6028,"Ġlst":6029,"Ġdelimiter":6030,"Ġissubclass":6031,"cursively":6032,"aN":6033,"08":6034,"cha":6035,"WN":6036,"basic":6037,"Ġdescriptor":6038,"Ġincluding":6039,"Ġsampling":6040,"Ġlarge":6041,"39":6042,"Ġlimits":6043,"Ġindicating":6044,"MODE":6045,"ĠTensor":6046,"ĠĠĠĠĠĠĠĠĠĠĠĠĠĠĠĠĠĠĠĠĠĠĠ":6047,"ĠLoc":6048,"pipe":6049,"Ġselector":6050,"Ġwhose":6051,"Ġspeed":6052,"roles":6053,"readline":6054,"Results":6055,"ially":6056,"Ġresulting":6057,").__":6058,"ette":6059,"Ġbel":6060,"ffset":6061,"Ġmix":6062,"Ġ],":6063,"AME":6064,"using":6065,"Ġlc":6066,"Ġdocstring":6067,"gl":6068,"Ġ\"\",":6069,"docker":6070,"LOGGER":6071,"ĠMethod":6072,"([\"":6073,"ilent":6074,"('{}":6075,"mpler":6076,"Ġface":6077,"related":6078,"Ġassigned":6079,"With":6080,"Ġ{}).":6081,"Ġlang":6082,"Access":6083,"ĠHow":6084,"%%":6085,"Ġnu":6086,"Ġvectors":6087,"limits":6088,"ony":6089,"Ġvec":6090,"pers":6091,"diffe":6092,"mes":6093,"********":6094,"previous":6095,"Ġobtain":6096,"Ġsender":6097,"sites":6098,"')):":6099,"sparse":6100,"Ġones":6101,"covery":6102,"positions":6103,"Ġruntime":6104,"strap":6105,"descriptor":6106,"Ġpotential":6107,"Ġsubclass":6108,"endar":6109,"Ġcompatible":6110,"ORY":6111,"annotation":6112,"Ġes":6113,"getter":6114,"noise":6115,"Be":6116,"ĠFROM":6117,"Ġwrong":6118,"ĠElement":6119,"Find":6120,"Ġdecimal":6121,"Ġchrom":6122,"']),":6123,"encoded":6124,"chunks":6125,"vocab":6126,"Ġdd":6127,"workflow":6128,"HERE":6129,"Ġpoly":6130,"ĠState":6131,"moves":6132,")],":6133,"need":6134,"Ġmot":6135,"Func":6136,"ĊĠĠĠĠĠĠĠĠĠĠĠĠĠĠĠĠĠĠĠĠĠĠĠĠĠĠĠĠĠĠĠĠĠĠĠĠĠĠĠĠĠĠĠĠĠĠĠĠ":6137,"contin":6138,"ike":6139,"Ġthree":6140,"game":6141,"Ġenergy":6142,"Ġprocesses":6143,"statement":6144,"Ġentire":6145,"SELECT":6146,"effs":6147,"EST":6148,"boolean":6149,"âĢ":6150,"hour":6151,"logs":6152,"MI":6153,"Container":6154,"charact":6155,"coming":6156,"SL":6157,"ARNING":6158,"car":6159,"ĠAuth":6160,"ART":6161,"grams":6162,"Ġok":6163,"aff":6164,"coordinates":6165,"nl":6166,"uplicates":6167,"################################":6168,"DATE":6169,"lying":6170,"CRE":6171,"ĠMust":6172,"mot":6173,"neighbors":6174,"Ġresolution":6175,"_'":6176,"sect":6177,"plus":6178,"Ġreferences":6179,"Ġmount":6180,"aws":6181,"Ġdensity":6182,"click":6183,"Speci":6184,"Ġconcat":6185,"Ġescape":6186,"Ġssh":6187,"fidence":6188,"Ġcaller":6189,"Ġpeer":6190,"Ġwarn":6191,"blems":6192,"ĠNOT":6193,"(('":6194,"kip":6195,"Ġsv":6196,"GR":6197,"Ġpatterns":6198,"FFFF":6199,"servations":6200,"maximum":6201,"categories":6202,"Ġpan":6203,"Ġvide":6204,"Ġchecking":6205,"tor":6206,"ĠOver":6207,"attemp":6208,"SV":6209,"Ġvs":6210,"Child":6211,"Ġfraction":6212,"Collection":6213,"tep":6214,"pixel":6215,"fixed":6216,"Ġradi":6217,"perm":6218,"ĠDEFAULT":6219,"nc":6220,"Ġ])":6221,"[::-":6222,"ĠResource":6223,"ĠDictionary":6224,"Ġdefinitions":6225,"([[":6226,"latest":6227,"prior":6228,"Delete":6229,"lour":6230,"locations":6231,"è¿":6232,"rozen":6233,"cod":6234,"unset":6235,"Reference":6236,"Ġ\\\\":6237,"ĠUnicode":6238,"Meta":6239,"Ġinitialize":6240,"Ġgeo":6241,"ital":6242,"Ġrev":6243,"Keys":6244,"Ġcodes":6245,"Ġ19":6246,"Ġwalk":6247,"ism":6248,"RC":6249,"Ġdirs":6250,"(\"{":6251,"ĠGraph":6252,"sertion":6253,"Ġinplace":6254,"Ġmp":6255,"Ġdjango":6256,"primary":6257,"Ġvertices":6258,"minimum":6259,"Ġasyncio":6260,"adapter":6261,"Module":6262,"](":6263,"css":6264,"Ġrotation":6265,"Ġri":6266,"ka":6267,"bank":6268,"76":6269,"Ġstarted":6270,":.":6271,"ĠPlease":6272,"Ġhit":6273,"Ġtail":6274,"ensure":6275,"44":6276,"Property":6277,"tection":6278,"Ġunless":6279,"anization":6280,"Ġminutes":6281,"MB":6282,"Ġkeyid":6283,"Ġcontroller":6284,"symbols":6285,"Timeout":6286,"Vector":6287,"OUT":6288,"Ġbuilder":6289,"imple":6290,"pandas":6291,"redis":6292,"Ġiterations":6293,"Ġconditions":6294,"Ġvars":6295,"FORMAT":6296,"lstrip":6297,"ĠOutput":6298,"New":6299,"comments":6300,"Ġ50":6301,"izing":6302,"black":6303,"Ġprobability":6304,"Ġ'\"":6305,"Ġvocab":6306,"Ġeditor":6307,"cycle":6308,"processor":6309,"tau":6310,"Back":6311,"ĊĊĠĠĠĠĠĠĠĠĠ":6312,"Ġsigned":6313,"Ġtxt":6314,"callable":6315,"Ġproduce":6316,"URE":6317,"tn":6318,"genes":6319,"è¯":6320,"enari":6321,"ffff":6322,"ags":6323,"Ġraises":6324,")')":6325,"AUT":6326,"uer":6327,"Ġanything":6328,"INTER":6329,"Pol":6330,"qs":6331,"Ġdegrees":6332,"Ġmeas":6333,"ĠUnion":6334,"curacy":6335,"Target":6336,"effect":6337,"Ġcard":6338,"Ġsymbols":6339,"Ġetree":6340,"Ġcost":6341,"$',":6342,"Ġgamma":6343,"bias":6344,"}]":6345,"...,":6346,"Cache":6347,"ĠLe":6348,"Ġqueryset":6349,"Ġqual":6350,"LINE":6351,"Ġenough":6352,"Ġadding":6353,"Ġconstraints":6354,"ildcard":6355,"allable":6356,"Ġdigest":6357,"Ġcomputed":6358,"ĠSets":6359,"scripts":6360,"Ġfinished":6361,"Ġ64":6362,"curve":6363,"Ġbbox":6364,"Ġmem":6365,"Ġdocker":6366,"Ġrequirements":6367,"yles":6368,"lec":6369,"Ġmodify":6370,"Ġear":6371,"Ġwhole":6372,"Ġcos":6373,"det":6374,"Ġdicts":6375,"ĠExtract":6376,"mazon":6377,"yntax":6378,"sel":6379,"Ġmagic":6380,"gateway":6381,"levant":6382,"Ali":6383,"peer":6384,"Pl":6385,")\"\"\"":6386,"requencies":6387,"FC":6388,"Ġpull":6389,"oted":6390,"ird":6391,"ranges":6392,"tran":6393,"Ġcookie":6394,"controller":6395,"Missing":6396,"Port":6397,"atial":6398,"Ġtimedelta":6399,"Ax":6400,"Ġ\"<":6401,"Ġoverlap":6402,"))[":6403,"permission":6404,"mx":6405,"entifier":6406,"rv":6407,"prog":6408,"Ġsubnet":6409,"Ġalignment":6410,"Ġcer":6411,"anit":6412,"Ġss":6413,"Cloud":6414,"Ġvery":6415,"cel":6416,"Ġstarts":6417,"vertices":6418,"Ġmenu":6419,"nx":6420,"views":6421,"Ġboto":6422,"Ġdocs":6423,"09":6424,"mq":6425,"(\".":6426,"reci":6427,"Ġdictionaries":6428,"CHE":6429,"atives":6430,"ĊĠĠĠĠĠĠĠĠĠĠĠĠĠĠĠĠĠĠĠĠĠĠĠĠĠĠĠĠĠĠĠĠĠĠĠĠĠĠĠĠĠĠĠĠĠĠĠĠĠĠ":6431,"cid":6432,"Ġhappen":6433,"CAL":6434,"Ġthreads":6435,"ĊĠĠĠĠĠĠĠĠĠĠĠĠĠĠĠĠĠĠĠĠĠĠĠĠĠĠĠĠĠĠĠĠĠĠĠĠĠĠĠĠĠĠĠĠĠĠĠĠĠ":6436,"Thread":6437,"Ġfamily":6438,"LS":6439,"asc":6440,"Ġconst":6441,"Ġcloud":6442,"ĠWork":6443,"DR":6444,"ja":6445,"ĠThese":6446,"Ġaudio":6447,":`.":6448,"pab":6449,"æĸ":6450,"'ll":6451,"Ġlogs":6452,"umbna":6453,"servers":6454,"Ġ11":6455,"Bin":6456,"Ġintervals":6457,"Ġbytearray":6458,"Ġtemporary":6459,"Ġpublish":6460,"bre":6461,"umed":6462,"urations":6463,"DA":6464,"Ġalle":6465,"Ġcompleted":6466,"Ġpages":6467,"validation":6468,"Ġpie":6469,"Initial":6470,"dens":6471,"mav":6472,"And":6473,"agraph":6474,"PT":6475,"Ġlight":6476,"Ġconstructor":6477,"energy":6478,"Ġseparator":6479,"dictionary":6480,"constant":6481,")\",":6482,"dates":6483,"video":6484,"average":6485,"Ġwa":6486,"45":6487,"vered":6488,"cells":6489,"Ġbus":6490,"quee":6491,"Ġquant":6492,"Serial":6493,"Ġdynamic":6494,"ĠDesc":6495,"\">":6496,"Tuple":6497,"Ġstmt":6498,"sheet":6499,"!')":6500,"Ġdifference":6501,"æľ":6502,"cross":6503,"Ġclip":6504,"dimensions":6505,"Print":6506,"Ġrecent":6507,"Bad":6508,"cost":6509,"rsplit":6510,"(\"'":6511,"osite":6512,"Ġprevent":6513,"READ":6514,"mc":6515,"bbox":6516,"=',":6517,"oauth":6518,"unn":6519,"curr":6520,"Ġboundary":6521,"mis":6522,"verb":6523,"dm":6524,"calls":6525,"Ġplease":6526,"imit":6527,"okies":6528,"conver":6529,"solution":6530,"ĠTake":6531,"specific":6532,"Types":6533,"':'":6534,"Temp":6535,"Generate":6536,"Ġcontact":6537,"vertex":6538,"manage":6539,"Ġcopi":6540,"pin":6541,"Ġprepare":6542,"sequences":6543,"Ġrdf":6544,"deploy":6545,"Ġintegers":6546,"cutoff":6547,"patterns":6548,"rences":6549,"uest":6550,"ientation":6551,"Var":6552,"wave":6553,"Ġdepending":6554,"Ġspaces":6555,"Ġhard":6556,"åĲ":6557,"Ġ``'":6558,"mv":6559,"crement":6560,"Uni":6561,"509":6562,"ĠHttp":6563,"Please":6564,"coe":6565,"stems":6566,"white":6567,"Ġsubscription":6568,"jid":6569,"Formatter":6570,"gu":6571,"teger":6572,"Ġpt":6573,"Ġaddresses":6574,"ully":6575,"Window":6576,"weet":6577,"Control":6578,"ised":6579,"Ġpress":6580,"stdin":6581,"Ġ({":6582,"31":6583,"Ġchecksum":6584,"Ġeverything":6585,"Ġanswer":6586,"Description":6587,"lengths":6588,"Ġcv":6589,"Ġcmap":6590,"itation":6591,"licies":6592,"atoms":6593,"()}":6594,"speed":6595,"Ġimmediate":6596,"concatenate":6597,"outfile":6598,"zz":6599,"mutation":6600,"HEADER":6601,"adjust":6602,"Ġgive":6603,"rou":6604,"expanduser":6605,"!!":6606,"Ġslug":6607,"clusters":6608,"('#":6609,"Ġtrunc":6610,"Ġdates":6611,"Ġbetter":6612,"Ġlocations":6613,":,":6614,"Ġreversed":6615,"Ġbasis":6616,"angles":6617,"locals":6618,"Ġevaluate":6619,"ĠTable":6620,"Ġoutside":6621,"Helper":6622,"Metadata":6623,"Ass":6624,"Ġargv":6625,"Ġblank":6626,"pout":6627,"Core":6628,"Ġshut":6629,"king":6630,"}/{":6631,"FT":6632,"decimal":6633,"utation":6634,"Ġgradient":6635,"ĠAd":6636,"choices":6637,"detect":6638,"rive":6639,"micro":6640,"mbo":6641,"lid":6642,"standard":6643,"Dataset":6644,"Ġgrad":6645,"ĠPlot":6646,"iterator":6647,"bb":6648,"(\"{}":6649,"Ġ|=":6650,"Ġhosts":6651,"cookie":6652,"luster":6653,"Ġ:,":6654,"ĠShould":6655,"ĠDef":6656,"Ġruns":6657,"Ġ=>":6658,"88":6659,"pher":6660,"vcf":6661,"ale":6662,"andatory":6663,"absolute":6664,"linspace":6665,"median":6666,"Ġprojection":6667,"ĠField":6668,"blue":6669,"()).":6670,"Configuration":6671,"ific":6672,"ĠFIX":6673,"LED":6674,"mags":6675,"posed":6676,"Ġparents":6677,"Ġpat":6678,"EV":6679,"Ġsupports":6680,"wap":6681,"Ġcred":6682,"Ġeas":6683,"router":6684,"formats":6685,"icon":6686,"entities":6687,"thresh":6688,"errno":6689,"ached":6690,"outer":6691,"RR":6692,"dig":6693,"stim":6694,"setting":6695,"Ġrepresents":6696,"Send":6697,"('[":6698,"canvas":6699,"Ġdependency":6700,"Ġexactly":6701,"tm":6702,"Ġsizes":6703,"ĠEnsure":6704,"Ġdecorated":6705,"ali":6706,"ĠVM":6707,"randint":6708,"Ġbra":6709,"ĊĠĠĠĠĠĠĠĠĠĠĠĠĠĠĠĠĠĠĠĠĠĠĠĠĠĠĠĠĠĠĠĠĠĠĠĠĠĠĠĠĠĠĠĠĠĠĠĠĠĠĠĠĠĠĠĠĠĠĠĠĠĠĠĠĠĠĠĠ":6710,"EC":6711,"Ġsuccessfully":6712,"OB":6713,"Ġplay":6714,"ĠAWS":6715,"ipher":6716,"Ġformatter":6717,"ĠYANGDynClass":6718,"\",\"":6719,"Schema":6720,"Ġvalidator":6721,"Ġteam":6722,"yes":6723,"how":6724,"TYPES":6725,"iles":6726,"aster":6727,"Ġnever":6728,"æķ":6729,"Pool":6730,"Ġduplicate":6731,"Ġincludes":6732,"Document":6733,"Ġcomma":6734,"Ġconsider":6735,"ceeded":6736,"sentence":6737,"Ġconnections":6738,"Ġcreates":6739,"Ġexecuted":6740,"Ġindicates":6741,"ev":6742,"SK":6743,"Ġsections":6744,"moved":6745,"rypto":6746,"Pos":6747,"plain":6748,"37":6749,"templates":6750,"Ġresolved":6751,"Ġitertools":6752,"Ġextracted":6753,"sertionError":6754,"sender":6755,"Ġexplicitly":6756,"experiment":6757,"parents":6758,"__))":6759,"Ġtransport":6760,"lify":6761,"Ġserialized":6762,"Ġgenes":6763,"Ġprice":6764,"Reader":6765,"intervals":6766,"])[":6767,"Ġsmooth":6768,"avg":6769,"Ġbuff":6770,"ĠRed":6771,"amera":6772,"GI":6773,"ĠEvent":6774,"gap":6775,"uch":6776,"Ge":6777,"Ġ::":6778,"Ġprob":6779,"ĠExec":6780,"Ġstatistics":6781,"ov":6782,"precation":6783,"visit":6784,"Ġclone":6785,"tice":6786,"ĠResult":6787,"alan":6788,"zoom":6789,"Order":6790,"Make":6791,"Ġcoefficients":6792,"href":6793,"Host":6794,"FIELD":6795,"Ġaz":6796,":\"":6797,"sat":6798,"Ġconstants":6799,"enticate":6800,"queeze":6801,"FLA":6802,"Position":6803,"hest":6804,"Ġshare":6805,"Ġsyntax":6806,"Multi":6807,"ability":6808,"tuples":6809,"Template":6810,"Feature":6811,"rees":6812,"tyle":6813,"corr":6814,"executable":6815,"Ġweek":6816,"Channel":6817,"Ġlonger":6818,"Ġexecutable":6819,"audio":6820,"connections":6821,"Ver":6822,"tifact":6823,"]-":6824,"Ġwave":6825,"ints":6826,"projects":6827,"Location":6828,"gether":6829,"cles":6830,"parsers":6831,"pdb":6832,"Ġpending":6833,"exe":6834,"Ġdefaultdict":6835,"license":6836,"outine":6837,"Expected":6838,"herit":6839,"Grid":6840,"Ġlongitude":6841,"Ġvideo":6842,"Ġcwd":6843,"Ġpointer":6844,"Connect":6845,"objective":6846,"eral":6847,"arrays":6848,"Ġabort":6849,"same":6850,">\"":6851,"getLogger":6852,"Ġsensor":6853,"Ġconsole":6854,"Ġcycle":6855,"Ut":6856,"Ġannotations":6857,"Ġlogical":6858,"integr":6859,"Ġcandidates":6860,"Ġtol":6861,"vectors":6862,"sla":6863,"dian":6864,"Ġcalculation":6865,"ibration":6866,"Url":6867,"Width":6868,"Ġ14":6869,"Ġencoder":6870,"Ġready":6871,"dispatch":6872,"))))":6873,"AV":6874,"Cell":6875,"subset":6876,"XML":6877,"annotations":6878,"LOCK":6879,"retcode":6880,"vor":6881,"/{}":6882,"tolist":6883,"lags":6884,"Ġgets":6885,"Ġ/=":6886,"Ġtax":6887,"ĠSQL":6888,"loor":6889,"timer":6890,"ĠDate":6891,"]}":6892,"sembly":6893,">,":6894,"fr":6895,"Options":6896,"shared":6897,"Ġinc":6898,"Ab":6899,"STAT":6900,"Ġred":6901,"uniform":6902,"legend":6903,"AA":6904,"sur":6905,"Ġinitialized":6906,"vance":6907,"Val":6908,"ĠOR":6909,"rouped":6910,"ffic":6911,"fpath":6912,"Ġdecoded":6913,"mix":6914,"Ġcontract":6915,"Ġcreation":6916,"Pass":6917,"Ġdisabled":6918,"Ġfactory":6919,"URI":6920,"Ġranges":6921,"rices":6922,"issue":6923,"operations":6924,"Ġdy":6925,"nested":6926,"Ġbackup":6927,"ECT":6928,"Ġ\"__":6929,"Char":6930,"Ġbehavior":6931,"ĠFIXME":6932,"jectory":6933,"Cursor":6934,"Struct":6935,"Role":6936,"SU":6937,"Ġls":6938,"âĶĢ":6939,"VALUE":6940,"Ġadapter":6941,"wcs":6942,"ceil":6943,"fficient":6944,"encoder":6945,",\"":6946,"workers":6947,"construct":6948,"ĠGroup":6949,"Enabled":6950,"Ġamp":6951,"least":6952,"cancel":6953,"rename":6954,"oa":6955,"Ġ'+":6956,"Ġxmlns":6957,"ĠPrint":6958,"Iteration":6959,"ategorical":6960,"CLA":6961,"Ġcc":6962,"byref":6963,"Ġperm":6964,"failure":6965,"SM":6966,"Ġstride":6967,"crypto":6968,"collect":6969,"VALID":6970,"Ġsla":6971,"activity":6972,"Bytes":6973,"expect":6974,"oked":6975,"Ġcause":6976,"Ġmonitor":6977,"ĊĊĠĠĠĠĠĠ":6978,"team":6979,"ĠSend":6980,"retries":6981,"Ġcountry":6982,"Ġbundle":6983,"rib":6984,"chat":6985,"LOW":6986,"neg":6987,"Ġprops":6988,"ables":6989,"Ter":6990,"ĠGo":6991,"cuit":6992,"Ġrevision":6993,"ĠthisObj":6994,"ravel":6995,"ssib":6996,"Ġpresence":6997,"uggest":6998,"Queue":6999,"fication":7000,"etc":7001,"locity":7002,"may":7003,"uffle":7004,"Ġmiddle":7005,"ĠSeries":7006,"ĠMulti":7007,"ĠCurrent":7008,"Ġstypes":7009,"38":7010,"ni":7011,"Ġloader":7012,"kwds":7013,"Ġ\"\":":7014,"Ids":7015,"]=":7016,"calculate":7017,"Ġtrip":7018,"wrapped":7019,"submit":7020,"Ġdims":7021,"Ġtempfile":7022,"Ġtb":7023,"ĠOperation":7024,"develo":7025,"constraints":7026,"quent":7027,"dro":7028,"Ġhour":7029,"appa":7030,"Compute":7031,"Dec":7032,"lations":7033,"Ġtrim":7034,"voice":7035,"nsupported":7036,"58":7037,"Ġwatch":7038,"Ġguess":7039,"Ġchars":7040,"Wrapper":7041,":].":7042,"contract":7043,"Ġplugins":7044,"Ġdigits":7045,":\")":7046,"Ġassumed":7047,"Ġthing":7048,"([(":7049,"ĠNow":7050,"ĠDelete":7051,"Ġklass":7052,"Ġobjective":7053,"Ġdegree":7054,"So":7055,"poll":7056,"Ġlatitude":7057,"alten":7058,"Ġlegend":7059,"\"%":7060,"alignment":7061,"umbnail":7062,"Ġprediction":7063,"Ġapproxim":7064,"built":7065,"Ġgeneral":7066,"><":7067,"07":7068,"Ġartifact":7069,"II":7070,"tb":7071,"Ġur":7072,"clone":7073,"Ġbeginning":7074,"pot":7075,"Ġdry":7076,"Ġhandling":7077,"ingerprint":7078,"numbers":7079,"mime":7080,":',":7081,"Ġfront":7082,"ulative":7083,"Ġreplaced":7084,"Ġer":7085,"ARY":7086,":\",":7087,"Ġresponses":7088,"pay":7089,"imal":7090,"completion":7091,"Ġtests":7092,"TEXT":7093,"issues":7094,"isters":7095,"Ent":7096,"ĠUsed":7097,"watch":7098,"formatter":7099,"bundle":7100,"Ġterminal":7101,"iteral":7102,"Component":7103,"Ġrather":7104,"hooks":7105,"__:":7106,"Ġvisual":7107,"isnan":7108,"()``":7109,"quad":7110,"Ġol":7111,"Ġcriteria":7112,"Ġtranslation":7113,"Ġconstraint":7114,"nor":7115,"ylabel":7116,"country":7117,"ĠDO":7118,"Storage":7119,"green":7120,"erial":7121,"likelihood":7122,"Ġneighbors":7123,"unce":7124,"callpoint":7125,"Import":7126,"liance":7127,"tension":7128,"contact":7129,"tences":7130,"Ġformats":7131,"VAR":7132,"ench":7133,"Ġpush":7134,"ĠAssertionError":7135,"Ġpin":7136,"mtime":7137,"Ġexamples":7138,"ĠIs":7139,"ĠGe":7140,"SY":7141,"background":7142,"'^":7143,"Ġnan":7144,"Ġestimated":7145,"Ġthrow":7146,"more":7147,"altenv":7148,"xlabel":7149,"Ġsleep":7150,"ĠAND":7151,"cmap":7152,"ini":7153,"================================":7154,"cnt":7155,"Ġperformed":7156,"lu":7157,"duction":7158,"ĠParameter":7159,"ios":7160,"actual":7161,"proj":7162,"Ġlengths":7163,"Ġhandlers":7164,"itter":7165,"Param":7166,"Ġdialog":7167,"ĠDon":7168,"windows":7169,"qq":7170,"Ġcr":7171,"amb":7172,"finished":7173,"isode":7174,"processed":7175,"ĠSearch":7176,"ĠSE":7177,"ĠWHERE":7178,"Ġsq":7179,"appro":7180,"Ġops":7181,"inations":7182,"reating":7183,"versal":7184,"dicts":7185,"Ġdatasets":7186,"fastq":7187,"Hash":7188,"stitution":7189,"Ġzer":7190,"NUM":7191,"Ġrh":7192,"legal":7193,"Ġaccepted":7194,"specs":7195,"Ġauthorization":7196,"pet":7197,"(\"_":7198,"ĠSome":7199,"Mapping":7200,"Ġmaps":7201,"solver":7202,"getcwd":7203,"Ġestimate":7204,"Rule":7205,"Ġ'-'":7206,"cognized":7207,"general":7208,"subscription":7209,"pur":7210,"multiple":7211,"Ġspecifying":7212,"Ġfg":7213,"Ġlocale":7214,"Ġsimply":7215,"Ġtogether":7216,"000000":7217,"java":7218,"since":7219,"dynamic":7220,"claration":7221,"------------":7222,"Ġke":7223,"404":7224,"Ġplan":7225,"ĠServer":7226,"xpath":7227,"ACHE":7228,"ExecutionError":7229,"phrase":7230,"Ġassignment":7231,"pickle":7232,"square":7233,"neighbor":7234,"ĠÐ":7235,"ĠSign":7236,"trigger":7237,"geom":7238,"regions":7239,"=''":7240,"ĠPol":7241,"ee":7242,"Ġvisible":7243,"ĠSave":7244,"HT":7245,"Ġlisten":7246,"Ġonto":7247,"Ġtaken":7248,"CR":7249,"ĠMark":7250,"Ġprobably":7251,"Ġcomparison":7252,"Ġmig":7253,"coef":7254,"Ġredis":7255,"Ġvariance":7256,"MOD":7257,"Fail":7258,"negative":7259,"]'":7260,"mol":7261,"Operation":7262,"Button":7263,"TRI":7264,"Ġtransfer":7265,"_[":7266,"ĠWill":7267,"ighest":7268,"Ġdiv":7269,"Ġconsist":7270,"precision":7271,"Ġcompatibility":7272,"Ġam":7273,"union":7274,"deps":7275,"pient":7276,"__[":7277,"ĊĊĠĠĠĠĠĠĠĠĠĠ":7278,"decorator":7279,"certificate":7280,"Ġaux":7281,"Plot":7282,"Ġhref":7283,"Cons":7284,"hip":7285,"ĠGET":7286,"./":7287,"WARNING":7288,"]',":7289,"inci":7290,"Ġssl":7291,"degree":7292,"Ġencrypted":7293,"Test":7294,"candidate":7295,"some":7296,":'":7297,"orization":7298,"Ġsid":7299,")``":7300,"sses":7301,"Ġcategories":7302,"Ġrestart":7303,"Ġct":7304,"ĠAR":7305,"Ġdetected":7306,"backup":7307,"Ġwriting":7308,"hdr":7309,"Ġincrement":7310,"ĠFormat":7311,"Ġarc":7312,"Ġfragment":7313,"ĠMan":7314,"hit":7315,"intersection":7316,"Ġreplacement":7317,"ĠClass":7318,"Ġsuc":7319,"dom":7320,"Ġcompression":7321,"quick":7322,"ĠPOST":7323,"Ġcertain":7324,"Ġpreviously":7325,"training":7326,"wx":7327,"contains":7328,"requirements":7329,"ace":7330,"ĠContent":7331,",,":7332,"ĠSim":7333,"Ġvisit":7334,"surface":7335,"panel":7336,"Ġextent":7337,"Ġwhite":7338,"ifact":7339,"kg":7340,"cally":7341,"Ġ'[":7342,"Ġgoogle":7343,"Ġsever":7344,"(\",":7345,"Ġentities":7346,"Ġmagnitude":7347,"Ġregions":7348,"Policy":7349,"ĠInitialize":7350,"alive":7351,"Use":7352,"console":7353,"65":7354,"Ġactor":7355,"Ġfallback":7356,"AML":7357,"Ġsol":7358,"contrib":7359,"currency":7360,"'},":7361,"cv":7362,"learn":7363,"means":7364,"Ġinverse":7365,"Ġpay":7366,"STATE":7367,"subnet":7368,"Ġbasename":7369,"ĠDetermine":7370,"filenames":7371,"heel":7372,"WORD":7373,"stall":7374,"Ġ25":7375,"Ġroles":7376,"kv":7377,"Ġurls":7378,"UST":7379,"Ġbg":7380,"NotFoundError":7381,"shard":7382,"([])":7383,"lope":7384,"probab":7385,"erce":7386,"Ġclusters":7387,"Ġobserved":7388,"pn":7389,"Local":7390,"æķ°":7391,"examples":7392,"mul":7393,"buff":7394,"Ġfully":7395,"Ġhome":7396,"acl":7397,"Ġrgb":7398,"UI":7399,"COM":7400,"osome":7401,"processes":7402,"Ġ1024":7403,"Ġsites":7404,"fh":7405,"ĠĠĠĠĠĠĠĠĠĠĠĠĠĠĠĠĠ":7406,"ĠSup":7407,"ĠInstance":7408,"79":7409,"Ġaut":7410,"translate":7411,"enario":7412,"eta":7413,":]:":7414,"Ġborder":7415,"funcs":7416,"JECT":7417,"Ġ^":7418,"Ġhistogram":7419,"roke":7420,"fully":7421,"PORT":7422,"])]":7423,"Extract":7424,"Ġmaybe":7425,"ĠNetwork":7426,"acc":7427,"Ġacross":7428,"Ġmanifest":7429,"compound":7430,"unity":7431,"Admin":7432,"ĊĠĠ":7433,"deriv":7434,"large":7435,"USE":7436,"Any":7437,"CB":7438,"utine":7439,"Ġ(_":7440,"=\"\",":7441,"ynomial":7442,"Ġspecifies":7443,"mega":7444,"calar":7445,"Ġmar":7446,"transition":7447,"density":7448,"hard":7449,"Ġrelevant":7450,"Ġneg":7451,"Ġhashlib":7452,"numeric":7453,"interpol":7454,"Ġrespon":7455,"sky":7456,"globals":7457,"Ġcum":7458,"Ġpot":7459,"dfs":7460,"GP":7461,"deleted":7462,"()`":7463,"ĠSequence":7464,"åĽ":7465,"irt":7466,"raft":7467,"('\"":7468,"locale":7469,"Post":7470,"SN":7471,"ĠConnection":7472,"SQL":7473,"Ġgame":7474,"ĠBlock":7475,"Transform":7476,"Ġplots":7477,"Ġneighbor":7478,"pert":7479,"serializer":7480,"Ġpredicate":7481,"ĠTask":7482,"Creates":7483,"ĠIgn":7484,"Ġextended":7485,"Ġnotebook":7486,"Ġobservation":7487,"__'):":7488,"ĠVer":7489,"dataframe":7490,"imension":7491,"Profile":7492,"Ġthings":7493,"modifi":7494,"}},":7495,"ĠAdds":7496,"Pub":7497,"ĠToken":7498,"Ġpredictions":7499,"warnings":7500,"Ġcombined":7501,"digits":7502,"Ġchosen":7503,"Ġdispatch":7504,"Union":7505,"Directory":7506,"Ġminion":7507,"hem":7508,"Ġmandatory":7509,"(',')":7510,"Ġnumer":7511,"Copy":7512,"chemy":7513,"Ġcompound":7514,"nonzero":7515,"Ġtemplates":7516,"LIST":7517,"Ġfigs":7518,"ATOR":7519,"Ġlocals":7520,"difference":7521,"front":7522,"tected":7523,"Ġtok":7524,"Ġqs":7525,"hparams":7526,"Ġasynchronously":7527,"mpls":7528,"Ġenter":7529,"esian":7530,"ventory":7531,"Ġacc":7532,"Ġcompletion":7533,"repeat":7534,"readlines":7535,"velength":7536,"Decode":7537,"Ġroll":7538,"AST":7539,"shot":7540,"ArgumentParser":7541,"balance":7542,"ĠService":7543,"character":7544,"urther":7545,"--+":7546,"DELETE":7547,"Ġstdin":7548,"stone":7549,"permissions":7550,"Ġbook":7551,"notify":7552,"Ġbecome":7553,"ĠWeb":7554,"Ġhyper":7555,"Vis":7556,"shapes":7557,"ĠConstruct":7558,".+":7559,"Ġcorrectly":7560,"çĶ":7561,"Rece":7562,"Ġpassing":7563,"Args":7564,"filtered":7565,"revision":7566,"Sets":7567,"Ġsquare":7568,"dns":7569,"Ġtyping":7570,"Ġeigen":7571,"world":7572,"Ġimported":7573,"Gets":7574,"Matrix":7575,"Ġbug":7576,"Ġstatements":7577,"mts":7578,"ACT":7579,"unnel":7580,"Ġbias":7581,"strptime":7582,"Application":7583,"timezone":7584,"agg":7585,"Ġcontained":7586,"iguous":7587,"Ġquad":7588,"LY":7589,"Ġhours":7590,"vention":7591,"WA":7592,"Ġloading":7593,"Ġplane":7594,"Ġtimer":7595,"live":7596,"Sum":7597,"fw":7598,"fits":7599,"kill":7600,"groupby":7601,"two":7602,"(':')":7603,"Ġlogic":7604,"Ġretries":7605,"sampling":7606,"periods":7607,"dap":7608,"Ġends":7609,"fire":7610,"Ġleading":7611,"striction":7612,"sensitive":7613,"SUB":7614,"Ġ------":7615,"riptor":7616,"AUTH":7617,"Save":7618,"saved":7619,"six":7620,"loading":7621,"offsets":7622,"execution":7623,"Ġconflict":7624,"Ġquestion":7625,"composition":7626,"Register":7627,"aign":7628,"dag":7629,"NN":7630,"yy":7631,"quant":7632,"trim":7633,"Ġextend":7634,"Ġnative":7635,"itable":7636,"ĠCloud":7637,"REC":7638,"RF":7639,"Ġfact":7640,"Ġoffsets":7641,"Ġmoment":7642,"pretty":7643,"94":7644,"pull":7645,"ctl":7646,"PREFIX":7647,"Med":7648,"masked":7649,"Ġgoing":7650,"BY":7651,"Ġadds":7652,"hours":7653,"Ġports":7654,"riend":7655,"Ġfloats":7656,"UND":7657,"qubits":7658,"BR":7659,"installed":7660,"locate":7661,"Ġtesting":7662,"ĠIPv":7663,"Ġidentify":7664,"Ġet":7665,"TEMP":7666,"Ġlarger":7667,"ĠNaN":7668,"species":7669,"functools":7670,"Ġecho":7671,"Identifier":7672,"litude":7673,"ysql":7674,"Ġ(`":7675,"ĠTest":7676,"Ġmuch":7677,"xyz":7678,"ĠAllow":7679,"Ġinstanti":7680,"udy":7681,"Ġsending":7682,"ilio":7683,"Ġhalf":7684,"haz":7685,"Ġtrailing":7686,"Ġpositional":7687,"attention":7688,"ĠSp":7689,"Ġreceive":7690,"Ġunderlying":7691,"lated":7692,"IRED":7693,"addresses":7694,"/\"":7695,"VM":7696,"listen":7697,"traceback":7698,"Ġblack":7699,"Ġhuman":7700,"ĠPass":7701,"ĠChecks":7702,"overflow":7703,"Ġmeasurement":7704,"---+":7705,"\\\"":7706,")\")":7707,"impl":7708,"ãĢ":7709,"Ġage":7710,"Ġverbosity":7711,"separator":7712,"udo":7713,"Ġsr":7714,"sterior":7715,"CLI":7716,"LATE":7717,"Ġec":7718,"Ġdesign":7719,"ĠCa":7720,"ĠFe":7721,"matching":7722,"Ġscaling":7723,"Ġgenome":7724,"station":7725,"Ġpip":7726,"Factory":7727,"'``":7728,"Ġdirname":7729,"nm":7730,"Ġcar":7731,"ĠCommandExecutionError":7732,"Ġsolver":7733,"Ġserialize":7734,">',":7735,"lecule":7736,"stand":7737,"beat":7738,"Popen":7739,"Ġzeros":7740,"Ġcutoff":7741,"(\"\"":7742,"native":7743,"ĠIterable":7744,"Ġdoct":7745,"yntaxError":7746,"war":7747,"ultiple":7748,"usr":7749,"Ġappear":7750,"iloc":7751,"Ġ%.":7752,"Ġaffect":7753,"repos":7754,"WOR":7755,"`):":7756,"bp":7757,"LD":7758,"Ġwaiting":7759,"ĠStopIteration":7760,"Ġtorch":7761,"terminal":7762,"iodic":7763,"00000000":7764,"Ġinstruction":7765,"browser":7766,"enc":7767,"compressed":7768,"aps":7769,"stricted":7770,"Ġ{!":7771,"Ġsmaller":7772,"ĠBackends":7773,"Ġzoom":7774,"checks":7775,"BASE":7776,"Ġ\"\".":7777,"support":7778,"shutit":7779,"Ġurlparse":7780,"ln":7781,"Ġcatch":7782,"ante":7783,"Ġexpanded":7784,"[_":7785,"ba":7786,"ĠMin":7787,"Ġshard":7788,"illi":7789,"Ġproblems":7790,"Ġproperly":7791,"CACHE":7792,"interp":7793,"structions":7794,"Root":7795,"Ġoptionally":7796,"Ġdummy":7797,"Ġderived":7798,"ssibly":7799,"OPTION":7800,"Ġqueries":7801,"prot":7802,"Normal":7803,"recursive":7804,"('.',":7805,"Ġpp":7806,"ĠPri":7807,"({\"":7808,"callbacks":7809,"ĠUN":7810,").\"\"\"":7811,"ĊĠĠĠĠĠĠĠĠĠĠĠĠĠĠĠĠĠĠĠĠĠĠĠĠĠĠĠĠĠĠĠĠĠĠĠĠĠĠĠĠĠĠĠĠĠĠĠĠĠĠĠĠĠĠĠ":7812,"normalized":7813,"ĊĊĉĉ":7814,"RES":7815,"\")[":7816,"Ġexponent":7817,"\"}":7818,"Flow":7819,"must":7820,"inx":7821,"98":7822,"ĊĠĠĠĠĊĠĠĠ":7823,"Ġcod":7824,"Style":7825,"remaining":7826,"Ġwhitespace":7827,"irtual":7828,"Ġxs":7829,"bing":7830,"inspect":7831,"conditions":7832,"datasets":7833,"Next":7834,"Ġconsumer":7835,"wall":7836,"Ġten":7837,"'d":7838,"tip":7839,"åħ":7840,"bases":7841,"Ġseparated":7842,"ĠISO":7843,"Ġquiet":7844,"Ġ*,":7845,"Ġcovariance":7846,"Ġwon":7847,"validator":7848,"ides":7849,"vidence":7850,"viders":7851,"generated":7852,"Callback":7853,"Ġ'$":7854,"001":7855,"Select":7856,"SSL":7857,"Ġretval":7858,"Builder":7859,"ym":7860,"Ġ90":7861,"Ġgithub":7862,"resolution":7863,"sually":7864,"Ġattached":7865,"Ġconfigure":7866,"MT":7867,"cular":7868,"eration":7869,"iving":7870,"transfer":7871,"ĠBad":7872,"Account":7873,"Ġ(``":7874,"Interface":7875,"bum":7876,"rx":7877,"extent":7878,"VICE":7879,"interfaces":7880,"Ġexposure":7881,"defs":7882,"Ġpanel":7883,"llo":7884,"urnal":7885,"Ġinterpolation":7886,"manifest":7887,"seudo":7888,"Ġmetavar":7889,"Ġimmediately":7890,"Rel":7891,"(\"[":7892,"...\")":7893,"Ġinterfaces":7894,"Ġrr":7895,"capacity":7896,"Ġplayer":7897,"ĠEX":7898,"Ġfoo":7899,"Does":7900,"vrf":7901,"vided":7902,"Ġblue":7903,"UNK":7904,"variance":7905,"ctypes":7906,"Ġ'').":7907,"caller":7908,"Ġembedding":7909,"Ġnl":7910,"'}},":7911,"gid":7912,"notes":7913,"when":7914,"va":7915,"Ġ()":7916,"oute":7917,"Ġcorrelation":7918,"Ġicon":7919,"Ġnewline":7920,"indic":7921,"lr":7922,"elta":7923,"west":7924,"ĠLine":7925,"Ġ13":7926,"Ġgzip":7927,"vy":7928,"ĠRO":7929,"Ġreached":7930,"ĠĠĠĠĠĠĠĠĠĠĠĠĠĠĠĠĠĠ":7931,"Op":7932,"information":7933,"unct":7934,"fies":7935,"Ġlex":7936,"lig":7937,"'})":7938,"queryset":7939,"Ġmicro":7940,"Bar":7941,"Ġart":7942,"ashboard":7943,"Ġdownloaded":7944,"Lib":7945,"mkdir":7946,"ĠRetrieve":7947,"Font":7948,"met":7949,"Limit":7950,"criteria":7951,"Ġserializer":7952,"evaluate":7953,"mmar":7954,"measurement":7955,"Ġinstrument":7956,"ĠDec":7957,"confirm":7958,"omment":7959,"problem":7960,"Ġcompress":7961,"Ġminor":7962,"Agent":7963,"_):":7964,"iterations":7965,"ĠValidate":7966,"django":7967,"visor":7968,"Ġretrieved":7969,"Ġcap":7970,"asing":7971,"ĠHel":7972,"alculates":7973,"lets":7974,"aging":7975,"genome":7976,"critical":7977,"inition":7978,"boto":7979,")`":7980,"za":7981,"ĠKeyword":7982,"Empty":7983,"bf":7984,"Ġhdr":7985,"Ġindicate":7986,"Ġspecies":7987,"Ġoverrid":7988,"lax":7989,"literal":7990,"mig":7991,"Ġmajor":7992,"mapped":7993,"Proxy":7994,"rdf":7995,"ĠWrit":7996,"wind":7997,"mainder":7998,"Ġsignals":7999,"Ġraster":8000,"objs":8001,"CC":8002,"Ġtoler":8003,"prise":8004,"Ġbp":8005,"ĠSystem":8006,"ctrl":8007,"URCE":8008,"ĠGets":8009,"sol":8010,"Ġrs":8011,"ITE":8012,"Ġable":8013,"room":8014,"imize":8015,"Ġepsilon":8016,"å¤":8017,"svg":8018,"izers":8019,"rem":8020,"Ġcompile":8021,"BE":8022,"->":8023,"Now":8024,"stor":8025,"bitrary":8026,"gc":8027,"metry":8028,"pillar":8029,"æĪ":8030,"ĠPY":8031,"Mark":8032,"Ġsin":8033,"(\".\")":8034,"IR":8035,"]{":8036,"initialized":8037,"Ġfall":8038,"Ġartic":8039,"ĠMap":8040,"describe":8041,"aliases":8042,"Tc":8043,"Ġinline":8044,"taint":8045,"Ġhandled":8046,"Ġthresh":8047,"Ġouter":8048,"ĠMag":8049,"Ġspin":8050,"utool":8051,"Ġtau":8052,"Ġroom":8053,"Files":8054,"ĠBoolean":8055,"ĠDescription":8056,"Ġformula":8057,"'ve":8058,"alo":8059,"ĠCIM":8060,"conj":8061,"iteration":8062,"tzinfo":8063,"configure":8064,"ALI":8065,"Ġevaluation":8066,"Ġtc":8067,"Ġadata":8068,"Ġgeneric":8069,"Ġpopulation":8070,"('')":8071,"ĠSN":8072,"ĠSource":8073,"cks":8074,"assessment":8075,"perform":8076,"STATUS":8077,"orn":8078,"unded":8079,"Ġnearest":8080,"widths":8081,"generic":8082,"Ġdistances":8083,"Ġgs":8084,"xc":8085,"Ġrouter":8086,"SCRI":8087,"Ġfigsize":8088,"mn":8089,"squeeze":8090,"ye":8091,"Ġtrying":8092,"hexdigest":8093,"Ġhandles":8094,",-":8095,"Offset":8096,"border":8097,"coun":8098,"Ġvertical":8099,"ience":8100,"Ġchoose":8101,"written":8102,"Ġsubmission":8103,"idxs":8104,"UTP":8105,"Ġii":8106,"Ġpressure":8107,"ields":8108,"pw":8109,"orator":8110,"ROOT":8111,"Ġsamp":8112,"trl":8113,"Current":8114,"inct":8115,"odb":8116,"resolver":8117,"probs":8118,"Ġ256":8119,"EP":8120,"Internal":8121,"[^":8122,"Ġgp":8123,"compatible":8124,"Ġpredicted":8125,"inja":8126,"ĠStore":8127,"matched":8128,"player":8129,"Ġanchor":8130,"Ġna":8131,"checksum":8132,"Ġclosest":8133,"=[],":8134,"Ġattempts":8135,"')))":8136,"km":8137,"xlim":8138,"Ġatoms":8139,"latitude":8140,"Ġhigher":8141,"rich":8142,"Ġupd":8143,"Ġissues":8144,"argspec":8145,"Ġgetting":8146,"Given":8147,"Ġfw":8148,"ping":8149,"afe":8150,"Ġreally":8151,"Ġpdf":8152,"mbolic":8153,"REF":8154,")[-":8155,"Ġ40":8156,"Ġdecla":8157,"figsize":8158,"Ġalternative":8159,"lica":8160,"Ġmeth":8161,"newaxis":8162,"alect":8163,"lips":8164,"urb":8165,"ĊĠĠĠĠĠĠĠĠĠĠĠĠĠĠĠĠĠĠĠĠĠĠĠĠĠĠĠĠĠĠĠĠĠĠĠĠĠĠĠĠĠĠĠĠĠĠĠĠĠĠĠĠĠ":8166,"ITS":8167,"Ġweighted":8168,"smooth":8169,"istrib":8170,"ailab":8171,"CHAR":8172,"variants":8173,"Ġtransformed":8174,"pie":8175,"intf":8176,"between":8177,"UTPUT":8178,"'{":8179,"+\"":8180,"æĹ":8181,"meas":8182,"Ġbinding":8183,"imuth":8184,"runner":8185,"histogram":8186,"EXT":8187,"Ġsimulation":8188,"Ġdetermined":8189,"Raw":8190,"Ġnargs":8191,"CMD":8192,"FIN":8193,"nick":8194,"UNT":8195,"()])":8196,"128":8197,"ULE":8198,"Unsupported":8199,"Ġiterate":8200,"Batch":8201,"Ð°":8202,"Ġmet":8203,"void":8204,"floor":8205,"should":8206,"recur":8207,"formatted":8208,"Ġtries":8209,"mitive":8210,"Ġpolygon":8211,"äº":8212,"mpath":8213,"quared":8214,"Ġchart":8215,"compare":8216,"Ġnormalization":8217,"Unit":8218,"Mon":8219,"hide":8220,"Ġrouting":8221,"Ġopened":8222,"Ġleaf":8223,"serialized":8224,"pixels":8225,"Ġpdb":8226,"Ġworld":8227,"Ġstar":8228,"dia":8229,"rea":8230,"working":8231,"Ġactivity":8232,"gence":8233,"Ġhaving":8234,"\":\"":8235,"Calculate":8236,"Ġcrop":8237,"Ġnr":8238,"Ġnotes":8239,"spy":8240,"Ġ{}:":8241,"Show":8242,"udent":8243,"unicate":8244,"Generator":8245,"Ġchat":8246,"ĠMAX":8247,"``)":8248,"Ġpf":8249,"rols":8250,"Ġvox":8251,"omin":8252,"embedding":8253,"Tool":8254,"statistics":8255,"hits":8256,"Ġcipher":8257,"dimensional":8258,"isdigit":8259,"Ġwindows":8260,"/.":8261,"wo":8262,"Ġpreserve":8263,"Ġordering":8264,"LOAD":8265,"Script":8266,"ĠDjango":8267,"ARD":8268,"margin":8269,"gradient":8270,"Ġfasta":8271,"streams":8272,"fcoe":8273,"Ġmacro":8274,"pv":8275,"gered":8276,"START":8277,"supports":8278,"ned":8279,"ĠCont":8280,"Ġfinish":8281,"!\"":8282,"usion":8283,"XY":8284,"PR":8285,"Ġir":8286,"Ġ{:":8287,"Bind":8288,"tok":8289,"aming":8290,"Ġcopied":8291,"72":8292,"CATION":8293,"Ġcancel":8294,"keyid":8295,"])))":8296,"Ġfurther":8297,"maybe":8298,"Ġcallbacks":8299,"Ġrename":8300,"learning":8301,"Ġrecomm":8302,"=\"%":8303,"Ġcompressed":8304,"COMM":8305,"Ġtopology":8306,"Ġmk":8307,"Ġdl":8308,"STRING":8309,"adj":8310,"Ġsilent":8311,"Ġocc":8312,"take":8313,"Ġexecutor":8314,"pag":8315,"ĠMet":8316,"Ġdocuments":8317,"quis":8318,"MPLE":8319,"Ġgap":8320,"Ġbrowser":8321,"cay":8322,"Ġdaemon":8323,"ĠStream":8324,"Ġinterest":8325,")['":8326,"[...,":8327,"fq":8328,"Ph":8329,"perms":8330,"ĠGit":8331,"sensus":8332,"Ġ':'":8333,"Ġallele":8334,"ĠCallable":8335,"Ġproj":8336,"Ġtolerance":8337,"crop":8338,"ylim":8339,"special":8340,"Ġconsistent":8341,"raster":8342,"Ġplotting":8343,"seqs":8344,"scatter":8345,".:":8346,"bri":8347,"Ġbs":8348,"ĠChange":8349,"()['":8350,"Ġtranslate":8351,"Ġ','.":8352,"Failure":8353,"Ġ500":8354,"Ġdns":8355,"Ġglyph":8356,"Ġquality":8357,"LT":8358,"letes":8359,"pex":8360,"Ġrepeat":8361,"Ġdc":8362,"Ġpercentage":8363,"agger":8364,"grains":8365,"pip":8366,"...')":8367,"Ġtransformation":8368,"crease":8369,"ĠAmazon":8370,"ttl":8371,"500":8372,"ĠEd":8373,"ipy":8374,"Json":8375,"zed":8376,"Ġaff":8377,"constraint":8378,"Ġderivative":8379,"Ðµ":8380,"venance":8381,"binding":8382,"Ġ180":8383,"SSAGE":8384,"ĠAdditional":8385,"ggered":8386,"prod":8387,"tell":8388,"ĠTemplate":8389,"Ġtranscript":8390,"ERS":8391,"anning":8392,"plots":8393,"resolved":8394,"ĠXXX":8395,"nv":8396,"ĠEnd":8397,"Ġrelationship":8398,"Buffer":8399,"definitions":8400,"enotype":8401,"aux":8402,"Ġlive":8403,"ĠNormal":8404,"Ġdepends":8405,"incipal":8406,"Ġmarkers":8407,"Usage":8408,"Ġbases":8409,"temperature":8410,"moving":8411,"Ġiteritems":8412,"Ġspectrum":8413,"/',":8414,"Ġtwilio":8415,"Ġfew":8416,"ĠSkip":8417,"dry":8418,"llegal":8419,"Ġtreat":8420,"mapper":8421,"Ġconfigs":8422,"questions":8423,"Track":8424,"Items":8425,"Ġgl":8426,"âĶĢâĶĢ":8427,"aking":8428,"plt":8429,"grp":8430,"Ð¾":8431,"usted":8432,"Ġsoup":8433,"={},":8434,"Ġglobals":8435,"coverage":8436,"ĠDataset":8437,"notebook":8438,"Ġreduced":8439,"represent":8440,"Ġreaction":8441,"daemon":8442,"PEN":8443,"Ġcd":8444,"ĊĠĠĠĠĠĠĠĠĠĠĠĠĠĠĠĠĠĠĠĠĠĠĠĠĠĠĠĠĠĠĠĠĠĠĠĠĠĠĠĠĠĠĠĠĠĠĠĠĠĠĠĠĠĠĠĠĠĠĠĠĠĠĠĠĠĠĠĠĠĠĠĠĠĠĠĠĠĠĠĠĠĠĠĠ":8445,"Ġpg":8446,"Ra":8447,"registered":8448,"Exp":8449,"LAB":8450,"spac":8451,"Ġformatting":8452,"logits":8453,"exact":8454,"umption":8455,"Ġ128":8456,"Ġactivation":8457,"Ġutool":8458,"ĠPh":8459,"ĠApi":8460,"ĠMaximum":8461,"Ġnamespaces":8462,"mavlink":8463,"cmp":8464,"minutes":8465,"ĠValidationError":8466,"Login":8467,"pas":8468,"}\",":8469,"Ġxmax":8470,"Float":8471,"ongs":8472,"Ġerrno":8473,"))):":8474,"ledge":8475,"blank":8476,"vcs":8477,"________":8478,"hint":8479,"ĠTag":8480,"precationWarning":8481,"Dep":8482,"TES":8483,"velope":8484,"å®":8485,"Mix":8486,"Ġclassification":8487,"venience":8488,"KEN":8489,"Ġconfirm":8490,"NotExist":8491,"ĠPerform":8492,"Ġrecursively":8493,"parallel":8494,"without":8495,"SR":8496,"ailability":8497,"tup":8498,"Stack":8499,"resize":8500,"Ġkm":8501,"Ġoverla":8502,"Web":8503,"One":8504,"=''):":8505,"ĠRecord":8506,"Ġmasked":8507,"((\"":8508,"Accept":8509,"xies":8510,"Ġndim":8511,"ulus":8512,"Ġcoverage":8513,"ĠPart":8514,"Project":8515,"Ġasc":8516,"``:":8517,"ĠSerial":8518,"customer":8519,">`_":8520,"phan":8521,"Ġdoing":8522,"ĠConverts":8523,"ĠPoint":8524,"400":8525,"Ġtrial":8526,"ĠVersion":8527,"solve":8528,"Rect":8529,"Ġcoefficient":8530,"Ġcs":8531,"countered":8532,"vc":8533,"thers":8534,"ĠAb":8535,"apps":8536,"Ġffi":8537,"cus":8538,"Ġ``(":8539,"completed":8540,"rotation":8541,"att":8542,"partic":8543,"Ġì":8544,"CG":8545,"600":8546,"Ġexcluded":8547,"Ġsoft":8548,"lobs":8549,"Ġjs":8550,"utcnow":8551,"statements":8552,"boundary":8553,"TAG":8554,"but":8555,"Ġcanvas":8556,"Ġequation":8557,"hazard":8558,"fraction":8559,"longitude":8560,"icket":8561,"ç»":8562,"artifact":8563,"Ġvlan":8564,"namespaced":8565,"share":8566,"TIMEOUT":8567,"did":8568,"spin":8569,"updates":8570,"Ġscene":8571,"Ġbroadcast":8572,"}',":8573,"consumer":8574,"ipant":8575,"DU":8576,"ĠNAME":8577,"directories":8578,"Entity":8579,"preview":8580,"osed":8581,"Ġlaunch":8582,"Ġ404":8583,"xi":8584,"adow":8585,"Ġintern":8586,"ĠAB":8587,"Ġchan":8588,"minor":8589,"Settings":8590,"ĠApply":8591,"jar":8592,"ilename":8593,"dy":8594,"Ġbounding":8595,"peaks":8596,"hdf":8597,"Ġhits":8598,"authenticated":8599,"Shape":8600,"clock":8601,"klass":8602,"localhost":8603,"Validate":8604,"}:{":8605,"Ġattachment":8606,"elif":8607,"rh":8608,"follow":8609,"tcp":8610,"(\"<":8611,"matplotlib":8612,"Edit":8613,"DP":8614,"åŃ":8615,"references":8616,"Ġmi":8617,"OM":8618,"Ġstation":8619,"Ġphone":8620,"\"{":8621,"Writer":8622,"Ġbed":8623,"assignment":8624,"Ġsubmit":8625,"Ġlv":8626,"],[":8627,"+\\":8628,"Ġiso":8629,"cart":8630,"Comm":8631,"çĶ¨":8632,"itute":8633,"89":8634,"Sk":8635,"[\\":8636,"è¡":8637,"Ġfits":8638,"Ġhighest":8639,"ĠNum":8640,"ĠMay":8641,"Ġlisted":8642,"ĠContext":8643,"iming":8644,"}-":8645,"Ġpal":8646,"stackoverflow":8647,"Ġcores":8648,"removed":8649,"collections":8650,"plane":8651,"SPACE":8652,"Ġwildcard":8653,"Ġln":8654,"Ġletter":8655,"Ġrestriction":8656,"allen":8657,"Ġcomputation":8658,"ĠTO":8659,"Ġrx":8660,"Ġlogged":8661,"Ġfiltering":8662,"Split":8663,"Ġcharset":8664,"LENG":8665,"person":8666,"Ġcomps":8667,"ĊĠĠĠĠĠĠĠĠĠĠĠĠĠĠĠĠĠĠĠĠĠĠĠĠĠĠĠĠĠĠĠĠĠĠĠĠĠĠĠĠĠĠĠĠĠĠĠĠĠĠĠĠĠĠ":8668,"Attr":8669,")?":8670,"mous":8671,"mpaign":8672,"Ġexpressions":8673,"ĠReferences":8674,"Ġcanonical":8675,"runs":8676,"Ġoccurs":8677,"unused":8678,"ĠSort":8679,"è®":8680,"under":8681,"BB":8682,"Ġnc":8683,"Ġlikely":8684,"Ġ[('":8685,"ĠPop":8686,"oct":8687,"population":8688,"ĠHttpResponse":8689,"Ġmaking":8690,"Ġchr":8691,"ĠUTC":8692,"endor":8693,"LENGTH":8694,"Align":8695,"Ġaggregate":8696,"bsocket":8697,"Ġcrypto":8698,"limited":8699,"Ġrendered":8700,"ĠHowever":8701,"Retrieve":8702,"Hist":8703,"Top":8704,"ftp":8705,"ĠAddress":8706,"Ġcapture":8707,"TOKEN":8708,"Layout":8709,"Flags":8710,"Ġcheckpoint":8711,"ANCE":8712,"bridge":8713,"ialog":8714,"Descriptor":8715,"decoder":8716,"classification":8717,"Ġsatis":8718,"rn":8719,"Ġcss":8720,"Ġdisplayed":8721,"middle":8722,"ĠĊĠĠĠĠĠĠĠĠĠĠĠĠĠĠĠ":8723,"Ġduplicates":8724,"dients":8725,"Ġ[_":8726,"small":8727,"arginal":8728,"ĠJo":8729,"Sample":8730,"routes":8731,"going":8732,"Ġaliases":8733,"igs":8734,"Ġnewly":8735,"slots":8736,"Ġfour":8737,"lexer":8738,"pabilities":8739,"}')":8740,"ĠPub":8741,"Ġance":8742,"weep":8743,"Ġaccepts":8744,"trunc":8745,"anging":8746,"Coord":8747,"Net":8748,"Ġtp":8749,"Ġcombination":8750,"Gui":8751,"Try":8752,"Ġthreading":8753,"flu":8754,"ele":8755,"Ġpillar":8756,"Ġdefines":8757,"æĺ":8758,"Ġrand":8759,"stitute":8760,"aring":8761,"Ġindexed":8762,"Ġprog":8763,"Prefix":8764,"topology":8765,"domains":8766,"Ġmanually":8767,"ĠOPTION":8768,"Ġpoll":8769,"predicate":8770,"54":8771,"RPC":8772,"ĠAct":8773,"Ġstrategy":8774,"specified":8775,"__')":8776,"ugment":8777,"Flag":8778,"ess":8779,"Ġfrozen":8780,"Ġ'\\\\":8781,"shutdown":8782,"Ġforms":8783,"Ġdeepcopy":8784,"ĠSplit":8785,"Ġmatrices":8786,"Ġinserted":8787,"mpy":8788,"gi":8789,"Ġcomplet":8790,"__',":8791,"Mask":8792,"igure":8793,"subplots":8794,"YANG":8795,"PH":8796,"tot":8797,"anity":8798,"Ġ'?":8799,"Ġflush":8800,"æĸĩ":8801,"Ġfrequencies":8802,"too":8803,"IDs":8804,"Running":8805,"Ġdescribed":8806,"etree":8807,"Attemp":8808,"nonce":8809,"received":8810,"chanism":8811,"equ":8812,"ĠCopy":8813,"Unexpected":8814,"Ġresidual":8815,"infer":8816,"atleast":8817,"regular":8818,"sgi":8819,"}\")":8820,"Ġnor":8821,"fragment":8822,"ĠThen":8823,"ances":8824,"alancer":8825,"Writ":8826,"ANGE":8827,"centers":8828,"Adds":8829,"ĠDoes":8830,"Ġoccurred":8831,"Ġtenant":8832,"Ġnn":8833,"Ġrng":8834,"initialize":8835,"radians":8836,"ATED":8837,"Ġevaluated":8838,"ĠSince":8839,"Ġspecimen":8840,"gnc":8841,"Ġ''))":8842,"Namespace":8843,"theme":8844,"nom":8845,"Ġdeployment":8846,"Ġ'(":8847,"Ġosid":8848,"slices":8849,"coeffs":8850,"ocus":8851,"Ġ400":8852,"Ġoverlay":8853,"Ġkwarg":8854,"Tags":8855,"mor":8856,"charge":8857,"Custom":8858,"Ġothers":8859,"branches":8860,"exposure":8861,"developer":8862,"Wait":8863,"_=":8864,"Extension":8865,"Ġvariants":8866,"inline":8867,"rune":8868,"Ġsuitable":8869,"Ġseveral":8870,"Ġcm":8871,"datatype":8872,"partitions":8873,"gui":8874,"Ġcorresponds":8875,"degrees":8876,"ĊĠĠĠĠĠĠĠĠĊĠĠĠĠĠĠĠ":8877,"Ġwho":8878,"helpers":8879,"Ġ\"{}\"":8880,"letion":8881,"scipy":8882,"ripts":8883,"treat":8884,"uit":8885,"feat":8886,"Ġjump":8887,"Ġyields":8888,"legate":8889,"ĠColumn":8890,"ners":8891,"erance":8892,"('>":8893,"Ġreach":8894,"Ġarbitrary":8895,"quality":8896,"compliance":8897,"sequent":8898,"lopen":8899,"Pe":8900,"Ġincoming":8901,"ĠAS":8902,"Ġalphabet":8903,"Ġdecoder":8904,"UTF":8905,"relpath":8906,"73":8907,"ĠVariable":8908,"ĠConfiguration":8909,"arrow":8910,"strain":8911,"Ġ[]):":8912,"ught":8913,"Definition":8914,"namespaces":8915,"ANT":8916,"ãĢĤ":8917,"`.\"\"\"":8918,"stable":8919,"Ġ`~":8920,"tegr":8921,"lapse":8922,"snmp":8923,"Ġ[%":8924,"yield":8925,"ĠĠĠĠĠĠĠĠĠĠĠĠĠĠĠĠĠĠĠĠ":8926,"started":8927,"Ġws":8928,"Protocol":8929,"Ġrhs":8930,"Ġmouse":8931,"Ġavg":8932,"Title":8933,"ota":8934,"Ġinf":8935,"ĠNull":8936,"accounts":8937,"sensor":8938,"........":8939,"Ġincorrect":8940,"riendly":8941,"bill":8942,"anis":8943,"minute":8944,"Ġworkers":8945,"DoesNotExist":8946,"starting":8947,"ĠEither":8948,"Ġmyminion":8949,"Ġmv":8950,"Ġmer":8951,"ĠCPU":8952,"ansion":8953,"Ġestimator":8954,"Ġbroker":8955,"Region":8956,"]/":8957,"())[":8958,"returncode":8959,"Checks":8960,"given":8961,"ĠPAT":8962,"samp":8963,"Ġrid":8964,"Ġcapacity":8965,"docstring":8966,"desk":8967,"Ġsheet":8968,"styles":8969,"Comple":8970,"mappings":8971,"Ġclause":8972,"hyper":8973,"Ġfar":8974,"Ġdag":8975,"Ġfilesystem":8976,"Ġfilled":8977,"Ġlikelihood":8978,"iline":8979,"prime":8980,"crs":8981,"inary":8982,"tailed":8983,"Ġ</":8984,"Transaction":8985,"ĠSpecify":8986,"RECT":8987,"decl":8988,"Ġmargin":8989,"Ġfu":8990,"lored":8991,"jected":8992,"macro":8993,"Interrupt":8994,"Ġmedian":8995,"DED":8996,"_['":8997,"Ġeq":8998,"Creating":8999,"Ġtools":9000,"2018":9001,"Pi":9002,"around":9003,"GEX":9004,"vocation":9005,"Ġconfidence":9006,"graphic":9007,"Ġprece":9008,"Ġdeal":9009,"ĠĠĠĠĠĠĠĠĠĠĠĠĠĠĠĠĠĠĠĠĠ":9010,"bindings":9011,"ParseError":9012,"Ġkv":9013,"Cluster":9014,"land":9015,"xmin":9016,"Ġcombine":9017,"estimator":9018,"allele":9019,"covered":9020,"Ġintersection":9021,"GIN":9022,"Display":9023,"Plugin":9024,"Ġbalance":9025,"ambda":9026,"Ġhorizontal":9027,"Ġ{{":9028,"formula":9029,"Ġprocessor":9030,"Stop":9031,"ĠMapping":9032,"Ġrepresented":9033,"]\")":9034,"Ġann":9035,"Ġbeam":9036,"acquire":9037,"topics":9038,"secure":9039,"Ġexpired":9040,"inp":9041,"Ġlistener":9042,"+',":9043,"Ġhide":9044,"spf":9045,"Ġuniform":9046,"Interval":9047,"Ġmodification":9048,"locator":9049,"syntax":9050,"']}":9051,"ĠColor":9052,"Ġcare":9053,"half":9054,"thro":9055,"Ġleave":9056,"Ġdead":9057,"ĠReplace":9058,"Ġcleanup":9059,"Ġmeasurements":9060,"cdf":9061,"Ġangles":9062,"Ġinvert":9063,"orders":9064,"uc":9065,"Ġunable":9066,"Ġlearning":9067,"Ġperformance":9068,"Cells":9069,"RGB":9070,"Ġminute":9071,"ĠKE":9072,"Random":9073,"TABLE":9074,"incomplete":9075,"ĠDown":9076,"scene":9077,"Ġ({})":9078,"ĠRGB":9079,"pacing":9080,"oi":9081,"Ġplain":9082,"ĠWh":9083,"abc":9084,"48":9085,"Total":9086,"PM":9087,"arante":9088,"ĠCSV":9089,"focus":9090,"Ġprovides":9091,"Called":9092,"Ġelapsed":9093,"Ġdetail":9094,"filt":9095,"distances":9096,"uming":9097,"Ġgrouped":9098,"/#":9099,"Pix":9100,"eras":9101,"Ġunexpected":9102,"jector":9103,"checkpoint":9104,"located":9105,"broadcast":9106,"SES":9107,"101":9108,"\\.":9109,"Ġstuff":9110,"lace":9111,"Ġattrib":9112,"Ġins":9113,"LAN":9114,"SB":9115,"}_":9116,"Ġslices":9117,"Ġary":9118,"Ġipv":9119,"ention":9120,"communicate":9121,"æį":9122,"Ġclients":9123,"Ġobservations":9124,"Ġoptimization":9125,"Msg":9126,"Ġprotein":9127,"Ġgeneration":9128,"ggers":9129,"Ġide":9130,"Ġboard":9131,"Ġfake":9132,"executor":9133,"boxes":9134,"></":9135,"instrument":9136,"ĠTarget":9137,"Ġrestore":9138,"queries":9139,"ĠCustom":9140,"mtree":9141,"ĠProject":9142,"GL":9143,"Pr":9144,"Ġ'@":9145,"Ġusually":9146,"MQ":9147,"intext":9148,"physical":9149,"Ġarticle":9150,",**":9151,"Ġfoot":9152,"ising":9153,"Ġaws":9154,"Ġ\"*":9155,"Ġencryption":9156,"finish":9157,"GO":9158,"levation":9159,"gpu":9160,"setLevel":9161,"Ġsqrt":9162,"MD":9163,"Ġshortcut":9164,"Ġfontsize":9165,"attachment":9166,"normpath":9167,"Ġvcf":9168,"__()":9169,"Extra":9170,"jacency":9171,"csr":9172,"lask":9173,"Ġfaster":9174,"Ġcolour":9175,"lename":9176,"Ġdescribing":9177,"Ġ\"(":9178,"Ġbracket":9179,"Len":9180,"ased":9181,"Ġoverrides":9182,"phone":9183,"basis":9184,"ä½":9185,"Ġunused":9186,"Tri":9187,"sb":9188,"Ġinp":9189,"angular":9190,"scopes":9191,"seen":9192,"Ġidentical":9193,"Lookup":9194,"Ġskipped":9195,"ĠLook":9196,"Authorization":9197,"pow":9198,"ValidationError":9199,"Ġreadable":9200,"Package":9201,"guess":9202,"izable":9203,"Ġymax":9204,"åĽŀ":9205,"Pattern":9206,"Ġui":9207,"ĠEl":9208,"COLOR":9209,"leting":9210,"ĠSc":9211,"Ġxmin":9212,"ĠUsing":9213,"deserialize":9214,"ĠĠĠĠĠĠĠĠĠĠĠĠĠĠĠĠĠĠĠĠĠĠ":9215,"CLASS":9216,")==":9217,"Dialog":9218,"Ġsd":9219,"kb":9220,"ets":9221,"roots":9222,"hashes":9223,"###":9224,"Ġ...,":9225,"Ġ'_'":9226,"projection":9227,"Ġapplies":9228,"mediator":9229,"ĠEnvironment":9230,"CD":9231,"prefixes":9232,"AI":9233,"Ġkill":9234,"\"]))":9235,"{'":9236,"overlap":9237,"Space":9238,"Ġapps":9239,"artist":9240,"Section":9241,"ADD":9242,"authorization":9243,"percentile":9244,"magnitude":9245,"Ġcontour":9246,"letter":9247,"rength":9248,"RN":9249,"protein":9250,"moment":9251,"candidates":9252,"lb":9253,"anza":9254,"fileobj":9255,"Ġconverter":9256,"utures":9257,"ĠJob":9258,"good":9259,"vari":9260,"Ġpys":9261,"coin":9262,"Ġdeep":9263,"URN":9264,"Ġvarious":9265,"associ":9266,"Ġcmp":9267,"Ġdeviation":9268,"ffe":9269,"overwrite":9270,"Ġdiagonal":9271,"Ġconvention":9272,"nums":9273,"WE":9274,"ĠPost":9275,"traj":9276,"Ġaggregation":9277,"Ġaddition":9278,"Ġplaceholder":9279,"42":9280,"NC":9281,">=":9282,"Ġaccuracy":9283,"Symbol":9284,"ĠTakes":9285,"Ġscaled":9286,"Ġ2016":9287,"sam":9288,"Ġcid":9289,"today":9290,"Ġdoctest":9291,"Ġidentifiers":9292,"POINT":9293,"Ġhad":9294,"Ġcn":9295,"trieves":9296,"olding":9297,"Bit":9298,"Must":9299,"gd":9300,"Ġ\"#":9301,"Ġdatatype":9302,"Ori":9303,"iro":9304,"ĠSH":9305,"overlay":9306,"FE":9307,"endpoints":9308,"othing":9309,"Loader":9310,"180":9311,"iface":9312,"Ġhold":9313,"Keep":9314,"activate":9315,"68":9316,"bon":9317,"mongo":9318,"vailable":9319,"Cmd":9320,"GRO":9321,"Non":9322,"Ġsink":9323,"']=":9324,"ĠShow":9325,"ĠHelper":9326,"Ġfc":9327,"LEV":9328,"ĠOptionParser":9329,"ĠASC":9330,"ĠEng":9331,"Ġrenderer":9332,"Ġorientation":9333,"Ġappended":9334,"Ġclosing":9335,"azard":9336,"Fetch":9337,"fm":9338,"umor":9339,"tls":9340,"lide":9341,"Ġroutine":9342,"sci":9343,"ĠINT":9344,"Step":9345,"Ġprefixes":9346,"Ġrm":9347,"ĠFa":9348,"udit":9349,"ILD":9350,"ĠAssume":9351,"continue":9352,"Word":9353,"ĠTri":9354,"Report":9355,"Using":9356,"Ð¸":9357,"OrderedDict":9358,"allenge":9359,"Ġquantity":9360,"peg":9361,"tenant":9362,"Ġfeat":9363,"oral":9364,"batches":9365,"SOURCE":9366,"aggregate":9367,"exponent":9368,"Ġsplits":9369,"Bound":9370,"Stat":9371,"Ġmappings":9372,"Ġprobabilities":9373,"IME":9374,"uoa":9375,"Ġoperand":9376,"RT":9377,"rogram":9378,"renderer":9379,"ĊĠĠĠĠĠĠĠĠĠĠĠĠĠĠĠĠĠĠĠĠĠĠĠĠĠĠĠĠĠĠĠĠĠĠĠĠĠĠĠĠĠĠĠĠĠĠĠĠĠĠĠĠĠĠĠĠ":9380,"Ġadapt":9381,"mgr":9382,"Ġrepos":9383,"ĠRequired":9384,"ĠUp":9385,"Ġlinked":9386,"Ġcart":9387,"spacing":9388,"Sec":9389,"Ġpb":9390,"Ġpadded":9391,"Ġrpc":9392,"TEST":9393,"Ġartist":9394,"Ġspi":9395,"tests":9396,"Analysis":9397,"rp":9398,"Ġsel":9399,"ĠAnd":9400,"llable":9401,"Ġbi":9402,"Ġupgrade":9403,"Ġbulk":9404,"factors":9405,":{":9406,"Ġindependent":9407,"ĠURLs":9408,"Ġbootstrap":9409,"BER":9410,"BACK":9411,"Ġ18":9412,"licable":9413,"upt":9414,"Ġiface":9415,"atural":9416,"Ġinfer":9417,"Ġvtk":9418,"','')":9419,"ticket":9420,"ĠIgnore":9421,"Ġremoving":9422,"ĠNULL":9423,"cleaned":9424,"Ġperson":9425,"*\\":9426,"NULL":9427,"increment":9428,"quantity":9429,"pients":9430,"Ġgrant":9431,"anitize":9432,"outdir":9433,"Ġvisited":9434,"}`":9435,"containers":9436,"Ġencountered":9437,"infile":9438,"cookies":9439,"TEN":9440,"Ġtodo":9441,"INET":9442,"Active":9443,"fu":9444,"ctype":9445,"PARAM":9446,"59":9447,"hierarchy":9448,"Ġtt":9449,"splits":9450,"charset":9451,"Ġprojects":9452,"ĠDocument":9453,"Ġgives":9454,"Ġdistrib":9455,"ĠGO":9456,"ificant":9457,"inverse":9458,"onic":9459,"Ġphysical":9460,"irect":9461,"mails":9462,"ĠSimple":9463,"lasticsearch":9464,"Go":9465,"quid":9466,"Stats":9467,"marks":9468,"Ġprinted":9469,"Ġsynchronous":9470,")._":9471,"[[":9472,"bio":9473,"uli":9474,"Ġaspect":9475,"onymous":9476,"eg":9477,"cates":9478,"responses":9479,"HTTPError":9480,"adapt":9481,"2000":9482,"RUN":9483,"thernet":9484,"residue":9485,"REQUEST":9486,"ball":9487,"Ã©":9488,"Ġdro":9489,"orb":9490,"canonical":9491,"HOST":9492,"TING":9493,"tex":9494,"Ġlargest":9495,"Jo":9496,"Ġstripped":9497,"Timestamp":9498,"Allow":9499,"Http":9500,"Ġmarked":9501,"Ġheat":9502,"ĠYAML":9503,"Ġcorrespond":9504,"Ġpersist":9505,"===":9506,"sudo":9507,"lm":9508,"ups":9509,"~~~~":9510,"Ġsolve":9511,"Ġhand":9512,"ffi":9513,"listener":9514,"ĠPi":9515,"MESSAGE":9516,"Encoder":9517,"stp":9518,"Assign":9519,"='%":9520,"Integer":9521,"Ġstreams":9522,"Ġpc":9523,"There":9524,"rightness":9525,"dv":9526,"Ġqubits":9527,"attempts":9528,"Zone":9529,"livery":9530,"Ġinteractive":9531,"Ġhighlight":9532,"-+-+-+-+-+-+-+-+":9533,"Ġstand":9534,"Ġ[{'":9535,"Ġupdating":9536,"delimiter":9537,"izations":9538,"Expression":9539,"abort":9540,"Ġservers":9541,"delt":9542,"']('":9543,"999":9544,"separated":9545,")})":9546,"combine":9547,"Ġunion":9548,"linux":9549,"dense":9550,"while":9551,"Ġnotify":9552,"encryption":9553,"Ġ`%":9554,"TERN":9555,"istribution":9556,"Global":9557,"Ġsco":9558,"dialog":9559,"sph":9560,"Ġmeaning":9561,"SOCK":9562,"always":9563,"DecodeError":9564,"pedia":9565,"istype":9566,"Ġpartitions":9567,"46":9568,"Doc":9569,"inux":9570,"ĠOK":9571,"Ġ360":9572,"Ġlooks":9573,"Ġnonce":9574,"LIB":9575,"Ġinfile":9576,"Ġpreferred":9577,"ibling":9578,"Ġaligned":9579,"ĠPermission":9580,"Ġobtained":9581,"Elements":9582,"ä¸Ģ":9583,"KeyError":9584,"Ġpolynomial":9585,"Ġperiods":9586,"Gra":9587,"rift":9588,"Ġ'&":9589,"ĠWith":9590,"ĠSession":9591,"DIS":9592,"vtk":9593,"places":9594,"poses":9595,"additional":9596,"Ġcodecs":9597,"prediction":9598,"restore":9599,"chart":9600,"Required":9601,"Ġrecurse":9602,"fid":9603,"scales":9604,"ulary":9605,"Ġinherit":9606,"Ġ\"+":9607,"Ġtrajectory":9608,"ratic":9609,"nearest":9610,"Ġele":9611,"Ġints":9612,"Ġpieces":9613,"hain":9614,"Ġ80":9615,"pagate":9616,"Ġttl":9617,"LINK":9618,"routing":9619,"clients":9620,"acket":9621,"Ġemit":9622,"Ġrequirement":9623,"Ġvelocity":9624,"ium":9625,"article":9626,"palette":9627,"ITH":9628,"Ġpm":9629,"ulations":9630,"See":9631,"Ġoptimizer":9632,"activation":9633,"Ġremainder":9634,"cipher":9635,"ĠComm":9636,"COMP":9637,"ĠProper":9638,"Pay":9639,"ĠAccess":9640,"Insert":9641,"ĠSelect":9642,"illiseconds":9643,"expires":9644,">>>":9645,"Volume":9646,"crit":9647,"ĠCF":9648,"realpath":9649,"authorized":9650,"mutations":9651,"probability":9652,"extended":9653,"]\"":9654,"tas":9655,"Ġgeom":9656,"ivot":9657,"disconnect":9658,"Ġti":9659,"prep":9660,"Ġbranches":9661,"observation":9662,"Ġmm":9663,"tem":9664,"Ġprodu":9665,"Loop":9666,"Mag":9667,"isect":9668,"ĠExp":9669,"ransp":9670,"Ġscheduler":9671,"}.{":9672,"åĬ":9673,"Idx":9674,"vlc":9675,"Ġfollows":9676,"ĠImplemented":9677,"requested":9678,"argmax":9679,"(\"\"\"":9680,"`).":9681,"each":9682,"readable":9683,"ĠMy":9684,"Ġpossibly":9685,"Lock":9686,"Windows":9687,"Ġrem":9688,"illa":9689,"Ġcompiled":9690,"Seq":9691,"Segment":9692,"ä¸º":9693,"TT":9694,"got":9695,"Ġbc":9696,"asyn":9697,"Points":9698,"reaction":9699,"Ġhazard":9700,"Ġcalendar":9701,"Ġ([":9702,"ĠWait":9703,"writing":9704,"LU":9705,"Ġcleaned":9706,"Ġguarante":9707,"FLAGS":9708,"whitespace":9709,"alysistype":9710,"HOME":9711,"stride":9712,"destroy":9713,"atal":9714,"artbeat":9715,"Ġresolver":9716,"modes":9717,"Ġfunctools":9718,"OPTIONS":9719,"cepts":9720,"**(":9721,"Ġfloating":9722,"ĠUses":9723,"ships":9724,"requires":9725,"heads":9726,"Ġliteral":9727,"ĠSSL":9728,"Ġ```":9729,"atched":9730,"aligned":9731,"Draw":9732,"lest":9733,"upgrade":9734,"ĠĠĠĠĠĠĠĠĠĠĠĠĠĠĠĠĠĠĠĠĠĠĠĠ":9735,"ĠGra":9736,"IGNO":9737,"nado":9738,"imation":9739,"Ġaccum":9740,"ygons":9741,"bian":9742,"getenv":9743,"Parent":9744,"HTML":9745,"wl":9746,"ĠSu":9747,"Ġpast":9748,"Ġshutdown":9749,"Double":9750,"Ġregistration":9751,"ä¸ª":9752,"mant":9753,"lencode":9754,"Ġroutes":9755,"boardInterrupt":9756,"answer":9757,"verbosity":9758,"ellow":9759,"ĠVAL":9760,"cleanup":9761,"vanced":9762,"Ġboundaries":9763,"LAY":9764,"Ġimpro":9765,"Ġlb":9766,"Ġorbit":9767,"ĠSchema":9768,"algo":9769,"dit":9770,"potential":9771,"MAC":9772,"ÑĤ":9773,"Ġticket":9774,"ĠMatch":9775,")*(":9776,")/(":9777,"'+":9778,"Ġtot":9779,"Ġeg":9780,"ULTI":9781,"Ġplus":9782,"disabled":9783,"portal":9784,"ĠNeed":9785,"trial":9786,"Ġrunner":9787,"Named":9788,"Menu":9789,"vpc":9790,"anchor":9791,"Ġbank":9792,"recognized":9793,"Ġtgt":9794,"scp":9795,"Attributes":9796,"arp":9797,"Ġnt":9798,"TODO":9799,"ancy":9800,"fac":9801,"ĠSaltCloud":9802,"'\",":9803,"Ġ---":9804,"widgets":9805,"LEVEL":9806,"OFF":9807,"tid":9808,"dependency":9809,"Rate":9810,"Ġshown":9811,"è¿Ķ":9812,"fir":9813,"bc":9814,"]')":9815,"Ġeta":9816,"otypes":9817,"Ġ_(\"":9818,"Ġmail":9819,"Ġack":9820,"amel":9821,"Ġneur":9822,"scriptors":9823,"MIT":9824,"gain":9825,"mr":9826,"rations":9827,"retrieve":9828,"strs":9829,"restart":9830,"Ġconverts":9831,"Ġendpoints":9832,"gies":9833,"Ġsci":9834,"ĠYields":9835,"datastore":9836,"Ġsubsequent":9837,"ifies":9838,"fromstring":9839,"Operator":9840,"300":9841,"Ġscopes":9842,"constructor":9843,"netloc":9844,"++":9845,"ĠND":9846,"crets":9847,"Ġ2015":9848,"ook":9849,"Ġhack":9850,"Ġcontainers":9851,"/{}/":9852,"cri":9853,"initializer":9854,"tgt":9855,"workspace":9856,"Ġ'.'.":9857,"è¿ĶåĽŀ":9858,"mallest":9859,"Ġparagraph":9860,"Ġsuggest":9861,"*,":9862,"])):":9863,"Ġwhy":9864,"comps":9865,"Ġshapes":9866,"Ġpars":9867,"Memory":9868,"Engine":9869,"positive":9870,"Cond":9871,"latent":9872,"ĠDEBUG":9873,"Ġreserved":9874,":')":9875,"vstack":9876,"Ġpalette":9877,"possible":9878,"Ġregard":9879,"Ġhierarchy":9880,"visions":9881,"[~":9882,"altern":9883,"Ġgreen":9884,"glyph":9885,"čĊĊĠĠĠĠĠĠĠĠĠĠĠ":9886,"Ġexchange":9887,"Factor":9888,"CCESS":9889,"lision":9890,"locked":9891,"'%":9892,"Ġxpath":9893,"Ġdoi":9894,"Ġfollowed":9895,"optimizer":9896,"gos":9897,"NOWN":9898,"converter":9899,"indicator":9900,"bulk":9901,"ament":9902,"Ġalert":9903,"SHA":9904,"liers":9905,"ĠUsage":9906,"markers":9907,"(':',":9908,"transcript":9909,"ATCH":9910,"Fields":9911,"stock":9912,"ĠHere":9913,"pes":9914,"provision":9915,"1024":9916,"arily":9917,"Ġexceed":9918,"sphere":9919,"ĠLoop":9920,"Ġreceiver":9921,"bands":9922,"Ġtup":9923,"Ġcurrency":9924,"ads":9925,"Ġtimestamps":9926,"tolerance":9927,"ĠSP":9928,"Ġexpires":9929,"Close":9930,"Ġjo":9931,"Example":9932,"atios":9933,"Main":9934,"ndims":9935,"Ġ17":9936,"pared":9937,"TRY":9938,",:]":9939,"pmag":9940,"ĠCalled":9941,"Ġxi":9942,"Ġaren":9943,"Ġquick":9944,"127":9945,"Ġsorting":9946,"Ġ-->":9947,"Ġflu":9948,"TEMPLATE":9949,"Ġprofiles":9950,"MAGE":9951,"={\"":9952,"hand":9953,"pf":9954,"Ġste":9955,"exchange":9956,"consts":9957,"ĠMed":9958,"(?:":9959,"gh":9960,"protected":9961,"outcome":9962,"Ġidentified":9963,"catch":9964,"Ġslow":9965,"Ġcontrib":9966,"Ġpkt":9967,"gzip":9968,"Ġvmax":9969,"ĠĠĠĠĠĠĠĠĠĠĠĠĠĠĠĠĠĠĠĠĠĠĠĠĠĠĠ":9970,"Ġflask":9971,"lick":9972,"rapping":9973,"Ġquotes":9974,"Temporary":9975,"analysistype":9976,"Ġdeci":9977,"translation":9978,"ĠStringIO":9979,"dT":9980,"Ġfire":9981,"97":9982,"rmtree":9983,"uv":9984,"issuer":9985,"Ġimplicit":9986,"Ġboxes":9987,"Operations":9988,"Pop":9989,"Ġlif":9990,"Ġnick":9991,"rics":9992,"ĠFix":9993,"Ġseems":9994,"Ġ\"/\"":9995,"Success":9996,"pod":9997,"reqs":9998,"ĊĠĠĠĠĠĠĠĠĠĠĠĠĠĠĠĠĠĠĠĠĠĠĠĠĠĠĠĠĠĠĠĠĠĠĠĠĠĠĠĠĠĠĠĠĠĠĠĠĠĠĠĠĠĠĠĠĠ":9999,"epsilon":10000,"WORK":10001,"policies":10002,"ATTR":10003,"Initialize":10004,"ĠDeprecationWarning":10005,"contour":10006,"__),":10007,"cpus":10008,"coeffici":10009,"scaling":10010,"éĢ":10011,"Ġha":10012,"checked":10013,"MSG":10014,"Ġmimetype":10015,"Ang":10016,"(.*":10017,"Ġtd":10018,"Ġscripts":10019,"Ġoperators":10020,"ĠNotFound":10021,"Ġspatial":10022,"Properties":10023,"onom":10024,"Ġbb":10025,"Ġwallet":10026,"ĠEND":10027,"Ġhashes":10028,"Ġpitch":10029,"strategy":10030,"Ġvo":10031,"ĊĠĠĠĠĠĠĠĠĠĠĠĠĠĠĠĠĠĠĠĠĠĠĠĠĠĠĠĠĠĠĠĠĠĠĠĠĠĠĠĠĠĠĠĠĠĠĠĠĠĠĠĠĠĠĠĠĠĠ":10032,"Ġproduced":10033,"Ada":10034,"kt":10035,"entropy":10036,"Enter":10037,"clause":10038,"Ġbelong":10039,"Ġsaltenv":10040,"published":10041,"Changed":10042,"duplicate":10043,"Ġsubstitution":10044,"rfc":10045,"ĠSpecifies":10046,"placeholder":10047,"Nodes":10048,"Ġfactors":10049,"encrypt":10050,"etect":10051,"Domain":10052,"inel":10053,"spark":10054,"oll":10055,"ĠAN":10056,"Ġomitted":10057,"Ġlit":10058,"kwarg":10059,"LIC":10060,"ĠRegister":10061,"Ġhappens":10062,"Ġdevelo":10063,"lens":10064,"Ġens":10065,"Ġnest":10066,"METH":10067,"Ġreferenced":10068,"ĠTimeout":10069,"needed":10070,"what":10071,",%":10072,"Ġresize":10073,"Ġinitialization":10074,"celer":10075,"Ġsear":10076,"scroll":10077,"pct":10078,"Database":10079,"Ġsampler":10080,"123":10081,"nic":10082,"Delta":10083,"alm":10084,"Ġrepeated":10085,"Ġchromosome":10086,"/<":10087,"Ġcf":10088,"etic":10089,"Ġtheme":10090,"conc":10091,"argsort":10092,"Ġshif":10093,"æį®":10094,"Sup":10095,"alchemy":10096,"ĠExecute":10097,"IX":10098,"('=":10099,"ĠEC":10100,"Ġsense":10101,"Ġpen":10102,"Ġdeps":10103,"ERY":10104,"THON":10105,"breviation":10106,"REGEX":10107,"notation":10108,"subj":10109,"vile":10110,"Ġgetter":10111,"Ġcircuit":10112,")>":10113,"Ġzipfile":10114,"Ġembedded":10115,"cannot":10116,"iate":10117,"who":10118,"Ġbold":10119,"ARCH":10120,"chdir":10121,"ĠVerify":10122,"Ġdeclared":10123,"ao":10124,"SIGN":10125,"BLOCK":10126,"Ġoauth":10127,"Member":10128,"PP":10129,"Ġaccounts":10130,"FORM":10131,"åį":10132,"elt":10133,"Ġvalidated":10134,"Authentication":10135,"ĠIterate":10136,"Ġascii":10137,"Ġending":10138,"markup":10139,"sco":10140,"Ġdescribe":10141,"mysql":10142,"Ġfilt":10143,"DEX":10144,"receive":10145,"Ġspacing":10146,"Ġdigit":10147,"todo":10148,"vertical":10149,"ASH":10150,"]]:":10151,"(\"#":10152,"logfile":10153,"Bucket":10154,"Ġix":10155,"Comment":10156,"LANG":10157,"åº":10158,"ĠTer":10159,"Ġmav":10160,"pkt":10161,"ÑĢ":10162,"chi":10163,"phot":10164,"MC":10165,"Ġorganization":10166,"Ġ\\'{":10167,"=__":10168,"ĠON":10169,"Ġindicator":10170,"Converts":10171,"Ġpts":10172,"into":10173,"compose":10174,"Ġmodname":10175,"ĠPage":10176,"Ġassumes":10177,"blacklist":10178,"512":10179,"omega":10180,"Ġimpact":10181,"Ġspecs":10182,"Merge":10183,"Ps":10184,"SERVER":10185,"Ġsky":10186,"Ġ\":":10187,"ĠRFC":10188,"CONST":10189,"enchmark":10190,"dct":10191,"rier":10192,"\"]]":10193,"submission":10194,"dists":10195,"|\\":10196,"Ġbond":10197,"vx":10198,"Ġstrand":10199,"Ġmoving":10200,"Ġsessions":10201,"scaled":10202,"Ġflip":10203,"subscribe":10204,"Starting":10205,"ĠQtCore":10206,"Mixin":10207,"Ġymin":10208,"Ġ-----------":10209,"...)":10210,"Ġamb":10211,"coeff":10212,"ĠReference":10213,"ĠDecimal":10214,"multiplier":10215,"Ġascending":10216,"reload":10217,"onts":10218,"COUNT":10219,"('.')[":10220,"åıĸ":10221,"tainty":10222,"gas":10223,"Ġinvoke":10224,"Ġvmin":10225,"zA":10226,"_\"":10227,"Ip":10228,"outh":10229,"Ġmismatch":10230,"Tr":10231,"lux":10232,"Ġ\".\"":10233,"ĠSSH":10234,"Ġinvoked":10235,"UES":10236,"gres":10237,"Ġbr":10238,"=('":10239,"!\".":10240,"PRI":10241,"ĠLa":10242,"Ġsampled":10243,"Ġ'/'.":10244,"signals":10245,"Mod":10246,"*',":10247,"Ġsf":10248,"Ġattention":10249,"Ġ||":10250,"Perform":10251,"timeseries":10252,"BIN":10253,"secs":10254,"Ġdatastore":10255,"Ġmtf":10256,"percentage":10257,"Opt":10258,"stub":10259,"Ġsing":10260,"Ġencrypt":10261,"infos":10262,"ĠLabel":10263,"chains":10264,"scheduler":10265,"49":10266,"Ġaway":10267,"ana":10268,"Ġmol":10269,"indexer":10270,"ĠValues":10271,"??":10272,"dh":10273,"ĠGenerates":10274,"Ġ204":10275,"ĠFILE":10276,"('\\\\":10277,"OLD":10278,"both":10279,"Ġdp":10280,"')),":10281,"needs":10282,"SUP":10283,"xff":10284,"Ġpprint":10285,"ulator":10286,"writes":10287,"Ġthus":10288,"Ġmemo":10289,"aker":10290,"Rows":10291,"Ġintegration":10292,"Ġmgr":10293,"generators":10294,"DIRECT":10295,"Ġdidn":10296,"creds":10297,"Ġrecipient":10298,"bol":10299,"Ġoct":10300,"Ġworkspace":10301,"Ġcumulative":10302,"43":10303,"Ġbam":10304,"Ġstddev":10305,"DateTime":10306,"ENTI":10307,"ĠUTF":10308,"SystemExit":10309,"Ġcredential":10310,"have":10311,"ĠRece":10312,"Ġgroupby":10313,"Ġdebugging":10314,"ĠOverride":10315,"æĹ¶":10316,"!'":10317,"Den":10318,"chors":10319,"}),":10320,"upy":10321,"Ġmags":10322,"classname":10323,"ampling":10324,"Ġ;":10325,"Ġll":10326,"kws":10327,"foot":10328,"pyplot":10329,"similar":10330,"ĠPATH":10331,"ĊĠĠĠĠĠĠĠĠĠĠĠĠĠĠĠĠĠĠĠĠĠĠĠĠĠĠĠĠĠĠĠĠĠĠĠĠĠĠĠĠĠĠĠĠĠĠĠĠĠĠĠĠĠĠĠĠĠĠĠ":10332,"PARE":10333,"Ġdic":10334,"LEN":10335,"inspe":10336,"Axes":10337,"jd":10338,"ctime":10339,"merged":10340,"ssue":10341,"latex":10342,"Ġ----------------------------------------":10343,"Ġ['-":10344,"Ġticks":10345,"hstack":10346,"Ġ\"[":10347,"ĠPRO":10348,"Identity":10349,"čĊĠĠĠĠĠĠĠĠĠĠĠĠĠĠĠĠĠĠĠĠĠĠĠ":10350,"phinx":10351,"uplicated":10352,"Controller":10353,"ĠKEY":10354,"=[\"":10355,"folders":10356,"qos":10357,"Ġ{}\\":10358,"ĠCurrently":10359,"Cho":10360,"atable":10361,"Ġvpc":10362,"ĠVector":10363,"receiver":10364,"ech":10365,"secut":10366,"Ġreload":10367,"REG":10368,"ĠASCII":10369,"DC":10370,"design":10371,"Ġmapper":10372,"Ġlocator":10373,"****************":10374,"mand":10375,"Init":10376,"Invoc":10377,"Last":10378,"Ġlicense":10379,"Ġtensors":10380,"Ġswap":10381,"etched":10382,"Basic":10383,"Ġsudo":10384,"Ġqubit":10385,"ggle":10386,"ConnectionError":10387,"epochs":10388,"CHECK":10389,"Ġpiece":10390,"POR":10391,"Ġvolumes":10392,"ĠChannel":10393,"['__":10394,"spice":10395,"volumes":10396,"Ġcnt":10397,"FUN":10398,"kl":10399,"('^":10400,"Indi":10401,"ĠInteger":10402,"sdk":10403,"Ġdetection":10404,"Ġ23":10405,"ARK":10406,"]\",":10407,"Ġlowest":10408,"Ġsimilarity":10409,"67":10410,"Ġthro":10411,"gorithms":10412,"periments":10413,"Socket":10414,"uids":10415,"ĠPAR":10416,"modify":10417,"Ġplural":10418,"adi":10419,"Ġatt":10420,"dirty":10421,"Ġstopped":10422,"TRAN":10423,"Ġlanguages":10424,"autif":10425,"Ġè":10426,"timestamps":10427,"Ġeffective":10428,"InvocationError":10429,"Hub":10430,"WT":10431,"ĠPa":10432,"brief":10433,"argparse":10434,"mplementation":10435,"Ġlab":10436,"ĠLink":10437,"Ġupon":10438,"Ġauthenticated":10439,"Columns":10440,"Sim":10441,"Const":10442,"fb":10443,"health":10444,"Ġimportant":10445,"Ġmodes":10446,"PASS":10447,"COD":10448,"ĠRPC":10449,"ĠConnect":10450,"TENT":10451,"relationship":10452,"53":10453,"ora":10454,"assets":10455,"Ġpasses":10456,"distrib":10457,"Ġoutcome":10458,"limin":10459,"Ġdatacenter":10460,"Ġexpiration":10461,"dup":10462,"Ġslave":10463,"It":10464,"imag":10465,"Ġenc":10466,"Cd":10467,"Ġstyles":10468,"Ġpaired":10469,"Ġstructures":10470,"NODE":10471,"Ġgrp":10472,"Ġrespectively":10473,"Ġgateway":10474,"hd":10475,"starts":10476,"'m":10477,"rend":10478,"Ġentropy":10479,"2015":10480,"lsp":10481,"Ġnv":10482,"Ġ31":10483,"StringIO":10484,"Ġcorpus":10485,"reddit":10486,"lattice":10487,"ĠDevice":10488,"autiful":10489,"Ġfr":10490,"nest":10491,"ĠUUID":10492,"ogen":10493,"Arg":10494,"ĠREQU":10495,"Ġ';":10496,"fab":10497,"Ġnumerical":10498,"Ġexpects":10499,"ĠLocal":10500,"SPE":10501,"\"\"\",":10502,"Ġrotate":10503,"ĠIPython":10504,"Ġresidue":10505,"Ġamplitude":10506,"Day":10507,"Ġapplicable":10508,"RS":10509,"Ġoutdir":10510,"registration":10511,"Iterable":10512,"Endpoint":10513,"Signature":10514,"Zip":10515,"qt":10516,"REQUIRED":10517,"jump":10518,"achine":10519,"ĠGoogle":10520,"ptide":10521,"Updates":10522,"isoformat":10523,"Ġmultiprocessing":10524,"My":10525,"Ġcle":10526,"][-":10527,"Ġreuse":10528,"Security":10529,"predictions":10530,"ĠUpdates":10531,"ji":10532,"vv":10533,"Ġtm":10534,"profiles":10535,"Ġ[]:":10536,"Ġsecondary":10537,"GROUP":10538,"69":10539,"ipt":10540,"Ġnamedtuple":10541,"egg":10542,"interpre":10543,"priv":10544,"87":10545,"Ġcontinuous":10546,"Ġpublished":10547,"ĠAx":10548,"outs":10549,"bootstrap":10550,"ĠView":10551,"ĠBEL":10552,"Ġindentation":10553,"Ġwrites":10554,"}_{":10555,"Ġclock":10556,"assigned":10557,"Ġstrain":10558,"ĠNothing":10559,"Expr":10560,"orientation":10561,"Ġindexing":10562,"ĠGeo":10563,"rant":10564,"alformed":10565,"ceback":10566,"ĠIS":10567,"Ġblocking":10568,"aggregation":10569,"Sto":10570,"Ġinference":10571,"([^":10572,"Ġgrab":10573,"Setting":10574,"ĠTransform":10575,"Ġincrease":10576,"termines":10577,"aching":10578,"hn":10579,"witch":10580,"sentences":10581,"ĠQueue":10582,"Ġbyref":10583,"avasc":10584,"ĠStorage":10585,"ĠStruct":10586,"Ġfocus":10587,"pressure":10588,"unctuation":10589,"Ġtweet":10590,"):]":10591,"rollment":10592,"Ġdependent":10593,"Ġsymmetric":10594,"ĠDisplay":10595,"zs":10596,"Ġgas":10597,"Ġcoef":10598,"1234":10599,"graphy":10600,"reated":10601,"ĠSample":10602,"Ġlazy":10603,"episode":10604,"xp":10605,"Ġcra":10606,"pem":10607,"Ġsupply":10608,"xxxx":10609,"attempt":10610,"entially":10611,"\")]":10612,"ifo":10613,"vd":10614,"Ġva":10615,"Ġsaving":10616,"Ġcome":10617,"Ġbackward":10618,"52":10619,"Ġelect":10620,"''.":10621,"fileno":10622,"Received":10623,"hub":10624,"launch":10625,"ĠFrom":10626,"SIS":10627,"Ġcorner":10628,"('@":10629,"MAIN":10630,"+)":10631,"Ġrestrict":10632,">')":10633,"wallet":10634,"Ġtoday":10635,"ĠImp":10636,"dicates":10637,"ores":10638,"Ġnice":10639,"ĠLay":10640,"Ġ---------":10641,"Virtual":10642,"LOB":10643,"Enum":10644,"observed":10645,"Ġinterp":10646,"through":10647,"Counter":10648,"ĠKeyboardInterrupt":10649,"Ġmarket":10650,"ĠCH":10651,"APP":10652,"Ġfastq":10653,"/{}'.":10654,"Dimension":10655,"ĠSCons":10656,"Ġtopics":10657,"Password":10658,"wsgi":10659,"iness":10660,"Soup":10661,"raries":10662,"Ġmaterial":10663,"Ġfaces":10664,"conflict":10665,"Ġdivmod":10666,"ACTION":10667,"ĠPrepare":10668,"10000":10669,"EE":10670,"MULTI":10671,"encrypted":10672,"locs":10673,"Datetime":10674,"ares":10675,"once":10676,"Ġbatches":10677,"ĠMon":10678,"creation":10679,"secutive":10680,"capture":10681,"Ġchains":10682,"versation":10683,"Ġretain":10684,"compiler":10685,"hw":10686,"estimate":10687,"Ġapproximate":10688,"Note":10689,"Ġdet":10690,"mouse":10691,"compar":10692,"Ġiv":10693,"ORM":10694,"-\\":10695,"CAS":10696,"ĠCho":10697,"ariate":10698,"measurements":10699,"lam":10700,"First":10701,"eye":10702,"{\\":10703,"Ġdct":10704,"vest":10705,"Ġabstract":10706,"firmware":10707,"Ġ'{}'\".":10708,"Ġmanaged":10709,"qubit":10710,"ĠMatrix":10711,"bem":10712,"Sort":10713,"dynam":10714,"ny":10715,"Ġimports":10716,"visual":10717,"Fore":10718,"SCHE":10719,"ĠAST":10720,"Ġexpire":10721,"ĠLocation":10722,"avascript":10723,"Ġdw":10724,"ĠRemoves":10725,"Ġhealth":10726,"Like":10727,"Ġ`{}":10728,"Ġbuilding":10729,"Processing":10730,"ĠAttemp":10731,"predicted":10732,"reach":10733,"stroke":10734,"Ġinferred":10735,"inality":10736,"ENCE":10737,"optimize":10738,"METHOD":10739,"alarm":10740,"Ġcorrection":10741,"buckets":10742,"PROTO":10743,"Ġpw":10744,"(\">":10745,"ĠCounter":10746,"ĠDep":10747,"REAM":10748,"WD":10749,"ima":10750,"Ġassets":10751,"Ġlag":10752,"Apply":10753,"Ġletters":10754,"ĠTemp":10755,"deep":10756,"Ġhdu":10757,"../":10758,"ifs":10759,"ĠOrder":10760,"Ġcoroutine":10761,"ĠTR":10762,"rbridge":10763,"Ġrecommended":10764,"iet":10765,"stors":10766,"decla":10767,"overrides":10768,"ominator":10769,"doi":10770,"Ġstores":10771,"sf":10772,"Ġum":10773,"reversed":10774,"ĠEOF":10775,"placement":10776,"Quantity":10777,"Ġpow":10778,"define":10779,"strand":10780,"filer":10781,"titles":10782,"PG":10783,"bidden":10784,"('/',":10785,"Ġwire":10786,"grant":10787,"Execute":10788,"builtin":10789,"Ġlegacy":10790,"Render":10791,"xb":10792,"Proto":10793,"Ġlongest":10794,"=\"{":10795,"{},":10796,"inplace":10797,"identifiers":10798,"=[]":10799,"bgp":10800,"Ġintersect":10801,"riterion":10802,"Lvl":10803,"duplicates":10804,"ä¼":10805,"ino":10806,"maker":10807,"Ġfileobj":10808,"Ġchi":10809,"fromtimestamp":10810,"alert":10811,"ĠMerge":10812,"}.'.":10813,"atar":10814,"Binary":10815,"zzy":10816,"Ġassoc":10817,"Ġdists":10818,"FD":10819,"xt":10820,"itect":10821,"Ġbuckets":10822,"Download":10823,"Ġlittle":10824,"å¼":10825,"Install":10826,"Ġtransactions":10827,"fault":10828,"ture":10829,"tabs":10830,"imports":10831,"highlight":10832,"Ġ\\'%":10833,"Ġdecl":10834,"subtype":10835,"sessions":10836,"KEYS":10837,"WID":10838,"Ġarrow":10839,"Ġyi":10840,"Has":10841,"Null":10842,"ĠStep":10843,"Ġimportlib":10844,"Ġmixed":10845,"Ġthird":10846,"alty":10847,"Ġ_('":10848,"ĠItem":10849,"Ġsentences":10850,"nowledge":10851,"wp":10852,"ĠExtra":10853,"cycles":10854,"/:":10855,"Simple":10856,"Tab":10857,"Ġtreated":10858,"Ġdom":10859,"Ġlisting":10860,"ĠOAuth":10861,"polygon":10862,"Ġtransformer":10863,"Ġvoltage":10864,"pitch":10865,"exus":10866,"ĠInternal":10867,"Folder":10868,"META":10869,"discard":10870,"silent":10871,"Ġ###":10872,"Ġ\"&":10873,"\")):":10874,"ĠLength":10875,"Byte":10876,"CLO":10877,"Ġshuffle":10878,"Arn":10879,"rotate":10880,"configured":10881,"Ġpacked":10882,"hp":10883,"paired":10884,"Ġmolecule":10885,"lims":10886,"getvalue":10887,"ĠMissing":10888,"DOWN":10889,"]`":10890,"mplements":10891,"Ġcalibration":10892,"Ġreports":10893,"ĠEngine":10894,"moot":10895,"modname":10896,"pkgs":10897,"residual":10898,"Ġomega":10899,"Git":10900,"fold":10901,"ĠAuto":10902,"Ġtimeseries":10903,"called":10904,"eng":10905,"Ġys":10906,"Ġrefer":10907,">.":10908,"endian":10909,"atever":10910,"Ġuncer":10911,"Ġloads":10912,"wire":10913,"ilde":10914,"llite":10915,"Ġscroll":10916,"Ġcenters":10917,"Ġcustomer":10918,"cumsum":10919,"tan":10920,"tunnel":10921,"monic":10922,"Ġconsumed":10923,"EW":10924,"ĠSaltCloudSystemExit":10925,"Registry":10926,"Ġinterpret":10927,"dropout":10928,"bond":10929,"Ġcookies":10930,"Ġagg":10931,"bn":10932,"='')":10933,"pkl":10934,"ĠOptions":10935,"Ġescaped":10936,"47":10937,"perf":10938,"fobj":10939,"Ġunsigned":10940,"Reads":10941,"SUCCESS":10942,"Progress":10943,"individual":10944,"Left":10945,"AIN":10946,"pic":10947,"decrypt":10948,"arse":10949,"('',":10950,"reed":10951,"oser":10952,"neur":10953,"Partition":10954,"']).":10955,"ĠInclude":10956,"Ġgenerating":10957,"organization":10958,"ĠĠĠĠĠĠĠĠĠĠĠĠĠĠĠĠĠĠĠĠĠĠĠĠĠĠĠĠĠĠĠĠĠĠĠĠ":10959,"CUR":10960,"Ġslope":10961,"hemical":10962,"\"',":10963,"NONE":10964,"éĩ":10965,"Ġefficient":10966,"closing":10967,"NAMES":10968,"Ġunders":10969,"Ġoptimize":10970,"Ġbelongs":10971,"Ġlcdict":10972,"qdm":10973,"zh":10974,"Ġdiscrete":10975,"Ð½":10976,"ĠModule":10977,"{}.":10978,"Ġdestroy":10979,"weighted":10980,"atellite":10981,"Ġ{%":10982,"Ġsubclasses":10983,"Ġcompiler":10984,"iri":10985,"Ġposterior":10986,"{}\\":10987,"itertools":10988,"ensities":10989,"Fin":10990,"Ġutf":10991,"calendar":10992,"ĠRedis":10993,"ĠFlask":10994,"broker":10995,"YPE":10996,"Ġthough":10997,"Ġcollected":10998,"ĠMO":10999,"cial":11000,"authors":11001,"Ġ...]":11002,"itories":11003,"Configure":11004,"fallback":11005,"spatial":11006,"ĠRel":11007,"Ġcontig":11008,"Multiple":11009,"dummy":11010,"Ġci":11011,"otropy":11012,"assembly":11013,"market":11014,"ä¿":11015,"æī":11016,"Ġlhs":11017,"checker":11018,"leton":11019,"recent":11020,"agents":11021,"Ġremoves":11022,"Ġoverridden":11023,"MAN":11024,"ko":11025,"Ġnm":11026,"ĠAction":11027,"payment":11028,"isis":11029,"ĠRandom":11030,"LAGS":11031,"à¸":11032,"ulse":11033,"Ġhint":11034,"ĠPandas":11035,"Card":11036,"queues":11037,"INST":11038,"beam":11039,"cedure":11040,"fwd":11041,"Ġfingerprint":11042,"ĠCalculates":11043,"Ġgenerators":11044,"Ġnic":11045,"Ġintermediate":11046,"OUTPUT":11047,"Encode":11048,"Ġconcaten":11049,"]].":11050,"emu":11051,"lio":11052,"Ġlogits":11053,",\\":11054,"Ġfolders":11055,"Ġrad":11056,"MAIL":11057,"Site":11058,"ĠPDF":11059,"Ġprepend":11060,"hop":11061,"ĊĊĠĠĠĠĠĠĠĠĠĠĠĠĠĠĠĠĠĠĠĠĠĠĠĠĠĠĠ":11062,"hello":11063,"conversion":11064,"providers":11065,"ĠEmpty":11066,"tpl":11067,"avig":11068,"Ġquoted":11069,"Analy":11070,"Ġskipping":11071,"coordinate":11072,"Ġny":11073,"Ġintro":11074,"DOC":11075,"autifulSoup":11076,"scriber":11077,"contig":11078,"Fix":11079,"ticklabels":11080,"Ġappears":11081,"ĠGraphQL":11082,"CDF":11083,"('__":11084,"Ġoverall":11085,"Ġthumbnail":11086,")].":11087,"Got":11088,"horizontal":11089,"occur":11090,"Ġintensity":11091,"ORI":11092,"Ġverification":11093,"vox":11094,"Ġexclusive":11095,"licity":11096,"Ġrelations":11097,"Ġjoint":11098,"Ġscatter":11099,"Ġauthenticate":11100,"slash":11101,"DX":11102,"Ġhooks":11103,"CIM":11104,"Ext":11105,"Ġ2018":11106,"andi":11107,"Ġdfs":11108,"scape":11109,"dead":11110,"Ġcoeffs":11111,"RESS":11112,"Ġsuppress":11113,"Ġnotifications":11114,"Sha":11115,"codec":11116,"clusion":11117,"voltage":11118,"ĠSaltInvocationError":11119,"Ġtaking":11120,"ĠPl":11121,"Selection":11122,"ĠComple":11123,"Redirect":11124,"(\":\")":11125,"ĠClean":11126,"Ġlinewidth":11127,"Ġsystems":11128,"Groups":11129,"TemporaryFile":11130,"Ġfpath":11131,"æł":11132,"ĠOb":11133,"Ġgrains":11134,"overla":11135,":**":11136,"ĠTH":11137,"confidence":11138,"ĠNon":11139,"lipse":11140,"frequencies":11141,"{\"":11142,"blocking":11143,"hardware":11144,"PAGE":11145,"wbem":11146,"Ġsg":11147,"Ġanno":11148,"isfinite":11149,"ĠAli":11150,"Conver":11151,"ĠHE":11152,"sun":11153,"reading":11154,"multiply":11155,"itches":11156,"Ġyes":11157,"traffic":11158,"ularity":11159,"reports":11160,".],":11161,"Ġreshape":11162,"LIMIT":11163,"Ġlowercase":11164,"BEM":11165,"QA":11166,"ardi":11167,"Ġem":11168,"ĠERR":11169,"pause":11170,"anned":11171,"ĠQtGui":11172,"plays":11173,"cmds":11174,"corpus":11175,"Ġtell":11176,"='\\":11177,"loglevel":11178,"FileName":11179,"Ġsmart":11180,"Ġgain":11181,"Ġ%}":11182,"authentication":11183,"Retry":11184,"ĠSIG":11185,"Move":11186,"Ġtornado":11187,"Ġrendering":11188,"NET":11189,"libvlc":11190,"ĠCache":11191,"éĹ":11192,"Ġptr":11193,"Ġopening":11194,"Ġtriggered":11195,"Ġ22":11196,"Ġbackwards":11197,"combo":11198,"WIN":11199,"Ġelt":11200,"ĠFetch":11201,"calibration":11202,"Signal":11203,"LP":11204,"stringutils":11205,"SKIP":11206,"frozen":11207,"Ġsit":11208,"quoted":11209,"Ġplotted":11210,"ĠProtocol":11211,"Driver":11212,"portion":11213,"Denied":11214,"elect":11215,"Ġinstructions":11216,"pore":11217,"ales":11218,"Ġgt":11219,"Repository":11220,"ĠRef":11221,"SETTING":11222,"Ġhelpers":11223,"ä»¶":11224,"Art":11225,"Ġmechanism":11226,"ippet":11227,"afka":11228,"Syn":11229,"lhs":11230,"rates":11231,"rome":11232,"omic":11233,"ĠSetting":11234,"UTC":11235,"(\"/\")":11236,"alogs":11237,"moothed":11238,"Cal":11239,"flip":11240,"Ġpolicies":11241,"INVALID":11242,"93":11243,"Full":11244,"Ġylabel":11245,"photo":11246,"Ġupstream":11247,"(\"\")":11248,":`\\":11249,"Ġdiscard":11250,"Ġdistributions":11251,"operational":11252,"Ġfresh":11253,"())))":11254,"ĠSO":11255,"owns":11256,"Ġwidgets":11257,"chast":11258,"holders":11259,"Conv":11260,"ä¸Ń":11261,"ĠNullArgument":11262,"declaration":11263,"fetchall":11264,"Email":11265,"SyntaxError":11266,"lator":11267,"kes":11268,"ĠEnt":11269,"Ġ{}.":11270,"abb":11271,"invert":11272,"Ġaa":11273,"Ġjava":11274,"Ġproducts":11275,"Ġfitting":11276,"Ġastroid":11277,"Ġpayment":11278,"Ñģ":11279,"Ġche":11280,"Ġpseudo":11281,"ATURE":11282,"Ġexecuting":11283,"dent":11284,"Ġopcode":11285,"DEF":11286,"GHT":11287,"UAGE":11288,"psi":11289,"ĠCount":11290,"Ġcolormap":11291,"Ġcrit":11292,"ĠCorre":11293,"zure":11294,"WH":11295,"ky":11296,"Ġtun":11297,"Ġfq":11298,"Certificate":11299,"axon":11300,"Ġbecomes":11301,"Ġdr":11302,"psd":11303,"({})":11304,"æŀ":11305,"Ġ00":11306,"Ġdialect":11307,"Ġconfigurations":11308,"quires":11309,"Ġrecipe":11310,"indexed":11311,"Ġlocated":11312,"ĠLet":11313,"Ġstacklevel":11314,"expired":11315,"=\\":11316,"emp":11317,"xlarge":11318,"Ġske":11319,"Ġwater":11320,"Ġscenario":11321,"ae":11322,"was":11323,"ramid":11324,"ĠVPC":11325,"subs":11326,"ĠAccount":11327,"Ġsong":11328,"ĠALL":11329,"ĠPr":11330,"Ġsubs":11331,"Ġadj":11332,"Ġutc":11333,"Ġâ":11334,"ambig":11335,"------+":11336,"Ġcapt":11337,"explicit":11338,"fingerprint":11339,"Ġsam":11340,"Ġmt":11341,"relu":11342,"Ġcritical":11343,"Ġpairwise":11344,"PN":11345,"vie":11346,"Ġretcode":11347,"apalm":11348,"soup":11349,"viding":11350,"CONTENT":11351,"ĠWritten":11352,"sink":11353,"Ġwavelength":11354,"Ġseason":11355,"Ġclassifier":11356,"Ġrefs":11357,"PATTERN":11358,"gather":11359,"(';":11360,":]))":11361,"circuit":11362,"ĠMove":11363,"ldap":11364,"Ġdeletion":11365,"Ġversionchanged":11366,"graphs":11367,"ĠUnknown":11368,"Loading":11369,"ences":11370,"Ġmock":11371,"thumbnail":11372,"shuffle":11373,"relations":11374,"heading":11375,"diagonal":11376,"$\",":11377,"]\\":11378,"ami":11379,"DEN":11380,"finder":11381,"pubkey":11382,"Ġfrac":11383,"ietf":11384,"Ġ'='":11385,"setText":11386,"ĠStatus":11387,"Category":11388,"ĠFeature":11389,"every":11390,"Ġexported":11391,"preprocess":11392,"Ġcurves":11393,"compression":11394,"capital":11395,"mming":11396,"Ġnear":11397,"REGI":11398,"Ġnetworks":11399,"EVENT":11400,"ASK":11401,"inspection":11402,"sector":11403,"ilation":11404,"Ġ!":11405,"orient":11406,"idle":11407,"transactions":11408,"Notification":11409,"Ġearly":11410,"ĠGaussian":11411,"structures":11412,"Ġsqlite":11413,"CLIENT":11414,"mf":11415,"ypot":11416,"Ġping":11417,"Ġwor":11418,"mods":11419,"Ġlattice":11420,"Ġaffected":11421,":<":11422,"fork":11423,"Ġcamera":11424,"Ġask":11425,"secondary":11426,"xd":11427,"åľ":11428,"Ġsess":11429,"')).":11430,"terminate":11431,"languages":11432,"lings":11433,"Ġtip":11434,"desired":11435,"ises":11436,"Ġcollector":11437,"ĠBit":11438,"workdir":11439,"ĠGenerator":11440,"ĠBytes":11441,"networks":11442,"crc":11443,"ĠSto":11444,"ĠPort":11445,"ĠInsert":11446,"zones":11447,"Ġtransforms":11448,"Ġblacklist":11449,"Ġcategorical":11450,"ĠHost":11451,"Ġuploaded":11452,"Encoding":11453,"Ġrealm":11454,"'\")":11455,"Ġgaussian":11456,"Ġrd":11457,"Parses":11458,"ĠSetter":11459,"82":11460,"legram":11461,"ĠFigure":11462,"AWS":11463,"edu":11464,"IB":11465,"RM":11466,"Ġctype":11467,"material":11468,"Ġstops":11469,"ĠBovy":11470,"fabric":11471,"83":11472,"gray":11473,"Ġcoll":11474,"Ġsubtype":11475,"{}_":11476,"transitions":11477,"letters":11478,"Ġviews":11479,"Ob":11480,"SF":11481,"Ġflattened":11482,"ĠAL":11483,"ĠHDF":11484,"chines":11485,"DOUT":11486,"Private":11487,"Ġinternally":11488,"Ġsymbolic":11489,"Ġparticle":11490,"Ġradians":11491,"LABEL":11492,"hicle":11493,"roma":11494,"fopen":11495,"STREAM":11496,"TIVE":11497,"ĠAppend":11498,"å¯":11499,"ĠFuture":11500,"ĠRET":11501,"LOCAL":11502,"Ġcircle":11503,"Ġmutation":11504,"Variant":11505,"çĽ":11506,"ĠĊĠĠĠĠĠĠĠĠĠĠĠĠĠĠĠĠĠĠĠ":11507,"inet":11508,"backward":11509,"Ġcube":11510,"Ġdomains":11511,"Provider":11512,"Abstract":11513,"Term":11514,"ĠOperationFailed":11515,"ateway":11516,"Ġexe":11517,"CONNE":11518,"CREATE":11519,"Ġfrozenset":11520,"also":11521,"specimens":11522,"ĠBut":11523,"whitelist":11524,"199":11525,"eper":11526,"lashes":11527,"Ġforecast":11528,"åŃĹ":11529,"gw":11530,"ĠĊĠĠĠĠĠĠ":11531,"getitem":11532,"ĠSD":11533,"Ġpurposes":11534,"camera":11535,"æĿ":11536,"Ġbeg":11537,"ĠSite":11538,"ĠDraw":11539,"lazy":11540,"Ġlocally":11541,"Ġinstitute":11542,"Wh":11543,"udi":11544,"ssian":11545,"Ġtouch":11546,"Ġground":11547,"ĠFin":11548,"deployment":11549,"Qual":11550,"Ġmn":11551,"63":11552,"LC":11553,"Ġgid":11554,"Ġlatent":11555,"2010":11556,"Ġtranspose":11557,"ERT":11558,"freqs":11559,"Area":11560,"pole":11561,"fontsize":11562,"IMAGE":11563,"imap":11564,"Ġfinding":11565,"Environment":11566,"æĺ¯":11567,"Ġcomposite":11568,"Ġnetloc":11569,"snapshots":11570,"Structure":11571,"Ġintended":11572,"tains":11573,"ĠDocker":11574,"inventory":11575,"Ġprom":11576,"posix":11577,"saltenv":11578,"isation":11579,"Ġ\\\"":11580,"finditer":11581,"Err":11582,"Ġevidence":11583,"ĠInstall":11584,"intersect":11585,"Ġtokenize":11586,"Ġjoined":11587,"BytesIO":11588,"MODULE":11589,"hdu":11590,"Ġ','":11591,"Ġobserver":11592,"Ġissuer":11593,"interactive":11594,"Ġsignificant":11595,":`~.":11596,"Ġterminate":11597,"Geometry":11598,"Ġvoxel":11599,"transformer":11600,"colour":11601,"ĠGu":11602,"specification":11603,"/*":11604,"92":11605,"ucli":11606,"atively":11607,"Ġrt":11608,"trained":11609,"abstract":11610,"Ġperms":11611,"{{":11612,"aspect":11613,"msgs":11614,"Ġcomputing":11615,"ORDER":11616,"Binds":11617,"bd":11618,"atalog":11619,"ople":11620,"Ġcaption":11621,"ĠParses":11622,"qualifier":11623,"ĠDefine":11624,"+')":11625,"?\\":11626,"Gen":11627,"Ġopp":11628,"Ġdirective":11629,"2014":11630,"Ġheading":11631,"Ġlw":11632,"quit":11633,"Ġcmds":11634,"shake":11635,"stmts":11636,"Ġwind":11637,"alphabet":11638,"Ġcontrols":11639,"numer":11640,"Ġdescend":11641,"Axis":11642,"ĠTree":11643,"ĠEvalu":11644,"ĠOPTIONAL":11645,"UUID":11646,"eth":11647,"ĠDNS":11648,"Ġobjs":11649,"issub":11650,"ENV":11651,"transforms":11652,"?)":11653,"Ġorient":11654,"Ġ3600":11655,"computed":11656,"alleli":11657,"umin":11658,"Ġlr":11659,"Ġdecoding":11660,"accuracy":11661,"Ġphrase":11662,"legacy":11663,"Iterator":11664,"Ġbroken":11665,"Utils":11666,"olation":11667,"Ġub":11668,"jections":11669,"impact":11670,"Ġreward":11671,"ProcessError":11672,"Ġdm":11673,"etime":11674,"drive":11675,"ONT":11676,"waiting":11677,"Rep":11678,"observations":11679,"Ġconditional":11680,"ransport":11681,"LM":11682,"{}\"":11683,"Ġtranslated":11684,"Created":11685,"Ġfnmatch":11686,"Ġolder":11687,"Cdlib":11688,"lfile":11689,"Ġextras":11690,"Summary":11691,"Take":11692,"dpi":11693,"ĠCannot":11694,"fort":11695,"xFF":11696,"Ġsmallest":11697,"Ġmilliseconds":11698,"Ġsigning":11699,"Ġscheduled":11700,"allery":11701,"rating":11702,"']])":11703,"PORTED":11704,"Chain":11705,"gca":11706,"trees":11707,"{}]":11708,"combined":11709,"consistent":11710,"Ġbehaviour":11711,"Future":11712,"Ġ&=":11713,"Ġtruncate":11714,"Util":11715,"Public":11716,"('$":11717,"Ġhi":11718,"Remote":11719,"Height":11720,"ĠREST":11721,"Ġenforce":11722,"(\".\",":11723,"RENT":11724,"Ġinterpreted":11725,"ĠĠĠĠĠĠĠĠĠĠĠĠĠĠĠĠĠĠĠĠĠĠĠĠĠ":11726,"ĠCOL":11727,"Events":11728,"consumed":11729,"ĠThat":11730,"coroutine":11731,"ĠAssign":11732,"UPDATE":11733,"wikipedia":11734,"Vert":11735,"mst":11736,"Ġemp":11737,"Ġrl":11738,"Shk":11739,"resample":11740,"Ġdetermines":11741,"Exists":11742,"ĠAfter":11743,"polar":11744,"Ġrecursion":11745,"ĠDownload":11746,"WRI":11747,"Dest":11748,"extras":11749,"bold":11750,"arter":11751,"chk":11752,"tracker":11753,"Ġsubtract":11754,"2017":11755,"cdlib":11756,"gal":11757,"Ġhar":11758,"Recs":11759,"brain":11760,"closure":11761,"Ġforeign":11762,"eig":11763,"nost":11764,"å½":11765,"SSH":11766,"aneous":11767,"Ġ28":11768,"Integr":11769,"vey":11770,"Ġ21":11771,"rsa":11772,"=\",":11773,"guid":11774,"Ġprt":11775,"Ġnotation":11776,"shif":11777,"Filename":11778,"lue":11779,"Ġsector":11780,"Ġregexp":11781,"usic":11782,"Ġdistinct":11783,"Append":11784,"tweet":11785,"inten":11786,"Ġrup":11787,"TypeId":11788,"Ġtherefore":11789,"markdown":11790,"PyCdlib":11791,"quisition":11792,"rng":11793,"Ġfac":11794,"Ġdpi":11795,"unix":11796,"startup":11797,"Ġ300":11798,"Ġpycdlib":11799,"Ġmoved":11800,"Ġorgan":11801,"pability":11802,"Github":11803,"ĠFlow":11804,"Ġ\",\".":11805,"counters":11806,"wheel":11807,"urlopen":11808,"='/":11809,"æģ":11810,"tsv":11811,"fullname":11812,"replic":11813,"Ġpycdlibexception":11814,"BLE":11815,"DT":11816,"atern":11817,"Ġce":11818,"within":11819,"Ġgenerates":11820,"Ġapplying":11821,"torch":11822,"odata":11823,"caption":11824,"REE":11825,")[:":11826,"Icon":11827,"Termin":11828,"NUMBER":11829,"Ġacceptable":11830,"RAY":11831,"viz":11832,"Ġlam":11833,"correlation":11834,"dtypes":11835,"lvl":11836,"ĠReset":11837,"EMP":11838,"provenance":11839,"ĠShape":11840,"ĠInt":11841,"managed":11842,"Ġwhitelist":11843,"Ġdecrypt":11844,"Ġdefer":11845,"Ġ``\"":11846,"fake":11847,"Ġfunctionality":11848,"etches":11849,"Ġray":11850,"Ġoptimal":11851,"ertificates":11852,"ĠApplication":11853,"rfind":11854,"deprecated":11855,"song":11856,"tended":11857,"fed":11858,"rg":11859,"mas":11860,"Ġgaps":11861,"ĠPIL":11862,"traverse":11863,"Ġargspec":11864,"linked":11865,"Ġclassname":11866,"handled":11867,"Ġcombinations":11868,"Wrong":11869,"iam":11870,"('`":11871,"__':":11872,"ĠOpt":11873,"spawn":11874,"Statement":11875,">{":11876,"ĠTCP":11877,"192":11878,"Headers":11879,"Metric":11880,"cx":11881,"Ġresample":11882,"Ġchanging":11883,"Too":11884,"ĠProgram":11885,"attachments":11886,"gov":11887,"addrs":11888,"Arguments":11889,"Ġff":11890,"Ġcas":11891,"asm":11892,"ivariate":11893,"AttributeError":11894,"('~":11895,"Off":11896,"far":11897,"ske":11898,"Ġosp":11899,"losses":11900,"hg":11901,"stype":11902,"oting":11903,"FIL":11904,"-',":11905,"]._":11906,"Ġfft":11907,"ĠMeas":11908,"İ·":11909,"Conf":11910,"TF":11911,"ĠJava":11912,"herited":11913,"expanded":11914,"Bot":11915,"qte":11916,"Export":11917,"beled":11918,"printer":11919,"lipsis":11920,")()":11921,"elapsed":11922,"padded":11923,"ĠSize":11924,"requester":11925,"ĠZero":11926,"Ġyears":11927,"district":11928,"Ġxlabel":11929,"Ġuserid":11930,"ĠQA":11931,"flask":11932,"maries":11933,"roi":11934,"presence":11935,"ĠJust":11936,"Ġepisode":11937,"regs":11938,"newline":11939,"Ġdifferences":11940,"products":11941,"east":11942,"xfer":11943,"ĠSyntaxError":11944,"ĠReads":11945,"rdd":11946,"Ġcx":11947,"('-',":11948,"Ġhowever":11949,"FN":11950,"Ġdeferred":11951,"Ġpercentile":11952,"divide":11953,"ĠPID":11954,"Permission":11955,"iters":11956,"Ġ==========":11957,"preferred":11958,"ĠNx":11959,"((-":11960,"Ġdaily":11961,"Ġeasy":11962,"Ġpagin":11963,"Body":11964,"kn":11965,"yml":11966,"Reset":11967,"Ġrandomly":11968,"onomy":11969,"Ġpag":11970,"='.":11971,"minus":11972,"Ġrunas":11973,"Ġdetector":11974,"Ġmc":11975,"Ġ#################################":11976,"Ġconj":11977,"vect":11978,"Ġconsume":11979,"invoke":11980,"season":11981,"onto":11982,"parsing":11983,"Details":11984,"sampler":11985,"inity":11986,"\"]),":11987,"REL":11988,"colorbar":11989,"Short":11990,"æģ¯":11991,"\"^":11992,"Inv":11993,"ĠBinary":11994,"Ġapproach":11995,"Ġctrl":11996,"ĠDirectory":11997,"ĠSymbol":11998,"vmin":11999,"Ġrepl":12000,"uns":12001,"Ġproxies":12002,"Ġsucceed":12003,"ĠMetadata":12004,"ĠNDArray":12005,"-'":12006,"stopped":12007,"2016":12008,"æľī":12009,"Ġfo":12010,"ignored":12011,"correction":12012,"arcsec":12013,"OPEN":12014,"ĠKeep":12015,"instruction":12016,"Ġsaf":12017,"VA":12018,"water":12019,"Ġshe":12020,"Ġdrive":12021,"osa":12022,"755":12023,"Ġ''),":12024,"ĠSFrame":12025,"ĠDI":12026,"ĠMedia":12027,"istant":12028,"caps":12029,"Ġmatcher":12030,"scr":12031,"INPUT":12032,"Ġspans":12033,"community":12034,"stddev":12035,"Ġmiddleware":12036,"prom":12037,"Ð¾Ð":12038,"Depend":12039,"kers":12040,"Ġinject":12041,"Ġdeclaration":12042,"Ġchecker":12043,"}\"'.":12044,"Ġsingular":12045,"DESCRI":12046,"Ġcolorbar":12047,"BS":12048,"cron":12049,"dip":12050,"that":12051,"Ġhdf":12052,"ĠFrame":12053,"ĠPut":12054,"defaultdict":12055,"Ġtriangle":12056,"CONT":12057,"EK":12058,"rms":12059,"anno":12060,"Checking":12061,"sqlite":12062,"dll":12063,"gaussian":12064,"åĩ":12065,"SEC":12066,"Ġsometimes":12067,"Ġtrees":12068,"Ġair":12069,"))),":12070,"ĠSeq":12071,"TRIBU":12072,"Ġfid":12073,"look":12074,"Ġbaseline":12075,"Ġvim":12076,"]|":12077,"ĠSV":12078,"ĠFOR":12079,"ĠMAV":12080,"Ġkeras":12081,"Ġtwice":12082,"Ġseparators":12083,"Ġpod":12084,"sampled":12085,"tmpdir":12086,"Reading":12087,"LF":12088,"dw":12089,"delim":12090,"Ġdn":12091,"posal":12092,"Ġexpansion":12093,"Ġstable":12094,"Ġjid":12095,"Ġperiodic":12096,"iblings":12097,"Ġpkgs":12098,"Ġmigration":12099,"spans":12100,"Ġunsupported":12101,"ĠWhat":12102,"Ġinitializer":12103,"3333":12104,"LANGUAGE":12105,"Ġfiletype":12106,"urlparse":12107,"ĠRow":12108,"errs":12109,"Objects":12110,"ĠThread":12111,"ĠSame":12112,"ĠFlag":12113,"Ġendian":12114,"Ġeffects":12115,"('_')":12116,"ĠElementTree":12117,"Poly":12118,"Bus":12119,"urses":12120,"Ġinds":12121,"Ġmor":12122,"ONG":12123,"lons":12124,"itecture":12125,"owel":12126,"Ġindexer":12127,"ĠSection":12128,"ĠEntry":12129,"Ġanalyses":12130,"Ġimt":12131,"Ġalg":12132,"redu":12133,"Ġcampaign":12134,"arer":12135,"Ġ2017":12136,"decay":12137,"Ġ'['":12138,"Debug":12139,"Adding":12140,"dk":12141,"hib":12142,"arct":12143,"Ġundefined":12144,"bsite":12145,"Ġassuming":12146,"Ġseqs":12147,"Ġsecure":12148,"Ġlvl":12149,"Ġunchanged":12150,"Construct":12151,"isson":12152,"Ġrectangle":12153,"Ġgc":12154,"Ġdiffer":12155,"Ġsetter":12156,"ldp":12157,"Ġfluxes":12158,"Ġpeaks":12159,"Decorator":12160,"ĠBig":12161,"centric":12162,"simp":12163,"Ġhasher":12164,"UNKNOWN":12165,"Dump":12166,"userid":12167,"MET":12168,"azimuth":12169,"ĠCollection":12170,"Adapter":12171,",(":12172,"yr":12173,"Ġml":12174,"Ġ\":\"":12175,"Ġring":12176,"posterior":12177,"RESP":12178,"Skipping":12179,"Ġcompletely":12180,"?',":12181,"Funce":12182,"[%":12183,"bz":12184,"credential":12185,"isnull":12186,"Replace":12187,"FIELDS":12188,"ĠERROR":12189,"Funceble":12190,"Ġsemi":12191,"xaxis":12192,"peed":12193,"Ġconvenience":12194,"ĠDynam":12195,"})'.":12196,"Ġcrc":12197,"(((":12198,"Ġtested":12199,"RECASE":12200,"CRI":12201,"Ġconsecutive":12202,"Ġalgo":12203,"Ġqry":12204,"Ġfullname":12205,"FFER":12206,"Ġutility":12207,"instr":12208,"ages":12209,"Ġchunksize":12210,"Ġgoes":12211,"certs":12212,"Ġpotentially":12213,"jax":12214,"inate":12215,"urable":12216,"ullable":12217,"SEPAR":12218,"NU":12219,"pu":12220,"Ġpv":12221,"Ġdtypes":12222,"Ġlocked":12223,"Ġ\"$":12224,"Ġcoerce":12225,"compact":12226,"flows":12227,"ggreg":12228,"dean":12229,"ĠVis":12230,"ĠBY":12231,"intenance":12232,"æİ":12233,"mpp":12234,"Ġstudy":12235,"Ġplaces":12236,"SERVICE":12237,"VS":12238,"udf":12239,"Ġquit":12240,"ĠComputes":12241,"Ġworksheet":12242,"Callable":12243,"patches":12244,"vg":12245,"chip":12246,"Ġhop":12247,"circle":12248,"Ġreject":12249,"ĠCA":12250,"Ġtxn":12251,"Runtime":12252,"tracks":12253,"study":12254,"ordering":12255,"TERS":12256,"tions":12257,"Expi":12258,"Ġ''}":12259,"Price":12260,"\"%(":12261,"authenticate":12262,"Chunk":12263,"Methods":12264,"ĠBeautifulSoup":12265,";\\":12266,"Cancel":12267,"virt":12268,"Ġshouldn":12269,"Ġsends":12270,"Ġdetailed":12271,"ĊĉĉĠĠĠ":12272,"chedul":12273,"uclidean":12274,"PACK":12275,"Errors":12276,"Ġlearn":12277,"Ġsubplot":12278,"LAST":12279,"TM":12280,"Ġodd":12281,"Ġwf":12282,"Regex":12283,"ĠStack":12284,"ĠMultiple":12285,"ĊĠĠĠĠĠĠĠĠĠĠĠĠĠĠĠĠĠĠĠĠĠĠĠĠĠĠĠĠĠĠĠĠĠĠĠĠĠĠĠĠĠĠĠĠĠĠĠĠĠĠĠĠĠĠĠĠĠĠĠĠ":12286,"Ġsnapshots":12287,"Ġremain":12288,"ĠRemote":12289,"Ġlogfile":12290,"Ġfailures":12291,"dashboard":12292,"yaxis":12293,"Ġpsd":12294,"irth":12295,"Ġdrawn":12296,"jacent":12297,"Ġensures":12298,"DAT":12299,"aco":12300,"Ġchip":12301,"Ġparsers":12302,"Ġmodifier":12303,"Ġpmagplotlib":12304,"Credentials":12305,"decess":12306,"Ġassembly":12307,"grads":12308,"aven":12309,"organ":12310,"Ġprotobuf":12311,"weekday":12312,"Scale":12313,"hh":12314,"ĊĠĠĠĠĠĠĠĠĠĠĠĠĠĠĠĠĠĠĠĠĠĠĠĠĠĠĠĠĠĠĠĠĠĠĠĠĠĠĠĠĠĠĠĠĠĠĠĠĠĠĠĠĠĠĠĠĠĠĠĠĠ":12315,"Ġpackets":12316,"={}'.":12317,"sz":12318,"Ġck":12319,"could":12320,"basedir":12321,"cases":12322,"purpose":12323,"Ign":12324,"Ġdh":12325,"ĠNet":12326,"ĠMongo":12327,"Ġunix":12328,"Ġtruth":12329,"Ġplaced":12330,"}-{":12331,"Ġfine":12332,"Ġdu":12333,"Ġintercept":12334,"IGNORECASE":12335,"bid":12336,"Ġ10000":12337,"Ġgiving":12338,"texts":12339,"Ġwhatever":12340,"ĠSELECT":12341,"Lines":12342,"cube":12343,"Ġmtime":12344,"ĠSpecial":12345,"brid":12346,"ering":12347,"savefig":12348,"Records":12349,"Ġconverting":12350,"=\"\"):":12351,"Ġdropout":12352,"PING":12353,"libs":12354,"Ġneither":12355,"Ġconnecting":12356,"Media":12357,"Route":12358,"]==":12359,"illed":12360,"ĠNS":12361,"FIER":12362,"rupted":12363,"middleware":12364,"ays":12365,"wildcard":12366,"Ġsplitted":12367,"vides":12368,"Single":12369,"unlink":12370,"Enable":12371,"implicit":12372,"GEN":12373,"Ġtopo":12374,"Ġxx":12375,"Ġvalidity":12376,"WR":12377,"rink":12378,"Ġaio":12379,"Ġoften":12380,"Ġrelpath":12381,"wit":12382,"magn":12383,"ĠContainer":12384,"tensors":12385,"Ġreplic":12386,"Ġdelim":12387,"Ġknot":12388,"ĠSET":12389,"isted":12390,"molecule":12391,"calib":12392,"tokenize":12393,"shortcut":12394,"Cy":12395,"Clean":12396,"Sync":12397,"human":12398,"Ġinventory":12399,"handles":12400,"generation":12401,"har":12402,"Ġaf":12403,"Require":12404,"ircuit":12405,"blueprint":12406,"Ġkept":12407,"033":12408,"trunk":12409,"Ġattack":12410,"âĢĻ":12411,"buffers":12412,"meter":12413,"ĠTYPE":12414,"qualified":12415,"Press":12416,"tections":12417,"Ġ}}":12418,"Setup":12419,"Ġprefixed":12420,"Language":12421,"ç¬":12422,"Ġconsensus":12423,"Hz":12424,"Ġserialization":12425,"expire":12426,"Ġetag":12427,"Ġprimitive":12428,"symlink":12429,"expiration":12430,"cas":12431,"ĠEstim":12432,"Ġcompared":12433,"('-')":12434,"Ġcycles":12435,"ISTORY":12436,"Ġblueprint":12437,"Fra":12438,"ĠJson":12439,"envs":12440,"typing":12441,"Pick":12442,"tun":12443,".{":12444,"air":12445,"kargs":12446,"Ġtpl":12447,"Ġsun":12448,"Ġinsertion":12449,"Ġinterpolate":12450,"toc":12451,"Ġcomes":12452,"derived":12453,"annotate":12454,"masks":12455,"Ġreported":12456,"PROCESS":12457,"Ġatomic":12458,"Ġmarginal":12459,"datacenter":12460,"Ġleader":12461,"Ġscales":12462,"Ġphoto":12463,"schemas":12464,"bracket":12465,"Hook":12466,"Ġpx":12467,"ĠSetup":12468,"Ġtriggers":12469,"Ġmarkdown":12470,"Ġpolar":12471,"ĠVolume":12472,"wf":12473,"aln":12474,"boost":12475,"abbreviation":12476,"cleot":12477,"ming":12478,"Ġstroke":12479,"ĠTHE":12480,"Ġpassphrase":12481,"Ġmaintain":12482,"regexp":12483,"gapic":12484,"ëĭ":12485,"Ġcron":12486,"Determine":12487,"Ġft":12488,"upd":12489,"forum":12490,"clarations":12491,"Ġhardware":12492,"IDE":12493,"Env":12494,"Ġdecorate":12495,"Ġloops":12496,"}\\'":12497,"+=":12498,"]_":12499,"Ġrecogn":12500,"Release":12501,"ĠPoly":12502,"TU":12503,"Ġ[]))":12504,"ĠUP":12505,"ickness":12506,"ClassType":12507,"HH":12508,"rollers":12509,"RAW":12510,"Ġtiles":12511,"<=":12512,"ĠForce":12513,"\"},":12514,"ico":12515,"Consts":12516,"Ġmanual":12517,"InvalidArgument":12518,"İ·åıĸ":12519,"consensus":12520,"Ġalbum":12521,"ENABLE":12522,"Ġtitles":12523,"Ġinterpreter":12524,"CN":12525,"Train":12526,"Ġrecognized":12527,"ĠSQ":12528,"ĠFAST":12529,"Ġtransitions":12530,"FAI":12531,"ĠParseError":12532,"Ġinstantiate":12533,"62":12534,"Center":12535,"swap":12536,"Ġburn":12537,"Ġwheel":12538,"asn":12539,"ĠAzure":12540,"classifier":12541,"ĠBasic":12542,"\"]):":12543,"ONSE":12544,"BYTES":12545,"anisotropy":12546,"Ġdense":12547,"provided":12548,"{}:":12549,"Generates":12550,"ĠSignal":12551,"chastic":12552,"Scope":12553,"-----":12554,"disp":12555,"assoc":12556,"ensive":12557,"pread":12558,"Ġwebsocket":12559,"Ġnoinspection":12560,"populate":12561,"guide":12562,"ĠĊĊĠĠĠ":12563,"arwin":12564,"Ġatol":12565,"Ġqueues":12566,"Ġplaintext":12567,"Ġ[-]":12568,"tumor":12569,"Restricted":12570,"Ġheap":12571,"fetchone":12572,"stre":12573,"Ġnrows":12574,"Reply":12575,"ĠClear":12576,"Ġmarkup":12577,"sas":12578,"orbit":12579,"Ġbands":12580,"getsize":12581,"Ġreflect":12582,"Unicode":12583,"Ġregardless":12584,"Ġperf":12585,"Imp":12586,"paragraph":12587,"Ġinstr":12588,"ĠLC":12589,"Ġcharge":12590,"Polygon":12591,"prof":12592,"Asset":12593,"planation":12594,"Ġtzinfo":12595,"Ġeasier":12596,"album":12597,"viations":12598,"Ġtimed":12599,"QUERY":12600,"notifications":12601,"BA":12602,"ĠSum":12603,"Validation":12604,"ĠDes":12605,"trajs":12606,"diffs":12607,"etag":12608,"tmpl":12609,"¦Ĥ":12610,"ĠDATA":12611,"``).":12612,"Ġcodec":12613,":]):":12614,"BL":12615,"Score":12616,"will":12617,"Ġcalculating":12618,"Help":12619,"Long":12620,"åĮ":12621,"Ġsz":12622,"ĠTop":12623,"venio":12624,"ä¸į":12625,"61":12626,"Case":12627,"xmax":12628,"segs":12629,"Counts":12630,"rhs":12631,"vnetwork":12632,"filesystem":12633,"pache":12634,")\"\"\",":12635,"ĠPermissionDenied":12636,"collector":12637,"ĠBatch":12638,"daily":12639,"brosa":12640,"Ġ\"-\"":12641,"ĠManage":12642,"Ġtl":12643,"stick":12644,"keh":12645,"mock":12646,"fee":12647,"Ġpriv":12648,"ĠProfile":12649,"Ġsymlink":12650,"Ġoccurrences":12651,"Ġprincipal":12652,"imshow":12653,"passed":12654,"SCHEMA":12655,"Ġcontra":12656,"Library":12657,"ĠFailed":12658,"ito":12659,"isclass":12660,"Ġ\"\\\\":12661,"Ġ2000":12662,"ADATA":12663,"aternion":12664,"Atom":12665,"litlet":12666,"Ġsubmitted":12667,"Ġanyway":12668,"NotSet":12669,"ĠComponent":12670,"mirror":12671,"Ġclustering":12672,"Ġbio":12673,"Ġproceed":12674,"matmul":12675,"Ġlibrosa":12676,"ĠLoads":12677,"Relation":12678,"DER":12679,"yellow":12680,"uris":12681,"Ġstudent":12682,"olves":12683,"Ġgrade":12684,"plate":12685,"hexlify":12686,"zmq":12687,"Ġorth":12688,"mins":12689,"Ġ'-':":12690,"FAILED":12691,"ĠStrip":12692,"pypi":12693,"extractor":12694,"UNI":12695,"firmed":12696,"=.":12697,"Distribution":12698,"âĸ":12699,"ĠĊĊĠĠĠĠĠĠĠ":12700,"ĠâĢ":12701,"Ġpatches":12702,"vecs":12703,"Ġresume":12704,"ĠHy":12705,"Ġfluid":12706,"Some":12707,"Ġreview":12708,"ĠGen":12709,"Ġgrammar":12710,"tlen":12711,"Ġ'):":12712,"ĠSingle":12713,"Upload":12714,"Decimal":12715,"ĠOptionally":12716,"surf":12717,"subscriptions":12718,"81":12719,"reward":12720,"exclusive":12721,"('|":12722,"Ġblocksize":12723,"TERM":12724,"ĠMagRec":12725,"Calcul":12726,"PD":12727,"utors":12728,"cip":12729,"Evalu":12730,"RDF":12731,"sis":12732,"adm":12733,"foreign":12734,"Processor":12735,"ĠWS":12736,"Product":12737,"Ġconstructed":12738,"Ġsmoothing":12739,"PK":12740,"intable":12741,"Ġcontexts":12742,"Ġseek":12743,"management":12744,"nk":12745,"Ġncols":12746,"Ġalive":12747,"alone":12748,"Ġ`_":12749,"SED":12750,"passwd":12751,"enums":12752,"strained":12753,"ĠCollect":12754,"SERT":12755,"coll":12756,"ONLY":12757,"INDEX":12758,"ducer":12759,"Ġlimited":12760,"snr":12761,"Ġconsistency":12762,"warm":12763,"ĠFound":12764,"hr":12765,"secho":12766,"ĠTurn":12767,"-----+":12768,"Ġminim":12769,"realm":12770,"Ġamong":12771,"squared":12772,"lain":12773,"MAG":12774,"normalization":12775,"phen":12776,"abf":12777,"grammar":12778,"tempdir":12779,"ometric":12780,"Ġearlier":12781,"Serializer":12782,"mimetype":12783,"jectories":12784,"ĠMD":12785,"wavelength":12786,"POSI":12787,"ĠHeader":12788,"æķ°æį®":12789,"]})":12790,"å°":12791,"ĠPmag":12792,"ĠGPU":12793,"Ġbindings":12794,"ĠNumPy":12795,"Clear":12796,"review":12797,"Ġleaves":12798,"Ġauthorized":12799,"?\"":12800,"Packet":12801,"included":12802,"leaves":12803,"Ġcreds":12804,"Right":12805,"utter":12806,"Ġverified":12807,"Ġtruncated":12808,"cub":12809,"xFFFF":12810,"Ġot":12811,"...\"":12812,"Ġwanted":12813,"colon":12814,"Ġpaper":12815,"Ġslots":12816,"erc":12817,"uric":12818,"Ġsemant":12819,"Ġsubparsers":12820,"Constants":12821,"matcher":12822,"])),":12823,"Ġdirected":12824,"ĠLookup":12825,"pherical":12826,"slope":12827,"tier":12828,"ĊĊĠĠĠĠĠĠĠĠ":12829,"Ġ`.":12830,"ouch":12831,"FROM":12832,"pst":12833,"pyc":12834,"ATTRIBU":12835,"ĠParser":12836,"5678":12837,"æŀľ":12838,"above":12839,"*'":12840,"qm":12841,"ulls":12842,"Ġconstruction":12843,"ĠScale":12844,"Ġkappa":12845,"Ġstra":12846,"Ġprints":12847,"Ġstartup":12848,"ĠUseful":12849,"Ġmultiplier":12850,"Ġxyz":12851,"Ġthrown":12852,"pieces":12853,"Ġfirm":12854,"Ġtech":12855,"RET":12856,"51":12857,"ĠSecurity":12858,"Ċĉĉĉĉĉĉĉ":12859,"ymin":12860,"Ġwcs":12861,"touch":12862,"dated":12863,"Ġgrouping":12864,"Ġsearching":12865,"FACT":12866,"Ġmpl":12867,"Ġtrade":12868,"Ġperforming":12869,"ĠTraceback":12870,"treatment":12871,"Life":12872,"caling":12873,"Ġ\"\").":12874,"Ġ2014":12875,"suggest":12876,"chem":12877,"**:":12878,"Condition":12879,":(":12880,"memo":12881,"Ġfm":12882,"signing":12883,"ĠStandard":12884,"directed":12885,"('_',":12886,"characters":12887,"ĠLinux":12888,"Ġtexts":12889,"discrete":12890,"La":12891,"RST":12892,"Ġlf":12893,"undant":12894,"__'":12895,"Ġprefer":12896,"Ġmaxiter":12897,"Ġcauses":12898,"Ġminimal":12899,"facet":12900,"NaN":12901,"Ġdirections":12902,"Ġadv":12903,"Ġannotated":12904,"Bool":12905,"ipython":12906,"Ġancestor":12907,"Ġfout":12908,"Contents":12909,"WRITE":12910,"SW":12911,"Diff":12912,"closest":12913,"FL":12914,"Ġips":12915,"Ġlibspice":12916,"finity":12917,"Period":12918,"MENTS":12919,"YANGDynClass":12920,"asses":12921,"ĠFast":12922,"ĠMain":12923,"ĠOP":12924,"Ġjar":12925,"={}\".":12926,"Ġcircular":12927,"EMAIL":12928,"gps":12929,"Ġ'|":12930,"Ġhashed":12931,"servable":12932,"Ġrespond":12933,"RestrictedClassType":12934,"jpg":12935,"contiguous":12936,"finalize":12937,"ĠHandles":12938,"Ġrespective":12939,"GithubObject":12940,"trade":12941,"ĠQgs":12942,"stantiate":12943,"IABLE":12944,"Ġfld":12945,"ĠPos":12946,"pdating":12947,"Ġbuttons":12948,"coefficients":12949,"pho":12950,"reement":12951,"decoded":12952,"IOError":12953,"ĠLambda":12954,"ĠWarning":12955,"ĊĠĠĠĠĠĠĠĠĠĠĠĠĊĊĠĠĠ":12956,"rie":12957,"Ġ{}'":12958,"gle":12959,"Ġdup":12960,"ĠPe":12961,"Expect":12962,"nake":12963,"Ġseparately":12964,",,,,":12965,"Inf":12966,"INSERT":12967,"Metrics":12968,"SEPARATOR":12969,"Ġwants":12970,"Calculates":12971,"ISO":12972,"Ġfault":12973,"Ġbrain":12974,"quential":12975,"Ġraising":12976,"Ġalarm":12977,"%%%%":12978,"interpolate":12979,"iff":12980,"Ġtraj":12981,"longest":12982,"Ġrecipients":12983,"Ġdistributed":12984,"GG":12985,"Ġinclusive":12986,"esh":12987,"psf":12988,"capabilities":12989,"Ġazimuth":12990,"eigen":12991,"assemble":12992,"Ġgraphs":12993,"ĠINPUT":12994,"Maximum":12995,"blast":12996,"INE":12997,"([-":12998,"visibility":12999,"writerow":13000,"Ġvocabulary":13001,"Ġlost":13002,"Ġpathname":13003,"Ġfinite":13004,"Ġaltitude":13005,"Cor":13006,"MIP":13007,"xf":13008,"zation":13009,"invoice":13010,"lider":13011,"discovery":13012,"Prop":13013,"translations":13014,"111":13015,"ĠAccept":13016,"Ġcaching":13017,"')])":13018,"ĠExpression":13019,"Ġpermutation":13020,"TICAL":13021,"}'\".":13022,"Estim":13023,"Wrap":13024,"Ġhunt":13025,"ĠExpected":13026,"...'":13027,"Ġdropped":13028,"Trace":13029,"Ġspawn":13030,"heap":13031,":`<":13032,"ugate":13033,"explo":13034,"8601":13035,"`\"\"\"":13036,"don":13037,"ĠTab":13038,"Ġimprove":13039,"/')":13040,"More":13041,"jk":13042,"ĠCluster":13043,"Console":13044,"ĠInit":13045,"Ġstatistic":13046,"Ġpurpose":13047,"arb":13048,"Ġfut":13049,"ListType":13050,"velocity":13051,"writel":13052,"requirement":13053,"Ġcopies":13054,"tostring":13055,"Ġuint":13056,"__):":13057,"Ġregisters":13058,"Ġauthors":13059,"Ġsubjects":13060,"ENDPOINT":13061,"Activity":13062,"ĠROOT":13063,";\"":13064,"bw":13065,"ĠĠĠĠĠĠĠĠĊĠĠĠĠĠĠĠ":13066,"Ġbridge":13067,"Ġhgnc":13068,"Ġ`{":13069,"ĠVER":13070,"ĠMUST":13071,"fitness":13072,"Master":13073,"evidence":13074,"ham":13075,"vp":13076,"Ġfetched":13077,"Ġ_(":13078,"ĠFloat":13079,"ĠThey":13080,">%":13081,"]][":13082,"chive":13083,"backends":13084,"ĠNamespace":13085,"Ġconvolution":13086,"baz":13087,"das":13088,"overall":13089,"Ġwidths":13090,"tiles":13091,"matic":13092,"argmin":13093,"Generic":13094,"`\")":13095,"asafe":13096,"feats":13097,"Ġdiscovery":13098,"Segments":13099,"('/'):":13100,"ĠUnique":13101,"COMMAND":13102,"NORM":13103,"iq":13104,"spot":13105,"Ġenums":13106,"selves":13107,"kappa":13108,"already":13109,"Ġlm":13110,"Ġhp":13111,"ĠVirtual":13112,"Ġ'_')":13113,"Ġlexer":13114,"El":13115,"ximal":13116,"Angle":13117,"FUNCTION":13118,"RESPONSE":13119,"\"')":13120,".-":13121,"await":13122,"gates":13123,"Ġgather":13124,"Ġjac":13125,"Ġphot":13126,"Ġcreator":13127,"OG":13128,"abi":13129,"Ġpointing":13130,"Ġ123":13131,"inject":13132,"isq":13133,"tens":13134,"Ġtrust":13135,"CAP":13136,"SING":13137,"Ġwish":13138,"Ġholding":13139,"Ġgal":13140,"maxsize":13141,"intercept":13142,"manent":13143,"dget":13144,"pment":13145,"Ġflash":13146,"ĠPyFunceble":13147,"Ġcommunic":13148,"iator":13149,"inherit":13150,"ĠLib":13151,"subclass":13152,"duced":13153,"categorical":13154,"sters":13155,"Ġholds":13156,"0001":13157,"ByName":13158,"FILES":13159,"Ġtracking":13160,"ĠSpark":13161,"scenario":13162,"Ġslash":13163,"replacement":13164,"alleles":13165,"lng":13166,"enses":13167,"imate":13168,"ĠLD":13169,"ALT":13170,"ADDR":13171,"devops":13172,">'.":13173,"jinja":13174,"reactions":13175,"redge":13176,"Ġsound":13177,"{:":13178,"Ġnewer":13179,"ARG":13180,"Ġtriple":13181,"éĹ´":13182,"Fn":13183,"Lat":13184,"votes":13185,"itivity":13186,"undefined":13187,"ĠPDB":13188,"agin":13189,"filled":13190,"ĠDatabase":13191,"spectrum":13192,"Ġperforms":13193,"Ġmirror":13194,"WIDTH":13195,"'[":13196,"Ġinfinite":13197,"Curve":13198,"FLAG":13199,"pexpect":13200,"Break":13201,"Ġcoeff":13202,"Ġprobs":13203,"ĠFLAGS":13204,"buses":13205,"placing":13206,"]]]":13207,"Ġ655":13208,"blk":13209,"Visible":13210,"Ġfirmware":13211,"Ġstim":13212,"ĠIF":13213,"Ġ{}}":13214,"retch":13215,"reduced":13216,"Ġtarfile":13217,"57":13218,"citation":13219,"Ġsubdir":13220,"Ġcomputes":13221,"Ġsubj":13222,"Ġ${":13223,"Ġdenom":13224,"bust":13225,"dbs":13226,"wk":13227,"Ġstem":13228,"processors":13229,"VO":13230,"STO":13231,"Ġdisconnect":13232,"ĊĠĠĠĠĠĠĠĠĠĠĠĠĠĠĠĠĠĠĠĠĠĠĠĠĠĠĠĠĠĠĠĠĠĠĠĠĠĠĠĠĠĠĠĠĠĠĠĠĠĠĠĠĠĠĠĠĠĠĠĠĠĠ":13233,"CONF":13234,"ĠTransfer":13235,"Verify":13236,"AIL":13237,"draft":13238,"Ġhot":13239,"ety":13240,"Ġnormally":13241,"dropna":13242,"ĠShort":13243,"AY":13244,"PUB":13245,"dna":13246,"tagged":13247,"supp":13248,"FAIL":13249,"ConfigParser":13250,"Ġ'{}'.":13251,"OIN":13252,"TASK":13253,"ingu":13254,"orted":13255,"ĠSM":13256,"pagin":13257,"minions":13258,"ĠFileNotFoundError":13259,"Ġcorr":13260,"bash":13261,"xdata":13262,"dirpath":13263,"ĠRuns":13264,"Machine":13265,"è´":13266,"instructions":13267,"reindex":13268,"iden":13269,"ĠĠĠĠĠĠĠĠĠĠĠĠĠĠĠĠĠĠĠĠĠĠĠĠĠĠĠĠĠĠ":13270,"ĠEnable":13271,"Ġmsgs":13272,"beats":13273,"ĠHTTPError":13274,"IPv":13275,"PAREN":13276,"hparam":13277,"}</":13278,"ĠPopen":13279,"Ġdrawing":13280,"tbl":13281,"Ġty":13282,"permutation":13283,"erson":13284,"ĠREQUIRED":13285,"[]":13286,"ea":13287,"ĠRender":13288,"acter":13289,"Depth":13290,"documents":13291,"modifiers":13292,"Ġdashboard":13293,"dialect":13294,"seqid":13295,"ĠMeta":13296,"ĠProperty":13297,"+)\\":13298,"Xml":13299,"Ġincomplete":13300,"Ġvrf":13301,"MessageBox":13302,"Ġattachments":13303,"Ġactivate":13304,"Ġsolar":13305,"æĪĲ":13306,"piece":13307,"BAD":13308,"Ġ'^":13309,"ĠCase":13310,"Ġenumeration":13311,"recipient":13312,"Ġ\"@":13313,"Ġprepared":13314,"Ġminions":13315,"multipart":13316,"ĠMinimum":13317,"similarity":13318,"uricreate":13319,"venv":13320,"¦ģ":13321,"Ġwrapping":13322,"ppers":13323,"folio":13324,"Ġensemble":13325,"itervalues":13326,"dispatcher":13327,"uro":13328,"STDOUT":13329,"latin":13330,"publication":13331,"Features":13332,"Ġsnmp":13333,"Ġthresholds":13334,"tight":13335,"ĠDetermines":13336,"AMP":13337,"Ġportal":13338,"Ġconnectivity":13339,"Annotation":13340,"representation":13341,"PASSWORD":13342,"].__":13343,"vendor":13344,"adir":13345,"Ġorm":13346,"ORS":13347,"posts":13348,"serving":13349,"mble":13350,"Ġbrightness":13351,"Ġ(*":13352,"Ġ())":13353,"Ġrates":13354,"ĠSI":13355,"Ġunset":13356,"=====":13357,"Edge":13358,"Boolean":13359,"indx":13360,"coro":13361,"datum":13362,"accepted":13363,"Ġrisk":13364,"ĠTr":13365,"Ġscr":13366,"BUFFER":13367,"hesis":13368,"Origin":13369,"LOBAL":13370,"secrets":13371,"baseline":13372,"Ġoverwritten":13373,"Ġ\"%(":13374,"Ġrecv":13375,"ĠUnicodeDecodeError":13376,"luxes":13377,"NEL":13378,"TL":13379,"vt":13380,"Ġbisect":13381,"periodic":13382,"fnmatch":13383,"Ġcorrected":13384,"snps":13385,"Ġorders":13386,"ĠMeasRec":13387,"gfile":13388,"lw":13389,"online":13390,"phas":13391,"astropy":13392,"hold":13393,"Ġib":13394,"Ġgradients":13395,"Ġmonths":13396,"Ġpublisher":13397,"Geo":13398,"aref":13399,"gm":13400,"Ġpagination":13401,"Ġlead":13402,"ĠCOM":13403,"RESULT":13404,"subparsers":13405,"Ġspot":13406,"Ġerrs":13407,"Worker":13408,"Ġguest":13409,"months":13410,"Ġinstallation":13411,"Ġpsutil":13412,"bag":13413,"Ġweather":13414,"ĠWord":13415,"----------------------------":13416,"Modifi":13417,"Ġ401":13418,"Dispatch":13419,"Linear":13420,"capitalize":13421,">\",":13422,"stored":13423,"Ġrp":13424,"__']":13425,"weak":13426,"Ġpylab":13427,"(_('":13428,"shards":13429,"arctan":13430,"ä¹":13431,"Ġonset":13432,"ĠReport":13433,"ideo":13434,"statuses":13435,"Ġexpectation":13436,"Ġbuffers":13437,"warded":13438,"Ġresiduals":13439,"Ġprecedence":13440,"Ġftype":13441,"utomation":13442,"Ġkwds":13443,"onym":13444,"Ġldap":13445,"Real":13446,"Ġrval":13447,"Ġtid":13448,"Ġstoring":13449,"ĠGtk":13450,"testing":13451,"Ġconvergence":13452,"Activ":13453,"slave":13454,"Ġproviding":13455,"ĠFull":13456,"Ġ'/':":13457,"168":13458,"svc":13459,"Feed":13460,"vault":13461,"Already":13462,"ilo":13463,"Ġfriendly":13464,"ĠTotal":13465,"ĠĠĠĠĠĠĠĠĠĠĠĠĠĠĠĠĠĠĠĠĠĠĠĠĠĠ":13466,"History":13467,"ZipFile":13468,")[:,":13469,"Ã¡":13470,"spike":13471,"intro":13472,"ĠWrap":13473,"gradients":13474,"student":13475,"Ġproviders":13476,"transit":13477,"corner":13478,"Ġlibxml":13479,"QUE":13480,"Ġ\"_\"":13481,"rpm":13482,"agers":13483,"Ġsubdomain":13484,"Ġtranslations":13485,"centroid":13486,"Ġreplacements":13487,"Ġterminated":13488,"Ġdecision":13489,"Ġenterprise":13490,"Month":13491,"Ġoverlapping":13492,"asyncio":13493,"'%(":13494,"dri":13495,"Ġacl":13496,"Std":13497,"ToChar":13498,"Attach":13499,"ensemble":13500,"tlene":13501,"TCP":13502,"wers":13503,"Ġfobj":13504,"Ġprocedure":13505,"Ġcollapse":13506,"txn":13507,"frag":13508,"Ġreasons":13509,"Ġmeasured":13510,"she":13511,"ĠTw":13512,"pathname":13513,"wav":13514,"Ġregression":13515,"Ġroots":13516,"GT":13517,"grouped":13518,"repl":13519,"Ġtmpl":13520,"Ġweld":13521,"than":13522,"via":13523,"ĠRequires":13524,"psa":13525,"];":13526,"listing":13527,"truth":13528,"urllib":13529,"Ġextraction":13530,"Dev":13531,"Ġignoring":13532,"('=')":13533,"41":13534,"pywbem":13535,"ĠRange":13536,"Constraint":13537,"Ġposix":13538,"Ġqualified":13539,"listeners":13540,"rna":13541,"Ġegg":13542,"preference":13543,"preds":13544,"Ġanalyze":13545,"Ċĉĉĉĉĉĉ":13546,"Ġincl":13547,"ĠCor":13548,"ĠME":13549,"Ġmasks":13550,"Overlay":13551,"Ġgpu":13552,"hgnc":13553,"Ġ:],":13554,"Ġgf":13555,"Ġlosses":13556,"ĠEmail":13557,"Units":13558,"continuous":13559,"Ġestimation":13560,"Place":13561,"Ġassociation":13562,"ATIONS":13563,"futures":13564,"Ġsubcommand":13565,"ĠNOQA":13566,"Ġvirtualenv":13567,"ĠNormalize":13568,"isabs":13569,"Ġhub":13570,"undles":13571,"occ":13572,"------------------------":13573,"Override":13574,"ĠSystemExit":13575,"ä¿¡":13576,"Ġbon":13577,"Ġylim":13578,"Ġnewlines":13579,"Ġcommunity":13580,"POINTER":13581,"cumulative":13582,"When":13583,"Ġ({}":13584,"Ġproof":13585,"PROTOCOL":13586,"Fill":13587,"Ġdecay":13588,"proof":13589,"Ġvisitor":13590,"sider":13591,"MODEL":13592,"sex":13593,"\"\",":13594,"Ġcsr":13595,"Ġintent":13596,"Ġrecording":13597,"rollback":13598,"Ġstock":13599,"Ġstopping":13600,"Ġallocated":13601,"directive":13602,"Threshold":13603,"expressions":13604,"elastic":13605,"Ġtier":13606,"Ġassessment":13607,"Ġexplo":13608,"Serialize":13609,"ctr":13610,"Ġsanit":13611,"roper":13612,"Ġblast":13613,"trajectory":13614,"Constant":13615,"hasattr":13616,"mathbf":13617,"Ġindicated":13618,"99999999":13619,"zilla":13620,"Ġomit":13621,"['--":13622,"Ġvary":13623,"Ġmanagement":13624,"Watch":13625,"bers":13626,"erry":13627,"ros":13628,"Ġants":13629,"Ġ(?":13630,"getargspec":13631,"ĠSTR":13632,"ĠPay":13633,"Ġfunctional":13634,"Ġadjacency":13635,"ĠHeat":13636,"Cl":13637,"jwt":13638,"idity":13639,"Ġpropag":13640,"([],":13641,"cachedir":13642,"120":13643,")``.":13644,"CATE":13645,"OO":13646,"dtemp":13647,"jvm":13648,"ĺì":13649,"Ġpres":13650,"ĠDecorator":13651,"MARK":13652,"problems":13653,"scribed":13654,"Ġfinder":13655,"Ġblobxfer":13656,"ĠSHA":13657,"+(":13658,"åĨ":13659,"elded":13660,"Ġexpressed":13661,"Ġoccurrence":13662,"Ġreplica":13663,"PYTHON":13664,"Ġnom":13665,"Ġhd":13666,"Ġtransit":13667,"subjects":13668,"acon":13669,"gtf":13670,"Ġpathlib":13671,"registers":13672,"Ġsplitting":13673,"NDArray":13674,"ĠBecause":13675,"affine":13676,"ĠAttempt":13677,"rection":13678,"datas":13679,"npack":13680,"Ġframework":13681,"rolling":13682,"ĠPerforms":13683,"Ġpwd":13684,"gines":13685,"years":13686,"Async":13687,"softmax":13688,"Ġconflicts":13689,"]**":13690,"Ġthumb":13691,"ĠPackage":13692,"Parsing":13693,"RIGHT":13694,"!='":13695,"ĠAT":13696,"ĠCSS":13697,"Ġpara":13698,"oping":13699,"Ġartifacts":13700,"][:":13701,"city":13702,"turb":13703,"Ġphenotype":13704,"Ġapplications":13705,"arefluxes":13706,"ining":13707,"Ġtiming":13708,"stations":13709,"Ġdbs":13710,"linesep":13711,"Ġpublication":13712,"Ġremoval":13713,"auge":13714,"Percent":13715,"Ġsimpli":13716,"ĠWhich":13717,".))":13718,"Snapshot":13719,"]_.":13720,"Ġhs":13721,"Ġther":13722,"ĠĠĠĠĠĠĠĠĠĠĠĠĠĠĠĠĠĠĠĠĠĠĠĠĠĠĠĠ":13723,"Ġ'%(":13724,"ĠUnit":13725,"Ġapproximation":13726,"aug":13727,"ĠWrapper":13728,"Ġcalculations":13729,"Ġsynchron":13730,"Ġincreasing":13731,"DAY":13732,"perture":13733,"uptools":13734,"incr":13735,"Ġfcoe":13736,"Ġduplicated":13737,"curate":13738,"Ġtagged":13739,"ĠCould":13740,"failures":13741,"wide":13742,"reserved":13743,"Ġbid":13744,"Ġ{'$":13745,"Ġheads":13746,"Algorithm":13747,"NEW":13748,"Ġinteraction":13749,"floating":13750,"forecast":13751,"BUILD":13752,"descr":13753,"Ġdotted":13754,"è¡Į":13755,"Ġtk":13756,"Ġmention":13757,"unwrap":13758,"Ġhmac":13759,"ĠDimension":13760,"blocksize":13761,"transformed":13762,"iliary":13763,"Labels":13764,"atypes":13765,"tracer":13766,"ALLOW":13767,"ĊĠĠĠĠĠĠĠĠĠĠĠĠĠĠĠĠĠĠĠĠĠĠĠĠĠĠĠĠĠĠĠĠĠĠĠĠĠĠĠĠĠĠĠĠĠĠĠĠĠĠĠĠĠĠĠĠĠĠĠĠĠĠĠ":13768,"Ġforced":13769,"Ġequals":13770,"('/')[-":13771,"è¡¨":13772,"wv":13773,"æĶ":13774,"including":13775,"Ġmongo":13776,"adv":13777,"thumb":13778,"bars":13779,"Ġepochs":13780,"contacts":13781,"Ġexceeded":13782,"ĠOUTPUT":13783,"packed":13784,"positional":13785,"Ġcombo":13786,"ĠClose":13787,"ĠSupport":13788,"Done":13789,"sanitize":13790,"Ġ[]).":13791,"Ġtypically":13792,"Ġreplication":13793,"Ġenvironments":13794,"btn":13795,"mate":13796,"nrows":13797,"STEM":13798,"groupdict":13799,"below":13800,"Weight":13801,"Transport":13802,"macs":13803,"ĠAvailable":13804,"ĠWhere":13805,"ĠHISTORY":13806,"disks":13807,"areas":13808,"Ġviewer":13809,"documentation":13810,"recipe":13811,"cidr":13812,"truncate":13813,"Ġproduces":13814,"_{}'.":13815,"å¾":13816,"Ġsanity":13817,"UD":13818,"ĠDAG":13819,"Ġled":13820,"***":13821,"?')":13822,"bes":13823,"descriptors":13824,"leader":13825,"ĠMat":13826,"Ġsimulated":13827,"iny":13828,"Ġstub":13829,"-------+":13830,"paren":13831,"descend":13832,"Ġfacet":13833,"nvml":13834,"Sm":13835,"Ġ'\"'":13836,"Ġlmax":13837,"ĠMAC":13838,"ĠLV":13839,"RESET":13840,"(*[":13841,"Distance":13842,"ĊĠĠĠĠĠĠĠĠĠĠĠĠĠĠĠĠĠĠĠĠĠĠĠĠĠĠĠĠĠĠĠĠĠĠĠĠĠĠĠĠĠĠĠĠĠĠĠĠĠĠĠĠĠĠĠĠĠĠĠĠĠĠĠĠ":13843,"Ġspectral":13844,"envelope":13845,"ĠTABLE":13846,"Retrieves":13847,"Ġdivide":13848,"pio":13849,"dsa":13850,"replica":13851,"CFG":13852,"scheduled":13853,"hance":13854,"âķ":13855,"{}'":13856,"manual":13857,"effective":13858,"Ġkmip":13859,"throat":13860,"Ġfnames":13861,"Ġsmoothed":13862,"Ġtyped":13863,"stemd":13864,"rowse":13865,"SECON":13866,"ĠSecond":13867,"ĠValidation":13868,"CRET":13869,"ĠABC":13870,"cats":13871,"qc":13872,"łģ":13873,"Ġlease":13874,"sparent":13875,"(_(\"":13876,"covariance":13877,"Ġsucceeded":13878,"Ġcompose":13879,"centration":13880,"smart":13881,"Children":13882,"reconnect":13883,"Ġsx":13884,"Ġdynam":13885,"ĠSoft":13886,"Ġevt":13887,"ĠHEAD":13888,"tics":13889,"Ġnaming":13890,"mps":13891,"Ġvalidators":13892,"Ġsphere":13893,"ARGET":13894,"corded":13895,"ĠStri":13896,"ĠRetrieves":13897,"NAMESPACE":13898,"Ġassociate":13899,"Ġhyd":13900,"Such":13901,"leave":13902,"unsigned":13903,"Ġlp":13904,"ĠCy":13905,"Ġlens":13906,"Ġhasn":13907,"itemgetter":13908,"Ġmanip":13909,"includes":13910,"Ġquadratic":13911,"High":13912,"Supported":13913,"uby":13914,"bsolute":13915,"PIO":13916,"Ġportion":13917,"LAl":13918,"Ġannotate":13919,"ä¸Ģä¸ª":13920,"Fit":13921,"JOB":13922,"Ġconcurrent":13923,"ĠCallback":13924,"campaign":13925,"Ġ``.":13926,"primitive":13927,"CV":13928,"Ġtqdm":13929,"heartbeat":13930,"Ġnorth":13931,"utron":13932,"Ġthink":13933,"serialization":13934,"Need":13935,"æĪ·":13936,"Ġdeserialized":13937,"ĠFail":13938,"Ġ{}\"":13939,"argins":13940,"ĠComb":13941,"ĠAnalysis":13942,"cbc":13943,"Subject":13944,"Ġfold":13945,"Ġ==================================":13946,"fileName":13947,"ĠAD":13948,"ĠRES":13949,"Ġshows":13950,"Commit":13951,"Div":13952,"chmod":13953,"ĠNumpy":13954,"shp":13955,"subtract":13956,"Checked":13957,"frags":13958,"åı¯":13959,"Ġalternate":13960,"Backend":13961,"71":13962,"readed":13963,"Ġdeleting":13964,"ĠOri":13965,"IGHT":13966,"Ġsignatures":13967,"ACCESS":13968,"\"})":13969,"=(),":13970,"itors":13971,"Ġjc":13972,"Ġzones":13973,"amplitude":13974,"Ġintegral":13975,"LAlchemy":13976,"BV":13977,"intensity":13978,"andbox":13979,"DEL":13980,"Ġlibraries":13981,"even":13982,"ras":13983,"ĠPRE":13984,"ARM":13985,"plural":13986,"Addr":13987,"Look":13988,"slt":13989,"carded":13990,"cture":13991,"allclose":13992,"Ġprovision":13993,"Ġsyllable":13994,"Ġscalars":13995,"ElementsBy":13996,"TC":13997,"Ġchk":13998,"bytearray":13999,"Rot":14000,"inference":14001,"Ġsca":14002,"ĠDX":14003,"Ġpause":14004,"Ġweak":14005,"ĠRaw":14006,"tleneck":14007,"Saml":14008,"balancer":14009,"Ġbuilds":14010,"çłģ":14011,"arith":14012,"Ġreduction":14013,"procs":14014,"Ġpreference":14015,"Ġliquid":14016,"Ġdenominator":14017,"rated":14018,"metri":14019,"heat":14020,"presen":14021,"ĠHist":14022,"Ġtraverse":14023,"Ġcentral":14024,"ĠINTO":14025,"ĠBytesIO":14026,"wid":14027,"ĠCAS":14028,"creator":14029,"Ġplacement":14030,"hints":14031,"setattr":14032,"Ġpainter":14033,"ĠRule":14034,"Ġfitted":14035,"Predi":14036,"\"+":14037,"Dist":14038,"Power":14039,"dg":14040,"ious":14041,"Ġtcp":14042,"ĠUI":14043,"fullpath":14044,"Ġassignments":14045,"Ġmotor":14046,"dos":14047,"Ġextractor":14048,"Ġdatum":14049,"Specification":14050,"Ġé":14051,"Ġprune":14052,"flash":14053,"Skip":14054,"inates":14055,"Ġlng":14056,"ĠMult":14057,"Tools":14058,"dark":14059,"hunt":14060,"you":14061,"Ġdiameter":14062,"Ġpref":14063,"Ġprinting":14064,"ToCharP":14065,"nas":14066,"sx":14067,"pylint":14068,"lats":14069,"genus":14070,"Ġaccessible":14071,"Ġparticipant":14072,"ĠInterval":14073,"Ġadjusted":14074,"bt":14075,"ratios":14076,"Ġie":14077,"Ġxlim":14078,"Ġdiffs":14079,"Ġpsf":14080,"Ġsvc":14081,"Available":14082,"Ġprovenance":14083,"Ġ26":14084,"ĠVi":14085,"Ġ``_":14086,"Ġ[]}":14087,"stringToCharP":14088,"curves":14089,"GPS":14090,"Ġspark":14091,"oney":14092,"ĠBE":14093,"REMO":14094,"oseVersion":14095,"zonefile":14096,"Ġexcludes":14097,"Editor":14098,"ĠElse":14099,"Cre":14100,"Ġ199":14101,"ĠGrid":14102,"necessary":14103,"STOR":14104,"LEFT":14105,"Ġ`{}`":14106,"SG":14107,"pres":14108,"quota":14109,"opcode":14110,"Ġpopulated":14111,"Lambda":14112,"Ġjinja":14113,"Ġbaseinteger":14114,"Cookie":14115,"ĠCons":14116,"fastaccess":14117,"Ġpersistent":14118,"Redis":14119,"RUNN":14120,".'))":14121,"Ġwall":14122,"Ġasn":14123,"energies":14124,"SITE":14125,"stores":14126,"'(":14127,")^":14128,"Ns":14129,"Ste":14130,"validators":14131,"ĠRo":14132,"Ġidle":14133,"systems":14134,"Ġkws":14135,"Ġstrides":14136,"MX":14137,"ju":14138,"Ġsweep":14139,"Ġrtype":14140,"ĠCR":14141,"ĠVCF":14142,"Ġurljoin":14143,"EXIST":14144,"fluxes":14145,"detector":14146,"Ġrespons":14147,"ctrlpts":14148,"Ġcontribution":14149,"METADATA":14150,"pca":14151,"Ġ'~":14152,"Ġdeque":14153,"fileStore":14154,"Ġpreview":14155,"Ġbackends":14156,"})\".":14157,"ĠTransaction":14158,"HEADERS":14159,"Problem":14160,"Ġfuncs":14161,"genotype":14162,"distinct":14163,"Ġsegmentation":14164,"6666":14165,"yond":14166,"semi":14167,"Pair":14168,"drag":14169,"Ġprojected":14170,"(\",\")":14171,"ĠKeys":14172,"Ġcitation":14173,"))])":14174,"proxies":14175,"ĠUt":14176,"chromosome":14177,"coefs":14178,"ĠSimilar":14179,"ĠPrivate":14180,"migration":14181,"________________":14182,"Ġcance":14183,"\"]],":14184,"Ġsingleton":14185,"Ġdbus":14186,"keras":14187,"MATCH":14188,"npy":14189,"||":14190,"adjacency":14191,"Ġrg":14192,"Information":14193,"Ġestab":14194,"publisher":14195,"æĸĩä»¶":14196,"_*":14197,"hc":14198,"modifier":14199,"FILTER":14200,"FFIX":14201,"sell":14202,"cex":14203,"Ġstmts":14204,"Ġvoid":14205,"ĠRole":14206,"matrices":14207,"Ġprivile":14208,"ĠNameError":14209,"Validator":14210,"assignments":14211,"want":14212,"};":14213,"ĠWrites":14214,"ĠEntity":14215,"fld":14216,"Ġreadline":14217,"dof":14218,"Ġvarname":14219,"CHANGE":14220,"orizon":14221,">/":14222,"Ensure":14223,"FR":14224,"verified":14225,"Ġrsp":14226,"ĠDES":14227,"ĠMV":14228,"CEPTION":14229,"IGN":14230,"Schedule":14231,"Ġaugment":14232,"urlencode":14233,"Ġ45":14234,"Ġplate":14235,"retty":14236,"Alias":14237,"AdminSession":14238,"7554":14239,"Ġgray":14240,"ĠSY":14241,"Ġ`(":14242,"Ġalter":14243,"subdir":14244,"Ġcommits":14245,"embedded":14246,"Ġmodifiers":14247,"=<":14248,"eLife":14249,"knot":14250,"xls":14251,"rers":14252,"Ġpropagate":14253,"Ġprep":14254,"ĠChar":14255,"ĠFinds":14256,"Corre":14257,"persist":14258,"TimeoutError":14259,"Ġalleles":14260,"Ġazure":14261,"coerce":14262,"Ġ(\\":14263,"(\"*":14264,"Ġgrace":14265,"gpg":14266,"Manage":14267,"segmentation":14268,"Bro":14269,"GING":14270,"cen":14271,"does":14272,"suc":14273,"=[]):":14274,"Ġstrength":14275,"ĠTwo":14276,"quares":14277,"resume":14278,"icles":14279,"Ġ''',":14280,"connector":14281,"Ġclosure":14282,"Ġnetworkx":14283,"anyarray":14284,"Couldn":14285,"ĠCalls":14286,"DICT":14287,"toolkit":14288,"CLU":14289,"Ġsay":14290,"mbl":14291,"STOP":14292,"varname":14293,"Ġ512":14294,"Ġ'{:":14295,"TagName":14296,"nf":14297,"Ġmagn":14298,"Ġspline":14299,"ĠStructure":14300,"WM":14301,"incoming":14302,"Ġareas":14303,"successors":14304,"xticks":14305,"ĠFill":14306,"journal":14307,"ongodb":14308,"Ġagents":14309,"Mult":14310,"_',":14311,"Ġctxt":14312,"setter":14313,"Ġvote":14314,"logo":14315,"phenotype":14316,"([\\":14317,"}{\\":14318,"phanum":14319,"YANGListType":14320,"Scan":14321,"Surface":14322,"rsp":14323,"uing":14324,"æĮ":14325,"**-":14326,"012":14327,"popleft":14328,"trials":14329,"Ġbinascii":14330,"Instances":14331,"oids":14332,"ĠDeletes":14333,"rw":14334,"Ġvendor":14335,"lpha":14336,"PEG":14337,"ClientError":14338,"ĠDomain":14339,"ĠIdentifier":14340,"Ġsearched":14341,"ĠDynamo":14342,"qry":14343,"insum":14344,"clust":14345,"accum":14346,"Ġabspath":14347,"packets":14348,"Ġ\"'{":14349,"åĲį":14350,"Ġshutit":14351,"REGISTR":14352,"marginal":14353,"observer":14354,"icrosoft":14355,"upyter":14356,"[@":14357,"Ġsaves":14358,"getAttribute":14359,"ĠWCS":14360,"Ġsubtree":14361,"ä¸ĭ":14362,"Ġoptimized":14363,"membership":14364,".]":14365,"Ġansw":14366,"Ġrating":14367,"slc":14368,"ĠIdent":14369,"HASH":14370,"Push":14371,"}))":14372,"delivery":14373,"Ġwd":14374,"asanyarray":14375,"parms":14376,"quotes":14377,"Ġdivision":14378,"fieldname":14379,"ĠMemory":14380,"Ġpolygons":14381,"marize":14382,"axy":14383,"...]":14384,"Ġprinter":14385,"Ġlatex":14386,"Ġsatisfy":14387,"Ro":14388,"loci":14389,"Ġhue":14390,"ĠWBEM":14391,"subtree":14392,"DataType":14393,"boundaries":14394,"ĠTags":14395,"ĠNV":14396,"medium":14397,"PARAMS":14398,"Cols":14399,"OID":14400,"Ġstamp":14401,"readonly":14402,"Ġkb":14403,"Ġshlex":14404,"Ġbreaks":14405,"-{":14406,"Des":14407,"vmax":14408,"routine":14409,"Ġlxml":14410,"Repo":14411,"SETTINGS":14412,"ASS":14413,"Duplicate":14414,"eve":14415,"wi":14416,"ĠFore":14417,"desktop":14418,"Ġtunnel":14419,"pep":14420,"Ġanimation":14421,"Ġcomposition":14422,"POS":14423,"successful":14424,"codon":14425,"Ġciphertext":14426,"Illegal":14427,"Ġaccessed":14428,"Ġmatter":14429,"Ġoperating":14430,"Ġerrmsg":14431,"å¯¹":14432,"_')":14433,"upling":14434,"Runner":14435,"skipped":14436,"Issue":14437,"bat":14438,"Ġaid":14439,"Ġsquared":14440,"omatic":14441,"substitution":14442,"ENO":14443,"Ġconcatenate":14444,"DIRECTORY":14445,"91":14446,"getElementsBy":14447,"Ġorb":14448,"Ġxr":14449,"Ġsolid":14450,"EXTEN":14451,"monitoring":14452,"evaluation":14453,"ĠPopbill":14454,"ĠPopbillException":14455,"DBSession":14456,"FILENAME":14457,"Ġmotion":14458,"Ġshifted":14459,"Ġ{}))":14460,"queued":14461,"COMMENT":14462,"ymax":14463,"Ġspread":14464,"iterate":14465,"ABASE":14466,"Ġwritable":14467,"tracking":14468,"25519":14469,"tilt":14470,"Ġpn":14471,"Ġslic":14472,"three":14473,"ĠLike":14474,"combinations":14475,"Writes":14476,"away":14477,"åĢ":14478,"lays":14479,"ĠSNMP":14480,"BIT":14481,"FLO":14482,"Ġurn":14483,"Ġnatural":14484,"Removes":14485,"Ġyy":14486,"MAV":14487,"enterprise":14488,"MON":14489,"Vec":14490,"Ġstanza":14491,"amazon":14492,"Ġcand":14493,"ĠPress":14494,"Ġbreakpoint":14495,"Subnet":14496,"ĠOperators":14497,"Spect":14498,"tg":14499,"uts":14500,"Ġlig":14501,"={}):":14502,"software":14503,"Ġcodon":14504,"CASRN":14505,"JLink":14506,"Potential":14507,"VED":14508,
[...]
